{
  "version": "1.0",
  "truncation": null,
  "padding": null,
  "added_tokens": [
    {
      "id": 0,
      "content": "[PAD]",
      "single_word": false,
      "lstrip": false,
      "rstrip": false,
      "normalized": false,
      "special": true
    },
    {
      "id": 1,
      "content": "[EOS]",
      "single_word": false,
      "lstrip": false,
      "rstrip": false,
      "normalized": false,
      "special": true
    },
    {
      "id": 2,
      "content": "[SEP]",
      "single_word": false,
      "lstrip": false,
      "rstrip": false,
      "normalized": false,
      "special": true
    }
  ],
  "normalizer": null,
  "pre_tokenizer": {
    "type": "Whitespace"
  },
  "post_processor": null,
  "decoder": null,
  "model": {
    "type": "BPE",
    "dropout": null,
    "unk_token": null,
    "continuing_subword_prefix": null,
    "end_of_word_suffix": null,
    "fuse_unk": false,
    "byte_fallback": false,
    "ignore_merges": false,
    "vocab": {
      "[PAD]": 0,
      "[EOS]": 1,
      "[SEP]": 2,
      "!": 3,
      "\"": 4,
      "#": 5,
      "$": 6,
      "%": 7,
      "&": 8,
      "'": 9,
      "(": 10,
      ")": 11,
      "*": 12,
      "+": 13,
      ",": 14,
      "-": 15,
      ".": 16,
      "/": 17,
      "0": 18,
      "1": 19,
      "2": 20,
      "3": 21,
      "4": 22,
      "5": 23,
      "6": 24,
      "7": 25,
      "8": 26,
      "9": 27,
      ":": 28,
      ";": 29,
      "<": 30,
      "=": 31,
      ">": 32,
      "?": 33,
      "@": 34,
      "A": 35,
      "B": 36,
      "C": 37,
      "D": 38,
      "E": 39,
      "F": 40,
      "G": 41,
      "H": 42,
      "I": 43,
      "J": 44,
      "K": 45,
      "L": 46,
      "M": 47,
      "N": 48,
      "O": 49,
      "P": 50,
      "Q": 51,
      "R": 52,
      "S": 53,
      "T": 54,
      "U": 55,
      "V": 56,
      "W": 57,
      "X": 58,
      "Y": 59,
      "Z": 60,
      "[": 61,
      "\\": 62,
      "]": 63,
      "^": 64,
      "_": 65,
      "`": 66,
      "a": 67,
      "b": 68,
      "c": 69,
      "d": 70,
      "e": 71,
      "f": 72,
      "g": 73,
      "h": 74,
      "i": 75,
      "j": 76,
      "k": 77,
      "l": 78,
      "m": 79,
      "n": 80,
      "o": 81,
      "p": 82,
      "q": 83,
      "r": 84,
      "s": 85,
      "t": 86,
      "u": 87,
      "v": 88,
      "w": 89,
      "x": 90,
      "y": 91,
      "z": 92,
      "{": 93,
      "}": 94,
      "~": 95,
      "£": 96,
      "°": 97,
      "²": 98,
      "µ": 99,
      "Æ": 100,
      "á": 101,
      "ä": 102,
      "é": 103,
      "í": 104,
      "ō": 105,
      "Š": 106,
      "ṯ": 107,
      "–": 108,
      "—": 109,
      "‘": 110,
      "’": 111,
      "“": 112,
      "”": 113,
      "†": 114,
      "‡": 115,
      "₤": 116,
      "₹": 117,
      "の": 118,
      "ァ": 119,
      "ア": 120,
      "キ": 121,
      "ュ": 122,
      "リ": 123,
      "ル": 124,
      "ヴ": 125,
      "場": 126,
      "戦": 127,
      "on": 128,
      "ti": 129,
      "th": 130,
      "in": 131,
      "er": 132,
      "an": 133,
      "the": 134,
      "ed": 135,
      "tion": 136,
      "es": 137,
      "en": 138,
      "or": 139,
      "tr": 140,
      "al": 141,
      "ar": 142,
      "ac": 143,
      "of": 144,
      "and": 145,
      "tl": 146,
      "ction": 147,
      "is": 148,
      "as": 149,
      "at": 150,
      "od": 151,
      "re": 152,
      "si": 153,
      "ing": 154,
      "to": 155,
      "ts": 156,
      "ro": 157,
      "ation": 158,
      "ic": 159,
      "str": 160,
      "el": 161,
      "act": 162,
      "un": 163,
      "con": 164,
      "ul": 165,
      "tle": 166,
      "ection": 167,
      "for": 168,
      "Un": 169,
      "sion": 170,
      "it": 171,
      "me": 172,
      "uction": 173,
      "ections": 174,
      "Ti": 175,
      "Ab": 176,
      "tled": 177,
      "st": 178,
      "titled": 179,
      "le": 180,
      "lu": 181,
      "stract": 182,
      "Sections": 183,
      "Untitled": 184,
      "Title": 185,
      "Abstract": 186,
      "intr": 187,
      "oduction": 188,
      "ma": 189,
      "co": 190,
      "introduction": 191,
      "us": 192,
      "he": 193,
      "de": 194,
      "men": 195,
      "ow": 196,
      "ur": 197,
      "il": 198,
      "ir": 199,
      "se": 200,
      "ch": 201,
      "um": 202,
      "clu": 203,
      "ter": 204,
      "res": 205,
      "am": 206,
      "ad": 207,
      "ith": 208,
      "ol": 209,
      "was": 210,
      "conclu": 211,
      "ack": 212,
      "per": 213,
      "be": 214,
      "conclusion": 215,
      "li": 216,
      "with": 217,
      "ve": 218,
      "dis": 219,
      "ay": 220,
      "ec": 221,
      "ap": 222,
      "The": 223,
      "di": 224,
      "ly": 225,
      "tic": 226,
      "-@": 227,
      "mp": 228,
      "ri": 229,
      "ver": 230,
      "ge": 231,
      "@-@": 232,
      "sp": 233,
      "ce": 234,
      "ex": 235,
      "hi": 236,
      "ere": 237,
      "gh": 238,
      "ut": 239,
      "ations": 240,
      "pro": 241,
      "led": 242,
      "qu": 243,
      "pl": 244,
      "so": 245,
      "tin": 246,
      "wh": 247,
      "that": 248,
      "ent": 249,
      "ary": 250,
      "xma": 251,
      "xmath": 252,
      "ments": 253,
      "ment": 254,
      "now": 255,
      "ot": 256,
      "cus": 257,
      "ab": 258,
      "mod": 259,
      "lo": 260,
      "resul": 261,
      "su": 262,
      "conclusions": 263,
      "cussion": 264,
      "op": 265,
      "discussion": 266,
      "ne": 267,
      "nowled": 268,
      "rom": 269,
      "und": 270,
      "results": 271,
      "by": 272,
      "acknowled": 273,
      "were": 274,
      "form": 275,
      "ting": 276,
      "te": 277,
      "ate": 278,
      "ity": 279,
      "19": 280,
      "ther": 281,
      "ra": 282,
      "cal": 283,
      "are": 284,
      "god": 285,
      "vi": 286,
      "ted": 287,
      "po": 288,
      "mo": 289,
      "model": 290,
      "from": 291,
      "unk": 292,
      "air": 293,
      "ga": 294,
      "par": 295,
      "all": 296,
      "ear": 297,
      "ers": 298,
      "ess": 299,
      "em": 300,
      "tw": 301,
      "ties": 302,
      "fi": 303,
      "gy": 304,
      "om": 305,
      "his": 306,
      "ser": 307,
      "ff": 308,
      "ci": 309,
      "ated": 310,
      "00": 311,
      "comp": 312,
      "ob": 313,
      "sum": 314,
      "sh": 315,
      "up": 316,
      "com": 317,
      "sis": 318,
      "ta": 319,
      "wor": 320,
      "ies": 321,
      "ou": 322,
      "av": 323,
      "der": 324,
      "uc": 325,
      "her": 326,
      "ten": 327,
      "ans": 328,
      "id": 329,
      "ical": 330,
      "ion": 331,
      "mary": 332,
      "ine": 333,
      "ding": 334,
      "ph": 335,
      "ure": 336,
      "In": 337,
      "serv": 338,
      "gn": 339,
      "summary": 340,
      "sy": 341,
      "ard": 342,
      "acknowledg": 343,
      "ft": 344,
      "ke": 345,
      "ich": 346,
      "gods": 347,
      "ory": 348,
      "ong": 349,
      "cor": 350,
      "pr": 351,
      "ght": 352,
      "ev": 353,
      "one": 354,
      "des": 355,
      "gr": 356,
      "out": 357,
      "ty": 358,
      "ener": 359,
      "iz": 360,
      "ous": 361,
      "low": 362,
      "man": 363,
      "not": 364,
      "ant": 365,
      "les": 366,
      "ark": 367,
      "hip": 368,
      "acknowledgments": 369,
      "ame": 370,
      "num": 371,
      "other": 372,
      "ort": 373,
      "tions": 374,
      "fer": 375,
      "had": 376,
      "spec": 377,
      "ities": 378,
      "ence": 379,
      "which": 380,
      "iv": 381,
      "mb": 382,
      "tive": 383,
      "their": 384,
      "app": 385,
      "ces": 386,
      "bu": 387,
      "inter": 388,
      "ace": 389,
      "its": 390,
      "ach": 391,
      "observ": 392,
      "pre": 393,
      "aly": 394,
      "ha": 395,
      "bo": 396,
      "fo": 397,
      "tri": 398,
      "min": 399,
      "pres": 400,
      "est": 401,
      "analy": 402,
      "peri": 403,
      "mor": 404,
      "no": 405,
      "ari": 406,
      "ase": 407,
      "Egy": 408,
      "ass": 409,
      "Egyp": 410,
      "ck": 411,
      "over": 412,
      "acknowledge": 413,
      "gro": 414,
      "vel": 415,
      "fe": 416,
      "ally": 417,
      "play": 418,
      "18": 419,
      "cre": 420,
      "im": 421,
      "Ch": 422,
      "but": 423,
      "ell": 424,
      "two": 425,
      "fin": 426,
      "uld": 427,
      "char": 428,
      "red": 429,
      "tor": 430,
      "reg": 431,
      "20": 432,
      "ance": 433,
      "raft": 434,
      "comm": 435,
      "mul": 436,
      "end": 437,
      "ble": 438,
      "ag": 439,
      "tim": 440,
      "fir": 441,
      "ho": 442,
      "equ": 443,
      "sec": 444,
      "if": 445,
      "tur": 446,
      "Ar": 447,
      "ree": 448,
      "eld": 449,
      "ain": 450,
      "ship": 451,
      "main": 452,
      "fun": 453,
      "cl": 454,
      "old": 455,
      "xmath1": 456,
      "acknowledgements": 457,
      "time": 458,
      "cri": 459,
      "ational": 460,
      "ular": 461,
      "meth": 462,
      "analysis": 463,
      "syst": 464,
      "ded": 465,
      "wo": 466,
      "als": 467,
      "who": 468,
      "work": 469,
      "observations": 470,
      "os": 471,
      "metr": 472,
      "deities": 473,
      "game": 474,
      "Egypti": 475,
      "ates": 476,
      "imp": 477,
      "pe": 478,
      "ish": 479,
      "rel": 480,
      "tical": 481,
      "ber": 482,
      "et": 483,
      "fter": 484,
      "He": 485,
      "nam": 486,
      "son": 487,
      "method": 488,
      "system": 489,
      "St": 490,
      "craft": 491,
      "has": 492,
      "dat": 493,
      "olu": 494,
      "also": 495,
      "GA": 496,
      "ew": 497,
      "mon": 498,
      "first": 499,
      "experi": 500,
      "numer": 501,
      "ll": 502,
      "able": 503,
      "data": 504,
      "ak": 505,
      "off": 506,
      "ms": 507,
      "mag": 508,
      "numerical": 509,
      "ok": 510,
      "ple": 511,
      "sing": 512,
      "year": 513,
      "field": 514,
      "Th": 515,
      "fr": 516,
      "ia": 517,
      "oper": 518,
      "sed": 519,
      "ang": 520,
      "ign": 521,
      "ning": 522,
      "ton": 523,
      "she": 524,
      "ason": 525,
      ";[": 526,
      "gener": 527,
      "ie": 528,
      "ater": 529,
      "aircraft": 530,
      "have": 531,
      "ian": 532,
      "lar": 533,
      "sm": 534,
      "way": 535,
      "tiv": 536,
      "this": 537,
      "atter": 538,
      "uring": 539,
      ",@": 540,
      ".@": 541,
      "@,@": 542,
      "@.@": 543,
      "eff": 544,
      "ue": 545,
      "ind": 546,
      "enti": 547,
      "ower": 548,
      "ial": 549,
      "ld": 550,
      "ast": 551,
      "ull": 552,
      "ill": 553,
      "new": 554,
      "It": 555,
      "];": 556,
      "gin": 557,
      "ub": 558,
      "tra": 559,
      "some": 560,
      "201": 561,
      "br": 562,
      "lin": 563,
      "mu": 564,
      "cond": 565,
      "star": 566,
      "more": 567,
      "bas": 568,
      "ky": 569,
      "ely": 570,
      "olo": 571,
      "charact": 572,
      "cur": 573,
      "ors": 574,
      "present": 575,
      "ating": 576,
      "cul": 577,
      "function": 578,
      "ern": 579,
      "they": 580,
      "ings": 581,
      "II": 582,
      "por": 583,
      "team": 584,
      "experiment": 585,
      "au": 586,
      "after": 587,
      "lack": 588,
      "ron": 589,
      "ences": 590,
      "ough": 591,
      "Egyptian": 592,
      "Ro": 593,
      "back": 594,
      "can": 595,
      "lay": 596,
      "tly": 597,
      "ise": 598,
      "ect": 599,
      "buil": 600,
      "gam": 601,
      "sa": 602,
      "temp": 603,
      "An": 604,
      "car": 605,
      "ren": 606,
      "contr": 607,
      "ized": 608,
      "She": 609,
      "age": 610,
      "een": 611,
      "gu": 612,
      "mi": 613,
      "non": 614,
      "we": 615,
      "into": 616,
      "rou": 617,
      "use": 618,
      "tain": 619,
      "clo": 620,
      "mark": 621,
      "ss": 622,
      "sur": 623,
      "ved": 624,
      "inst": 625,
      "inclu": 626,
      "ann": 627,
      "sign": 628,
      "ited": 629,
      "own": 630,
      "diff": 631,
      "xmath0": 632,
      "den": 633,
      "go": 634,
      "lic": 635,
      "them": 636,
      "appen": 637,
      "200": 638,
      "ition": 639,
      "mil": 640,
      "sc": 641,
      "sen": 642,
      "fore": 643,
      "ility": 644,
      "set": 645,
      "space": 646,
      "poin": 647,
      "tween": 648,
      "four": 649,
      "pri": 650,
      "than": 651,
      "ittle": 652,
      "dep": 653,
      "div": 654,
      "under": 655,
      "ax": 656,
      "three": 657,
      "ite": 658,
      "could": 659,
      "appro": 660,
      "hile": 661,
      "character": 662,
      "dy": 663,
      "simul": 664,
      "tribu": 665,
      "ray": 666,
      "vari": 667,
      "only": 668,
      "tran": 669,
      "ick": 670,
      "tics": 671,
      "Au": 672,
      "Val": 673,
      "ets": 674,
      "season": 675,
      "been": 676,
      "between": 677,
      "dix": 678,
      "high": 679,
      "partic": 680,
      "general": 681,
      "hy": 682,
      "iver": 683,
      "my": 684,
      "mer": 685,
      "ome": 686,
      "though": 687,
      "these": 688,
      "theory": 689,
      "order": 690,
      "light": 691,
      "ria": 692,
      "posi": 693,
      "appendix": 694,
      "theor": 695,
      "refer": 696,
      "ics": 697,
      "ced": 698,
      "cess": 699,
      "during": 700,
      "ep": 701,
      "rit": 702,
      "exp": 703,
      "most": 704,
      "rough": 705,
      "ative": 706,
      "ris": 707,
      "scal": 708,
      "ung": 709,
      "sub": 710,
      "ization": 711,
      "ground": 712,
      "Valky": 713,
      "hum": 714,
      "ide": 715,
      "sel": 716,
      "ward": 717,
      "ork": 718,
      "struc": 719,
      "being": 720,
      "soci": 721,
      "magne": 722,
      "Valkyria": 723,
      "Little": 724,
      "aer": 725,
      "bum": 726,
      "power": 727,
      "war": 728,
      "through": 729,
      "ori": 730,
      "trans": 731,
      "album": 732,
      "ision": 733,
      "grap": 734,
      "15": 735,
      "pol": 736,
      "action": 737,
      "ission": 738,
      "ects": 739,
      "exam": 740,
      "when": 741,
      "bel": 742,
      "flu": 743,
      "oc": 744,
      "ran": 745,
      "well": 746,
      "ents": 747,
      "ulation": 748,
      "amil": 749,
      "sup": 750,
      "part": 751,
      "many": 752,
      "ific": 753,
      "Rock": 754,
      "came": 755,
      "ever": 756,
      "gg": 757,
      "ons": 758,
      "eng": 759,
      "state": 760,
      "proof": 761,
      "such": 762,
      "view": 763,
      "energy": 764,
      "multi": 765,
      "would": 766,
      "divine": 767,
      "Blu": 768,
      "any": 769,
      "ism": 770,
      "rec": 771,
      "represent": 772,
      "phy": 773,
      "descri": 774,
      "design": 775,
      "case": 776,
      "ez": 777,
      "gen": 778,
      "lish": 779,
      "ven": 780,
      "arch": 781,
      "remark": 782,
      "sical": 783,
      "lim": 784,
      "cep": 785,
      "199": 786,
      "arker": 787,
      "experimental": 788,
      "Jack": 789,
      "med": 790,
      "used": 791,
      "like": 792,
      "proble": 793,
      "compar": 794,
      "turn": 795,
      "small": 796,
      "Cull": 797,
      "HL": 798,
      "bod": 799,
      "gi": 800,
      "gan": 801,
      "oh": 802,
      "port": 803,
      "sol": 804,
      "ature": 805,
      "recor": 806,
      "contin": 807,
      "ters": 808,
      "plic": 809,
      "solu": 810,
      "models": 811,
      "000": 812,
      "world": 813,
      "number": 814,
      "ology": 815,
      "origin": 816,
      "Cullen": 817,
      "Barker": 818,
      "King": 819,
      "aga": 820,
      "do": 821,
      "ef": 822,
      "tro": 823,
      "meas": 824,
      "made": 825,
      "distribu": 826,
      "spin": 827,
      "plan": 828,
      "Colu": 829,
      "ath": 830,
      "gun": 831,
      "giv": 832,
      "ight": 833,
      "king": 834,
      "ves": 835,
      "reli": 836,
      "ollow": 837,
      "ected": 838,
      "ability": 839,
      "formation": 840,
      "avy": 841,
      "layer": 842,
      "Blue": 843,
      "Columb": 844,
      "Al": 845,
      "As": 846,
      "cy": 847,
      "cer": 848,
      "gold": 849,
      "ip": 850,
      "ture": 851,
      "val": 852,
      "while": 853,
      "tis": 854,
      "ord": 855,
      "ice": 856,
      "sta": 857,
      "adi": 858,
      "dition": 859,
      "about": 860,
      "calcul": 861,
      "velop": 862,
      "times": 863,
      "ronic": 864,
      "games": 865,
      "senal": 866,
      "Jackets": 867,
      "Fern": 868,
      "Re": 869,
      "UK": 870,
      "ah": 871,
      "dom": 872,
      "gal": 873,
      "la": 874,
      "land": 875,
      "mal": 876,
      "mmetr": 877,
      "national": 878,
      "pil": 879,
      "xim": 880,
      "estim": 881,
      "tre": 882,
      "andez": 883,
      "atur": 884,
      "ele": 885,
      "coun": 886,
      "develop": 887,
      "second": 888,
      "perform": 889,
      "fied": 890,
      "equations": 891,
      "Fernandez": 892,
      "CA": 893,
      "gre": 894,
      "mun": 895,
      "ove": 896,
      "there": 897,
      "ased": 898,
      "oduc": 899,
      "requ": 900,
      "side": 901,
      "sive": 902,
      "ild": 903,
      "before": 904,
      "proper": 905,
      "where": 906,
      "super": 907,
      "viation": 908,
      "comple": 909,
      "Austr": 910,
      "references": 911,
      "remarks": 912,
      "comparis": 913,
      "tory": 914,
      "ual": 915,
      "ask": 916,
      "ator": 917,
      "conn": 918,
      "col": 919,
      "resp": 920,
      "xmath3": 921,
      "spectr": 922,
      "186": 923,
      "region": 924,
      "olution": 925,
      "problem": 926,
      "nor": 927,
      "ots": 928,
      "ound": 929,
      "uary": 930,
      "remain": 931,
      "sic": 932,
      "round": 933,
      "stand": 934,
      "xmath2": 935,
      "mber": 936,
      "appear": 937,
      "Chronic": 938,
      "differ": 939,
      "magnetic": 940,
      "Columbus": 941,
      "Chronicles": 942,
      ";@": 943,
      "bi": 944,
      "bin": 945,
      "pub": 946,
      "ust": 947,
      "inv": 948,
      "ese": 949,
      "rele": 950,
      "sity": 951,
      "cial": 952,
      "played": 953,
      "class": 954,
      "single": 955,
      "operations": 956,
      "dynam": 957,
      "graph": 958,
      "12": 959,
      "Bri": 960,
      "NHL": 961,
      "ca": 962,
      "fly": 963,
      "follow": 964,
      "long": 965,
      "ped": 966,
      "ses": 967,
      "wa": 968,
      "ised": 969,
      "ading": 970,
      "local": 971,
      "ucle": 972,
      "phase": 973,
      "both": 974,
      "reduction": 975,
      "fields": 976,
      "aerod": 977,
      "comparison": 978,
      "11": 979,
      "Black": 980,
      "bed": 981,
      "bro": 982,
      "cen": 983,
      "cent": 984,
      "dol": 985,
      "day": 986,
      "hel": 987,
      "line": 988,
      "mic": 989,
      "nucle": 990,
      "our": 991,
      "ry": 992,
      "elec": 993,
      "constr": 994,
      "stu": 995,
      "sport": 996,
      "open": 997,
      "ential": 998,
      "linear": 999,
      "control": 1000,
      "human": 1001,
      "This": 1002,
      "og": 1003,
      "ose": 1004,
      "same": 1005,
      "tish": 1006,
      "ins": 1007,
      "att": 1008,
      "top": 1009,
      "tow": 1010,
      "itary": 1011,
      "sequ": 1012,
      "chan": 1013,
      "person": 1014,
      "dia": 1015,
      "192": 1016,
      "called": 1017,
      "ards": 1018,
      "lower": 1019,
      "continu": 1020,
      "properties": 1021,
      "dollar": 1022,
      "13": 1023,
      "lis": 1024,
      "try": 1025,
      "aces": 1026,
      "actions": 1027,
      "issu": 1028,
      "atory": 1029,
      "level": 1030,
      "sever": 1031,
      "applic": 1032,
      "early": 1033,
      "twork": 1034,
      "Ark": 1035,
      "There": 1036,
      "background": 1037,
      "points": 1038,
      "measure": 1039,
      "Joh": 1040,
      "bat": 1041,
      "da": 1042,
      "fact": 1043,
      "hal": 1044,
      "mass": 1045,
      "pa": 1046,
      "pop": 1047,
      "sch": 1048,
      "inch": 1049,
      "aries": 1050,
      "ligh": 1051,
      "him": 1052,
      "place": 1053,
      "formal": 1054,
      "198": 1055,
      "outh": 1056,
      "group": 1057,
      "methods": 1058,
      "Kingdom": 1059,
      "Be": 1060,
      "Se": 1061,
      "Slayer": 1062,
      "down": 1063,
      "ety": 1064,
      "each": 1065,
      "ful": 1066,
      "iti": 1067,
      "ometr": 1068,
      "ook": 1069,
      "pur": 1070,
      "song": 1071,
      "dec": 1072,
      "exten": 1073,
      "quant": 1074,
      "discussions": 1075,
      "vid": 1076,
      "parame": 1077,
      "period": 1078,
      "ships": 1079,
      "import": 1080,
      "systems": 1081,
      "offic": 1082,
      "building": 1083,
      "said": 1084,
      "depend": 1085,
      "distribution": 1086,
      "Blackie": 1087,
      "quantum": 1088,
      "10": 1089,
      "Con": 1090,
      "Ra": 1091,
      "del": 1092,
      "emp": 1093,
      "how": 1094,
      "ks": 1095,
      "less": 1096,
      "ption": 1097,
      "shi": 1098,
      "tu": 1099,
      "istic": 1100,
      "deity": 1101,
      "defin": 1102,
      "became": 1103,
      "They": 1104,
      "xmath4": 1105,
      "produc": 1106,
      "tivity": 1107,
      "based": 1108,
      "basic": 1109,
      "built": 1110,
      "simulation": 1111,
      "theorem": 1112,
      "lished": 1113,
      "Le": 1114,
      "South": 1115,
      "War": 1116,
      "bur": 1117,
      "bri": 1118,
      "famil": 1119,
      "lat": 1120,
      "later": 1121,
      "mes": 1122,
      "pair": 1123,
      "yi": 1124,
      "thor": 1125,
      "along": 1126,
      "although": 1127,
      "rece": 1128,
      "sider": 1129,
      "det": 1130,
      "geometr": 1131,
      "symmetr": 1132,
      "bound": 1133,
      "transport": 1134,
      "against": 1135,
      "17": 1136,
      "New": 1137,
      "bre": 1138,
      "cm": 1139,
      "cr": 1140,
      "cap": 1141,
      "don": 1142,
      "fle": 1143,
      "ged": 1144,
      "gor": 1145,
      "gli": 1146,
      "jor": 1147,
      "ling": 1148,
      "scor": 1149,
      "ving": 1150,
      "track": 1151,
      "often": 1152,
      "asy": 1153,
      "real": 1154,
      "states": 1155,
      "coll": 1156,
      "iron": 1157,
      "tern": 1158,
      "ective": 1159,
      "ext": 1160,
      "suc": 1161,
      "vious": 1162,
      "aven": 1163,
      "ived": 1164,
      "previous": 1165,
      "noise": 1166,
      "vely": 1167,
      "commer": 1168,
      "Egyptians": 1169,
      "including": 1170,
      "example": 1171,
      "British": 1172,
      "Arkans": 1173,
      "John": 1174,
      "Atl": 1175,
      "Fair": 1176,
      "On": 1177,
      "bon": 1178,
      "know": 1179,
      "mm": 1180,
      "ps": 1181,
      "ually": 1182,
      "int": 1183,
      "anta": 1184,
      "trad": 1185,
      "trop": 1186,
      "review": 1187,
      "role": 1188,
      "ross": 1189,
      "consider": 1190,
      "life": 1191,
      "within": 1192,
      "did": 1193,
      "ples": 1194,
      "network": 1195,
      "tail": 1196,
      "key": 1197,
      "evolution": 1198,
      "found": 1199,
      "grow": 1200,
      "turb": 1201,
      "relations": 1202,
      "years": 1203,
      "olog": 1204,
      "functions": 1205,
      "mix": 1206,
      "approach": 1207,
      "myth": 1208,
      "omega": 1209,
      "record": 1210,
      "Arkansas": 1211,
      "Air": 1212,
      "Co": 1213,
      "Hung": 1214,
      "dess": 1215,
      "ebr": 1216,
      "fil": 1217,
      "ger": 1218,
      "ner": 1219,
      "pot": 1220,
      "vate": 1221,
      "win": 1222,
      "then": 1223,
      "art": 1224,
      "around": 1225,
      "acti": 1226,
      "stru": 1227,
      "cover": 1228,
      "ired": 1229,
      "concluding": 1230,
      "lock": 1231,
      "formul": 1232,
      "goddess": 1233,
      "posed": 1234,
      "deriv": 1235,
      "particular": 1236,
      "structure": 1237,
      "flying": 1238,
      "several": 1239,
      "After": 1240,
      "ball": 1241,
      "ified": 1242,
      "just": 1243,
      "sor": 1244,
      "ying": 1245,
      "ze": 1246,
      "influ": 1247,
      "train": 1248,
      "ash": 1249,
      "read": 1250,
      "sition": 1251,
      "consis": 1252,
      "United": 1253,
      "come": 1254,
      "using": 1255,
      "limin": 1256,
      "romes": 1257,
      "history": 1258,
      "ought": 1259,
      "production": 1260,
      "prelimin": 1261,
      "arian": 1262,
      "ports": 1263,
      "approxim": 1264,
      "position": 1265,
      "given": 1266,
      "galax": 1267,
      "respon": 1268,
      "following": 1269,
      "electr": 1270,
      "important": 1271,
      "break": 1272,
      "Atlanta": 1273,
      "50": 1274,
      "Ad": 1275,
      "Bu": 1276,
      "Cro": 1277,
      "En": 1278,
      "Gam": 1279,
      "How": 1280,
      "Tower": 1281,
      "Zr": 1282,
      "band": 1283,
      "cir": 1284,
      "care": 1285,
      "fa": 1286,
      "flow": 1287,
      "free": 1288,
      "nyi": 1289,
      "ost": 1290,
      "section": 1291,
      "til": 1292,
      "till": 1293,
      "ince": 1294,
      "incre": 1295,
      "anch": 1296,
      "eder": 1297,
      "orn": 1298,
      "univer": 1299,
      "sions": 1300,
      "may": 1301,
      "child": 1302,
      "moment": 1303,
      "Egypt": 1304,
      "Chris": 1305,
      "xmath13": 1306,
      "These": 1307,
      "sociation": 1308,
      "physical": 1309,
      "different": 1310,
      "micro": 1311,
      "tower": 1312,
      "family": 1313,
      "commercial": 1314,
      "All": 1315,
      "De": 1316,
      "Navy": 1317,
      "black": 1318,
      "cas": 1319,
      "gra": 1320,
      "hold": 1321,
      "mis": 1322,
      "name": 1323,
      "oth": 1324,
      "rul": 1325,
      "radi": 1326,
      "sk": 1327,
      "utr": 1328,
      "uation": 1329,
      "uit": 1330,
      "ínyi": 1331,
      "iness": 1332,
      "another": 1333,
      "ars": 1334,
      "conver": 1335,
      "sional": 1336,
      "mean": 1337,
      "ste": 1338,
      "ster": 1339,
      "began": 1340,
      "loc": 1341,
      "ople": 1342,
      "forms": 1343,
      "194": 1344,
      "pos": 1345,
      "allow": 1346,
      "even": 1347,
      "equation": 1348,
      "clas": 1349,
      "women": 1350,
      "large": 1351,
      "2011": 1352,
      "conduc": 1353,
      "III": 1354,
      "simulations": 1355,
      "poly": 1356,
      "limit": 1357,
      "body": 1358,
      "calculations": 1359,
      "pilots": 1360,
      "development": 1361,
      "aerodromes": 1362,
      "lights": 1363,
      "Zrínyi": 1364,
      ".;": 1365,
      "Flower": 1366,
      "May": 1367,
      "Nove": 1368,
      "aviation": 1369,
      "fur": 1370,
      "igh": 1371,
      "iev": 1372,
      "jo": 1373,
      "last": 1374,
      "tes": 1375,
      "vil": 1376,
      "ances": 1377,
      "ctions": 1378,
      "ist": 1379,
      "sible": 1380,
      "ford": 1381,
      "force": 1382,
      "matic": 1383,
      "amp": 1384,
      "dimen": 1385,
      "ops": 1386,
      "vities": 1387,
      "combin": 1388,
      "aves": 1389,
      "Arsenal": 1390,
      "Heaven": 1391,
      "ways": 1392,
      "effect": 1393,
      "closed": 1394,
      "military": 1395,
      "self": 1396,
      "believ": 1397,
      "described": 1398,
      "CAA": 1399,
      "Austro": 1400,
      "decay": 1401,
      "received": 1402,
      "success": 1403,
      "known": 1404,
      "Hungarian": 1405,
      "November": 1406,
      "At": 1407,
      "For": 1408,
      "Ge": 1409,
      "Wor": 1410,
      "away": 1411,
      "gion": 1412,
      "ii": 1413,
      "ken": 1414,
      "lit": 1415,
      "matter": 1416,
      "uth": 1417,
      "uals": 1418,
      "tition": 1419,
      "initi": 1420,
      "ank": 1421,
      "aced": 1422,
      "atch": 1423,
      "return": 1424,
      "took": 1425,
      "elf": 1426,
      "memb": 1427,
      "lement": 1428,
      "lustr": 1429,
      "major": 1430,
      "def": 1431,
      "deter": 1432,
      "live": 1433,
      "near": 1434,
      "neutr": 1435,
      "move": 1436,
      "omb": 1437,
      "series": 1438,
      "compe": 1439,
      "sho": 1440,
      "events": 1441,
      "gram": 1442,
      "type": 1443,
      "species": 1444,
      "featur": 1445,
      "command": 1446,
      "sector": 1447,
      "tives": 1448,
      "curr": 1449,
      "signed": 1450,
      "density": 1451,
      "goal": 1452,
      "point": 1453,
      "theore": 1454,
      "gious": 1455,
      "solution": 1456,
      "original": 1457,
      "guns": 1458,
      "statis": 1459,
      "invol": 1460,
      "ological": 1461,
      "career": 1462,
      "believed": 1463,
      "88": 1464,
      "Amun": 1465,
      "Com": 1466,
      "Er": 1467,
      "Some": 1468,
      "ba": 1469,
      "bia": 1470,
      "due": 1471,
      "fl": 1472,
      "feder": 1473,
      "gover": 1474,
      "hen": 1475,
      "ire": 1476,
      "imag": 1477,
      "late": 1478,
      "mission": 1479,
      "mask": 1480,
      "pi": 1481,
      "put": 1482,
      "pass": 1483,
      "tal": 1484,
      "zher": 1485,
      "zog": 1486,
      "tively": 1487,
      "err": 1488,
      "ense": 1489,
      "ently": 1490,
      "acting": 1491,
      "strong": 1492,
      "head": 1493,
      "illustr": 1494,
      "ird": 1495,
      "addition": 1496,
      "perturb": 1497,
      "lion": 1498,
      "direc": 1499,
      "ried": 1500,
      "quad": 1501,
      "result": 1502,
      "formulation": 1503,
      "193": 1504,
      "oman": 1505,
      "syn": 1506,
      "cording": 1507,
      "pred": 1508,
      "trix": 1509,
      "estab": 1510,
      "acknowledgement": 1511,
      "player": 1512,
      "final": 1513,
      "effective": 1514,
      "stars": 1515,
      "author": 1516,
      "gamma": 1517,
      "temples": 1518,
      "scatter": 1519,
      "examples": 1520,
      "cept": 1521,
      "solutions": 1522,
      "dynamics": 1523,
      "continued": 1524,
      "formalism": 1525,
      "Fairies": 1526,
      "activities": 1527,
      "members": 1528,
      "theoretical": 1529,
      "Erzher": 1530,
      "Erzherzog": 1531,
      ");": 1532,
      "*;": 1533,
      "24": 1534,
      "Amer": 1535,
      "Febr": 1536,
      "Hor": 1537,
      "His": 1538,
      "Jam": 1539,
      "Nor": 1540,
      "atic": 1541,
      "bal": 1542,
      "bility": 1543,
      "block": 1544,
      "cup": 1545,
      "fel": 1546,
      "gl": 1547,
      "hand": 1548,
      "ned": 1549,
      "ring": 1550,
      "sam": 1551,
      "vis": 1552,
      "ynam": 1553,
      "third": 1554,
      "ino": 1555,
      "instru": 1556,
      "arsenal": 1557,
      "astic": 1558,
      "odes": 1559,
      "reat": 1560,
      "ication": 1561,
      "stre": 1562,
      "els": 1563,
      "matrix": 1564,
      "deal": 1565,
      "ily": 1566,
      "terms": 1567,
      "ector": 1568,
      "xmath5": 1569,
      "abor": 1570,
      "tings": 1571,
      "tegr": 1572,
      "fig": 1573,
      "obj": 1574,
      "prof": 1575,
      "eval": 1576,
      "spectra": 1577,
      "foot": 1578,
      "creation": 1579,
      "impro": 1580,
      "ief": 1581,
      "setup": 1582,
      "expan": 1583,
      "limited": 1584,
      "bodies": 1585,
      "religion": 1586,
      "religious": 1587,
      "performance": 1588,
      "complex": 1589,
      "color": 1590,
      "constrain": 1591,
      "change": 1592,
      "potential": 1593,
      "formula": 1594,
      "preliminaries": 1595,
      "Americ": 1596,
      "February": 1597,
      "But": 1598,
      "Light": 1599,
      "Max": 1600,
      "Pen": 1601,
      "SA": 1602,
      "While": 1603,
      "bra": 1604,
      "bers": 1605,
      "flo": 1606,
      "mar": 1607,
      "mater": 1608,
      "ns": 1609,
      "nec": 1610,
      "oto": 1611,
      "sun": 1612,
      "vo": 1613,
      "ined": 1614,
      "integr": 1615,
      "anti": 1616,
      "tron": 1617,
      "asp": 1618,
      "rew": 1619,
      "icul": 1620,
      "stat": 1621,
      "stated": 1622,
      "make": 1623,
      "detail": 1624,
      "chann": 1625,
      "ither": 1626,
      "tice": 1627,
      "spe": 1628,
      "spir": 1629,
      "exclu": 1630,
      "higg": 1631,
      "prot": 1632,
      "loss": 1633,
      "raised": 1634,
      "motion": 1635,
      "gau": 1636,
      "fire": 1637,
      "civil": 1638,
      "shap": 1639,
      "outl": 1640,
      "identi": 1641,
      "aria": 1642,
      "ague": 1643,
      "hole": 1644,
      "relation": 1645,
      "Ital": 1646,
      "trade": 1647,
      "much": 1648,
      "surf": 1649,
      "ength": 1650,
      "certain": 1651,
      "elements": 1652,
      "public": 1653,
      "tradition": 1654,
      "training": 1655,
      "Buil": 1656,
      "Gambia": 1657,
      "further": 1658,
      "World": 1659,
      "expansion": 1660,
      "higgs": 1661,
      "14": 1662,
      "16": 1663,
      "22": 1664,
      "23": 1665,
      "?;": 1666,
      "Can": 1667,
      "Car": 1668,
      "Fer": 1669,
      "Her": 1670,
      "Pri": 1671,
      "Sen": 1672,
      "ade": 1673,
      "ct": 1674,
      "din": 1675,
      "dra": 1676,
      "dark": 1677,
      "fut": 1678,
      "gus": 1679,
      "mion": 1680,
      "nature": 1681,
      "ool": 1682,
      "pan": 1683,
      "tex": 1684,
      "ues": 1685,
      "uro": 1686,
      "writ": 1687,
      "those": 1688,
      "ore": 1689,
      "ality": 1690,
      "algor": 1691,
      "offer": 1692,
      "tles": 1693,
      "istics": 1694,
      "attemp": 1695,
      "six": 1696,
      "simp": 1697,
      "row": 1698,
      "eli": 1699,
      "une": 1700,
      "until": 1701,
      "cont": 1702,
      "Union": 1703,
      "leading": 1704,
      "cop": 1705,
      "coin": 1706,
      "ury": 1707,
      "chain": 1708,
      "exis": 1709,
      "expres": 1710,
      "ute": 1711,
      "process": 1712,
      "xmath7": 1713,
      "take": 1714,
      "acknowledgment": 1715,
      "event": 1716,
      "fermion": 1717,
      "interaction": 1718,
      "regul": 1719,
      "common": 1720,
      "commun": 1721,
      "hour": 1722,
      "critical": 1723,
      "names": 1724,
      "start": 1725,
      "carbon": 1726,
      "contract": 1727,
      "depic": 1728,
      "humans": 1729,
      "description": 1730,
      "spectrum": 1731,
      "purpo": 1732,
      "film": 1733,
      "derivation": 1734,
      "circ": 1735,
      "grav": 1736,
      "maskray": 1737,
      "scattering": 1738,
      "evaluation": 1739,
      "Building": 1740,
      "future": 1741,
      "algorith": 1742,
      "carbonaria": 1743,
      "Aviation": 1744,
      "During": 1745,
      "Euro": 1746,
      "Jan": 1747,
      "MS": 1748,
      "Su": 1749,
      "We": 1750,
      "ail": 1751,
      "ben": 1752,
      "bar": 1753,
      "ds": 1754,
      "gence": 1755,
      "itions": 1756,
      "km": 1757,
      "na": 1758,
      "ov": 1759,
      "omen": 1760,
      "run": 1761,
      "vic": 1762,
      "wn": 1763,
      "wan": 1764,
      "tral": 1765,
      "tric": 1766,
      "ases": 1767,
      "size": 1768,
      "rome": 1769,
      "cosm": 1770,
      "heavy": 1771,
      "ilities": 1772,
      "hier": 1773,
      "provi": 1774,
      "proposed": 1775,
      "placed": 1776,
      "need": 1777,
      "mother": 1778,
      "sister": 1779,
      "worship": 1780,
      "ouse": 1781,
      "manif": 1782,
      "hips": 1783,
      "ached": 1784,
      "focus": 1785,
      "critic": 1786,
      "named": 1787,
      "States": 1788,
      "tonian": 1789,
      "include": 1790,
      "difficul": 1791,
      "characteristics": 1792,
      "scaling": 1793,
      "belief": 1794,
      "range": 1795,
      "represented": 1796,
      "designed": 1797,
      "medi": 1798,
      "troops": 1799,
      "spectral": 1800,
      "appeared": 1801,
      "released": 1802,
      "graphs": 1803,
      "studi": 1804,
      "half": 1805,
      "popular": 1806,
      "considered": 1807,
      "growth": 1808,
      "influence": 1809,
      "galaxy": 1810,
      "momentum": 1811,
      "*;*": 1812,
      "Horus": 1813,
      "James": 1814,
      "outlook": 1815,
      "Italian": 1816,
      "Ferdin": 1817,
      "Ferdinand": 1818,
      "0s": 1819,
      "Cal": 1820,
      "Des": 1821,
      "Ed": 1822,
      "Pe": 1823,
      "Per": 1824,
      "So": 1825,
      "SMS": 1826,
      "\\!": 1827,
      "^\\": 1828,
      "full": 1829,
      "gres": 1830,
      "mit": 1831,
      "mach": 1832,
      "ness": 1833,
      "nance": 1834,
      "next": 1835,
      "rum": 1836,
      "sent": 1837,
      "sky": 1838,
      "since": 1839,
      "ustr": 1840,
      "wal": 1841,
      "waves": 1842,
      "yo": 1843,
      "ond": 1844,
      "ines": 1845,
      "theme": 1846,
      "env": 1847,
      "ales": 1848,
      "ara": 1849,
      "ately": 1850,
      "ici": 1851,
      "cons": 1852,
      "story": 1853,
      "maat": 1854,
      "maxim": 1855,
      "cou": 1856,
      "death": 1857,
      "chang": 1858,
      "among": 1859,
      "perspec": 1860,
      "begin": 1861,
      "lied": 1862,
      "que": 1863,
      "quas": 1864,
      "mental": 1865,
      "log": 1866,
      "suff": 1867,
      "sugg": 1868,
      "emer": 1869,
      "five": 1870,
      "omin": 1871,
      "others": 1872,
      "specific": 1873,
      "interpre": 1874,
      "havi": 1875,
      "regular": 1876,
      "home": 1877,
      "fungus": 1878,
      "people": 1879,
      "ished": 1880,
      "related": 1881,
      "month": 1882,
      "franch": 1883,
      "effects": 1884,
      "private": 1885,
      "scalar": 1886,
      "selection": 1887,
      "Association": 1888,
      "wave": 1889,
      "nuclear": 1890,
      "construction": 1891,
      "study": 1892,
      "attack": 1893,
      "application": 1894,
      "applications": 1895,
      "dependent": 1896,
      "shift": 1897,
      "produced": 1898,
      "current": 1899,
      "images": 1900,
      "American": 1901,
      "texts": 1902,
      "algorithm": 1903,
      "franchise": 1904,
      "64": 1905,
      "Care": 1906,
      "Gener": 1907,
      "Isis": 1908,
      "June": 1909,
      "Ma": 1910,
      "Most": 1911,
      "National": 1912,
      "US": 1913,
      "With": 1914,
      "When": 1915,
      "bus": 1916,
      "best": 1917,
      "cle": 1918,
      "dge": 1919,
      "dou": 1920,
      "draft": 1921,
      "fu": 1922,
      "fit": 1923,
      "fra": 1924,
      "hamil": 1925,
      "kes": 1926,
      "kine": 1927,
      "pain": 1928,
      "pite": 1929,
      "rad": 1930,
      "smo": 1931,
      "tation": 1932,
      "tter": 1933,
      "van": 1934,
      "wi": 1935,
      "{\\": 1936,
      "tian": 1937,
      "inj": 1938,
      "anim": 1939,
      "organ": 1940,
      "armor": 1941,
      "acc": 1942,
      "ators": 1943,
      "toward": 1944,
      "road": 1945,
      "const": 1946,
      "contribu": 1947,
      "forces": 1948,
      "met": 1949,
      "lec": 1950,
      "demon": 1951,
      "separ": 1952,
      "tered": 1953,
      "behavi": 1954,
      "sour": 1955,
      "optim": 1956,
      "area": 1957,
      "post": 1958,
      "moved": 1959,
      "airspace": 1960,
      "shot": 1961,
      "shell": 1962,
      "aving": 1963,
      "outside": 1964,
      "numbers": 1965,
      "interactions": 1966,
      "tribut": 1967,
      "minim": 1968,
      "analytical": 1969,
      "feet": 1970,
      "charge": 1971,
      "operation": 1972,
      "2012": 1973,
      "characters": 1974,
      "carried": 1975,
      "useum": 1976,
      "signific": 1977,
      "generalized": 1978,
      "rituals": 1979,
      "scale": 1980,
      "throughout": 1981,
      "transfer": 1982,
      "support": 1983,
      "Although": 1984,
      "pilot": 1985,
      "estimates": 1986,
      "required": 1987,
      "remained": 1988,
      "published": 1989,
      "cause": 1990,
      "battle": 1991,
      "parameter": 1992,
      "parameters": 1993,
      "definition": 1994,
      "lattice": 1995,
      "geometry": 1996,
      "However": 1997,
      "determin": 1998,
      "ombard": 1999,
      "established": 2000,
      "sample": 2001,
      "football": 2002,
      "constraints": 2003,
      "details": 2004,
      "channel": 2005,
      "gauge": 2006,
      "young": 2007,
      "General": 2008,
      "hamiltonian": 2009,
      "Ac": 2010,
      "Book": 2011,
      "Clu": 2012,
      "Ex": 2013,
      "FA": 2014,
      "Nam": 2015,
      "Nash": 2016,
      "Pop": 2017,
      "Play": 2018,
      "Rich": 2019,
      "River": 2020,
      "Roman": 2021,
      "Ser": 2022,
      "Way": 2023,
      "ae": 2024,
      "bs": 2025,
      "che": 2026,
      "city": 2027,
      "eq": 2028,
      "fem": 2029,
      "flight": 2030,
      "here": 2031,
      "held": 2032,
      "hind": 2033,
      "ive": 2034,
      "ject": 2035,
      "lh": 2036,
      "ni": 2037,
      "pes": 2038,
      "pen": 2039,
      "still": 2040,
      "wri": 2041,
      "ydon": 2042,
      "thin": 2043,
      "indi": 2044,
      "invari": 2045,
      "eration": 2046,
      "ens": 2047,
      "enga": 2048,
      "ency": 2049,
      "alli": 2050,
      "actic": 2051,
      "acqu": 2052,
      "activity": 2053,
      "rection": 2054,
      "reco": 2055,
      "roles": 2056,
      "string": 2057,
      "uni": 2058,
      "lead": 2059,
      "cope": 2060,
      "becom": 2061,
      "lip": 2062,
      "without": 2063,
      "vey": 2064,
      "ditions": 2065,
      "prop": 2066,
      "proced": 2067,
      "qual": 2068,
      "south": 2069,
      "entang": 2070,
      "loop": 2071,
      "never": 2072,
      "formed": 2073,
      "airports": 2074,
      "fix": 2075,
      "omy": 2076,
      "comput": 2077,
      "avail": 2078,
      "ically": 2079,
      "photo": 2080,
      "India": 2081,
      "Char": 2082,
      "finite": 2083,
      "commission": 2084,
      "experiments": 2085,
      "indic": 2086,
      "ills": 2087,
      "music": 2088,
      "And": 2089,
      "weap": 2090,
      "surround": 2091,
      "licen": 2092,
      "various": 2093,
      "transition": 2094,
      "struck": 2095,
      "giving": 2096,
      "CAT": 2097,
      "release": 2098,
      "sequences": 2099,
      "battles": 2100,
      "Confeder": 2101,
      "symmetry": 2102,
      "cru": 2103,
      "collision": 2104,
      "Croydon": 2105,
      "father": 2106,
      "classical": 2107,
      "conducted": 2108,
      "returned": 2109,
      "competition": 2110,
      "features": 2111,
      "statistics": 2112,
      "involved": 2113,
      "gamma_": 2114,
      "felt": 2115,
      "figur": 2116,
      "objects": 2117,
      "written": 2118,
      "gravit": 2119,
      "Europe": 2120,
      "January": 2121,
      "ustry": 2122,
      "Carey": 2123,
      "Club": 2124,
      "individ": 2125,
      "([": 2126,
      "21": 2127,
      "25": 2128,
      "28": 2129,
      "ASA": 2130,
      "Col": 2131,
      "EASA": 2132,
      "Got": 2133,
      "Galli": 2134,
      "Mc": 2135,
      "Mint": 2136,
      "Pi": 2137,
      "Par": 2138,
      "Rec": 2139,
      "Sch": 2140,
      "ake": 2141,
      "aim": 2142,
      "bul": 2143,
      "cs": 2144,
      "cross": 2145,
      "dro": 2146,
      "evid": 2147,
      "far": 2148,
      "fac": 2149,
      "fles": 2150,
      "ges": 2151,
      "gar": 2152,
      "hor": 2153,
      "har": 2154,
      "iber": 2155,
      "jet": 2156,
      "kin": 2157,
      "ked": 2158,
      "kings": 2159,
      "length": 2160,
      "mas": 2161,
      "mid": 2162,
      "patter": 2163,
      "pick": 2164,
      "praised": 2165,
      "say": 2166,
      "tel": 2167,
      "water": 2168,
      "ont": 2169,
      "ones": 2170,
      "onal": 2171,
      "inten": 2172,
      "ane": 2173,
      "ests": 2174,
      "ale": 2175,
      "acy": 2176,
      "across": 2177,
      "according": 2178,
      "assum": 2179,
      "eless": 2180,
      "fort": 2181,
      "mechan": 2182,
      "stell": 2183,
      "cour": 2184,
      "ili": 2185,
      "iral": 2186,
      "search": 2187,
      "become": 2188,
      "disc": 2189,
      "disk": 2190,
      "get": 2191,
      "absor": 2192,
      "modes": 2193,
      "thermal": 2194,
      "pound": 2195,
      "parti": 2196,
      "compon": 2197,
      "upper": 2198,
      "uced": 2199,
      "phen": 2200,
      "symb": 2201,
      "corpor": 2202,
      "players": 2203,
      "184": 2204,
      "Child": 2205,
      "works": 2206,
      "fruit": 2207,
      "industry": 2208,
      "sometimes": 2209,
      "2013": 2210,
      "started": 2211,
      "cult": 2212,
      "temple": 2213,
      "included": 2214,
      "goals": 2215,
      "sche": 2216,
      "engine": 2217,
      "multiple": 2218,
      "recorded": 2219,
      "calculation": 2220,
      "country": 2221,
      "developed": 2222,
      "connected": 2223,
      "aerodrome": 2224,
      "helic": 2225,
      "diagram": 2226,
      "issue": 2227,
      "school": 2228,
      "inches": 2229,
      "extended": 2230,
      "Eng": 2231,
      "Christian": 2232,
      "allowed": 2233,
      "dimensional": 2234,
      "North": 2235,
      "ynamics": 2236,
      "improve": 2237,
      "Lightning": 2238,
      "Pengu": 2239,
      "material": 2240,
      "hierarch": 2241,
      "maximum": 2242,
      "business": 2243,
      "stellar": 2244,
      "symbol": 2245,
      "100": 2246,
      "Aer": 2247,
      "Bat": 2248,
      "Da": 2249,
      "Kh": 2250,
      "Mu": 2251,
      "Mac": 2252,
      "Ne": 2253,
      "Osi": 2254,
      "Pil": 2255,
      "San": 2256,
      "Sri": 2257,
      "Sav": 2258,
      "To": 2259,
      "York": 2260,
      "ati": 2261,
      "aff": 2262,
      "atives": 2263,
      "bes": 2264,
      "bor": 2265,
      "ders": 2266,
      "either": 2267,
      "fri": 2268,
      "frequ": 2269,
      "flights": 2270,
      "hil": 2271,
      "hab": 2272,
      "ima": 2273,
      "igen": 2274,
      "mot": 2275,
      "oil": 2276,
      "osition": 2277,
      "ping": 2278,
      "rand": 2279,
      "slow": 2280,
      "test": 2281,
      "ud": 2282,
      "wing": 2283,
      "yn": 2284,
      "yed": 2285,
      "once": 2286,
      "tiz": 2287,
      "thm": 2288,
      "thur": 2289,
      "thought": 2290,
      "ani": 2291,
      "thema": 2292,
      "ending": 2293,
      "alge": 2294,
      "arms": 2295,
      "argu": 2296,
      "asing": 2297,
      "asse": 2298,
      "assis": 2299,
      "simil": 2300,
      "ingal": 2301,
      "elves": 2302,
      "conditions": 2303,
      "Univer": 2304,
      "ital": 2305,
      "station": 2306,
      "stage": 2307,
      "leg": 2308,
      "left": 2309,
      "seven": 2310,
      "behind": 2311,
      "disper": 2312,
      "mpto": 2313,
      "verse": 2314,
      "spher": 2315,
      "pling": 2316,
      "what": 2317,
      "white": 2318,
      "xmath8": 2319,
      "above": 2320,
      "opy": 2321,
      "ney": 2322,
      "former": 2323,
      "196": 2324,
      "1920": 2325,
      "thermod": 2326,
      "airfields": 2327,
      "earli": 2328,
      "emission": 2329,
      "ffic": 2330,
      "ciety": 2331,
      "show": 2332,
      "short": 2333,
      "upled": 2334,
      "aval": 2335,
      "phot": 2336,
      "phara": 2337,
      "Inter": 2338,
      "special": 2339,
      "observatory": 2340,
      "ario": 2341,
      "veloc": 2342,
      "creator": 2343,
      "ends": 2344,
      "maintain": 2345,
      "wood": 2346,
      "larger": 2347,
      "2010": 2348,
      "curren": 2349,
      "gust": 2350,
      "annah": 2351,
      "2006": 2352,
      "August": 2353,
      "ockey": 2354,
      "physic": 2355,
      "originally": 2356,
      "distributions": 2357,
      "planning": 2358,
      "estimated": 2359,
      "counter": 2360,
      "performed": 2361,
      "standards": 2362,
      "controlled": 2363,
      "personal": 2364,
      "issues": 2365,
      "measurement": 2366,
      "fully": 2367,
      "purch": 2368,
      "official": 2369,
      "dependence": 2370,
      "delay": 2371,
      "however": 2372,
      "brief": 2373,
      "detection": 2374,
      "fleet": 2375,
      "scoring": 2376,
      "mixing": 2377,
      "approximation": 2378,
      "universe": 2379,
      "children": 2380,
      "radio": 2381,
      "located": 2382,
      "neutrino": 2383,
      "instrument": 2384,
      "necess": 2385,
      "speed": 2386,
      "hours": 2387,
      "Society": 2388,
      "environ": 2389,
      "suffer": 2390,
      "double": 2391,
      "accel": 2392,
      "towards": 2393,
      "Nameless": 2394,
      "evidence": 2395,
      "Penguins": 2396,
      "Osiris": 2397,
      "Savannah": 2398,
      "similar": 2399,
      "velocity": 2400,
      "physics": 2401,
      "29": 2402,
      "30": 2403,
      "Aten": 2404,
      "BC": 2405,
      "By": 2406,
      "Civ": 2407,
      "Fingal": 2408,
      "Gover": 2409,
      "Hockey": 2410,
      "Jap": 2411,
      "Long": 2412,
      "Lank": 2413,
      "Me": 2414,
      "Two": 2415,
      "aos": 2416,
      "bot": 2417,
      "cing": 2418,
      "cred": 2419,
      "du": 2420,
      "dle": 2421,
      "dread": 2422,
      "gas": 2423,
      "hic": 2424,
      "ials": 2425,
      "kno": 2426,
      "ls": 2427,
      "las": 2428,
      "mand": 2429,
      "nment": 2430,
      "phi": 2431,
      "ram": 2432,
      "sac": 2433,
      "sts": 2434,
      "sus": 2435,
      "tt": 2436,
      "wid": 2437,
      "wide": 2438,
      "yal": 2439,
      "thr": 2440,
      "things": 2441,
      "inci": 2442,
      "thems": 2443,
      "acing": 2444,
      "iso": 2445,
      "repres": 2446,
      "repair": 2447,
      "sil": 2448,
      "sian": 2449,
      "tom": 2450,
      "cona": 2451,
      "conc": 2452,
      "forward": 2453,
      "itors": 2454,
      "means": 2455,
      "ley": 2456,
      "intro": 2457,
      "making": 2458,
      "maps": 2459,
      "mathema": 2460,
      "coal": 2461,
      "coher": 2462,
      "coupled": 2463,
      "uses": 2464,
      "deo": 2465,
      "decl": 2466,
      "urch": 2467,
      "seen": 2468,
      "chaos": 2469,
      "term": 2470,
      "rest": 2471,
      "reson": 2472,
      "ads": 2473,
      "beam": 2474,
      "liqu": 2475,
      "lives": 2476,
      "dian": 2477,
      "plain": 2478,
      "xmath6": 2479,
      "xmath9": 2480,
      "mode": 2481,
      "sure": 2482,
      "nowledge": 2483,
      "tee": 2484,
      "tech": 2485,
      "195": 2486,
      "197": 2487,
      "video": 2488,
      "motiv": 2489,
      "parts": 2490,
      "omic": 2491,
      "cient": 2492,
      "compos": 2493,
      "avor": 2494,
      "arded": 2495,
      "destro": 2496,
      "despite": 2497,
      "grad": 2498,
      "types": 2499,
      "notation": 2500,
      "fermi": 2501,
      "mble": 2502,
      "international": 2503,
      "book": 2504,
      "minor": 2505,
      "overall": 2506,
      "few": 2507,
      "playoff": 2508,
      "189": 2509,
      "crew": 2510,
      "created": 2511,
      "finally": 2512,
      "tures": 2513,
      "Arthur": 2514,
      "claim": 2515,
      "working": 2516,
      "metres": 2517,
      "implic": 2518,
      "implement": 2519,
      "methodology": 2520,
      "Star": 2521,
      "Station": 2522,
      "State": 2523,
      "angular": 2524,
      "ported": 2525,
      "Ancona": 2526,
      "nonlinear": 2527,
      "clock": 2528,
      "inste": 2529,
      "scen": 2530,
      "foreign": 2531,
      "particle": 2532,
      "particles": 2533,
      "society": 2534,
      "graphy": 2535,
      "fluid": 2536,
      "ification": 2537,
      "every": 2538,
      "ception": 2539,
      "ordin": 2540,
      "great": 2541,
      "1862": 2542,
      "regions": 2543,
      "dynamical": 2544,
      "measurements": 2545,
      "songs": 2546,
      "detector": 2547,
      "symmetric": 2548,
      "tropy": 2549,
      "goddesses": 2550,
      "increasing": 2551,
      "univers": 2552,
      "convergence": 2553,
      "Geor": 2554,
      "initial": 2555,
      "streak": 2556,
      "traditional": 2557,
      "Private": 2558,
      "copic": 2559,
      "purposes": 2560,
      "difficult": 2561,
      "behavior": 2562,
      "sources": 2563,
      "procedure": 2564,
      "entanglement": 2565,
      "fixed": 2566,
      "available": 2567,
      "gamma_5": 2568,
      "phenomen": 2569,
      "Sanford": 2570,
      "necessary": 2571,
      "Civil": 2572,
      "Japan": 2573,
      "dreadn": 2574,
      "themselves": 2575,
      "implications": 2576,
      "..": 2577,
      "500": 2578,
      "80": 2579,
      "Apr": 2580,
      "Blo": 2581,
      "Cap": 2582,
      "Cup": 2583,
      "Dec": 2584,
      "Div": 2585,
      "FI": 2586,
      "Fred": 2587,
      "Fran": 2588,
      "Is": 2589,
      "Its": 2590,
      "Kar": 2591,
      "Lic": 2592,
      "Mis": 2593,
      "Mason": 2594,
      "March": 2595,
      "Museum": 2596,
      "Pres": 2597,
      "Patter": 2598,
      "Sa": 2599,
      "Sp": 2600,
      "Sim": 2601,
      "Vatic": 2602,
      "aver": 2603,
      "bb": 2604,
      "bits": 2605,
      "base": 2606,
      "cd": 2607,
      "cate": 2608,
      "econ": 2609,
      "eigen": 2610,
      "fes": 2611,
      "fre": 2612,
      "fund": 2613,
      "glo": 2614,
      "house": 2615,
      "ile": 2616,
      "ious": 2617,
      "ler": 2618,
      "labor": 2619,
      "match": 2620,
      "nu": 2621,
      "naval": 2622,
      "pul": 2623,
      "pse": 2624,
      "ply": 2625,
      "ptions": 2626,
      "sely": 2627,
      "squad": 2628,
      "uk": 2629,
      "wind": 2630,
      "xis": 2631,
      "zz": 2632,
      "ery": 2633,
      "thesis": 2634,
      "ested": 2635,
      "enter": 2636,
      "ormal": 2637,
      "tress": 2638,
      "aled": 2639,
      "always": 2640,
      "ats": 2641,
      "atten": 2642,
      "reen": 2643,
      "reached": 2644,
      "total": 2645,
      "ros": 2646,
      "ices": 2647,
      "eling": 2648,
      "elphi": 2649,
      "condition": 2650,
      "consequences": 2651,
      "introduc": 2652,
      "usually": 2653,
      "debut": 2654,
      "iled": 2655,
      "restric": 2656,
      "adv": 2657,
      "adelphi": 2658,
      "olars": 2659,
      "dial": 2660,
      "version": 2661,
      "geodes": 2662,
      "sphere": 2663,
      "extr": 2664,
      "exact": 2665,
      "exchange": 2666,
      "quark": 2667,
      "loch": 2668,
      "opposi": 2669,
      "1918": 2670,
      "uck": 2671,
      "tender": 2672,
      "served": 2673,
      "ket": 2674,
      "noted": 2675,
      "ival": 2676,
      "cession": 2677,
      "interacting": 2678,
      "observational": 2679,
      "triple": 2680,
      "nov": 2681,
      "playing": 2682,
      "tors": 2683,
      "regis": 2684,
      "ages": 2685,
      "metric": 2686,
      "gameplay": 2687,
      "berg": 2688,
      "monitors": 2689,
      "generally": 2690,
      "effici": 2691,
      "saw": 2692,
      "guit": 2693,
      "weak": 2694,
      "close": 2695,
      "survey": 2696,
      "million": 2697,
      "particip": 2698,
      "hyper": 2699,
      "positive": 2700,
      "expand": 2701,
      "transformation": 2702,
      "polar": 2703,
      "proofs": 2704,
      "gene": 2705,
      "1998": 2706,
      "values": 2707,
      "ordnance": 2708,
      "staff": 2709,
      "Reign": 2710,
      "treat": 2711,
      "greater": 2712,
      "connection": 2713,
      "standard": 2714,
      "brother": 2715,
      "central": 2716,
      "help": 2717,
      "electro": 2718,
      "opening": 2719,
      "1923": 2720,
      "factor": 2721,
      "definitions": 2722,
      "geometric": 2723,
      "gliders": 2724,
      "scored": 2725,
      "asymmetr": 2726,
      "asympto": 2727,
      "ironcl": 2728,
      "particularly": 2729,
      "consisted": 2730,
      "possible": 2731,
      "ampion": 2732,
      "combined": 2733,
      "Geopy": 2734,
      "nearly": 2735,
      "error": 2736,
      "profes": 2737,
      "vocal": 2738,
      "aspects": 2739,
      "surface": 2740,
      "Carter": 2741,
      "simple": 2742,
      "provided": 2743,
      "coupling": 2744,
      "beginning": 2745,
      "quasi": 2746,
      "frame": 2747,
      "significant": 2748,
      "Pope": 2749,
      "lhc": 2750,
      "propag": 2751,
      "commissioned": 2752,
      "surrounding": 2753,
      "Confederate": 2754,
      "cruis": 2755,
      "gravitational": 2756,
      "individual": 2757,
      "scheme": 2758,
      "Battle": 2759,
      "random": 2760,
      "photon": 2761,
      "pharaoh": 2762,
      "mathematical": 2763,
      "liquid": 2764,
      "April": 2765,
      "FIFA": 2766,
      "Patterson": 2767,
      "Vatican": 2768,
      "introduced": 2769,
      "adelphia": 2770,
      "Geopyxis": 2771,
      "26": 2772,
      "45": 2773,
      "Bar": 2774,
      "Bul": 2775,
      "Di": 2776,
      "Draft": 2777,
      "Ear": 2778,
      "Each": 2779,
      "Go": 2780,
      "Greg": 2781,
      "Han": 2782,
      "Jul": 2783,
      "Kings": 2784,
      "Mon": 2785,
      "Or": 2786,
      "Old": 2787,
      "Sh": 2788,
      "Sep": 2789,
      "Tro": 2790,
      "Tot": 2791,
      "])": 2792,
      "af": 2793,
      "brou": 2794,
      "born": 2795,
      "bombard": 2796,
      "cut": 2797,
      "cell": 2798,
      "cill": 2799,
      "cards": 2800,
      "fan": 2801,
      "fans": 2802,
      "favor": 2803,
      "hspace": 2804,
      "ik": 2805,
      "ied": 2806,
      "iting": 2807,
      "jets": 2808,
      "kg": 2809,
      "lap": 2810,
      "lab": 2811,
      "little": 2812,
      "mation": 2813,
      "nation": 2814,
      "ock": 2815,
      "pt": 2816,
      "phis": 2817,
      "ru": 2818,
      "rar": 2819,
      "rup": 2820,
      "sci": 2821,
      "stly": 2822,
      "t0": 2823,
      "vin": 2824,
      "won": 2825,
      "wro": 2826,
      "whe": 2827,
      "wall": 2828,
      "onto": 2829,
      "tif": 2830,
      "tism": 2831,
      "thro": 2832,
      "threat": 2833,
      "incorpor": 2834,
      "erick": 2835,
      "ants": 2836,
      "antly": 2837,
      "thetic": 2838,
      "theistic": 2839,
      "engin": 2840,
      "enced": 2841,
      "entropy": 2842,
      "ores": 2843,
      "trav": 2844,
      "armed": 2845,
      "acre": 2846,
      "acles": 2847,
      "active": 2848,
      "access": 2849,
      "associ": 2850,
      "association": 2851,
      "ods": 2852,
      "recre": 2853,
      "reason": 2854,
      "refle": 2855,
      "site": 2856,
      "situ": 2857,
      "sites": 2858,
      "too": 2859,
      "route": 2860,
      "unit": 2861,
      "units": 2862,
      "conven": 2863,
      "configur": 2864,
      "sty": 2865,
      "stal": 2866,
      "lep": 2867,
      "lumin": 2868,
      "map": 2869,
      "coach": 2870,
      "club": 2871,
      "ress": 2872,
      "adap": 2873,
      "added": 2874,
      "lik": 2875,
      "lies": 2876,
      "dist": 2877,
      "ecting": 2878,
      "rifles": 2879,
      "hims": 2880,
      "proj": 2881,
      "quar": 2882,
      "quanti": 2883,
      "plo": 2884,
      "ables": 2885,
      "load": 2886,
      "losing": 2887,
      "formations": 2888,
      "tember": 2889,
      "190": 2890,
      "rati": 2891,
      "caliber": 2892,
      "mostly": 2893,
      "modeling": 2894,
      "modelling": 2895,
      "earth": 2896,
      "essential": 2897,
      "histor": 2898,
      "company": 2899,
      "composition": 2900,
      "upon": 2901,
      "worth": 2902,
      "tence": 2903,
      "service": 2904,
      "services": 2905,
      "oney": 2906,
      "prepar": 2907,
      "haw": 2908,
      "boson": 2909,
      "regulation": 2910,
      "ended": 2911,
      "aged": 2912,
      "equip": 2913,
      "turning": 2914,
      "Army": 2915,
      "xmath17": 2916,
      "worked": 2917,
      "rela": 2918,
      "mono": 2919,
      "newly": 2920,
      "lines": 2921,
      "basis": 2922,
      "tempor": 2923,
      "renormal": 2924,
      "themed": 2925,
      "2007": 2926,
      "2008": 2927,
      "2009": 2928,
      "prior": 2929,
      "primary": 2930,
      "higher": 2931,
      "representation": 2932,
      "1990": 2933,
      "turns": 2934,
      "solar": 2935,
      "continue": 2936,
      "again": 2937,
      "normal": 2938,
      "appearance": 2939,
      "classes": 2940,
      "broad": 2941,
      "center": 2942,
      "nucleon": 2943,
      "oseph": 2944,
      "damag": 2945,
      "patron": 2946,
      "groups": 2947,
      "periods": 2948,
      "officers": 2949,
      "emplo": 2950,
      "League": 2951,
      "glider": 2952,
      "gliding": 2953,
      "relationship": 2954,
      "mixed": 2955,
      "myths": 2956,
      "Aircraft": 2957,
      "galaxies": 2958,
      "rule": 2959,
      "rules": 2960,
      "meaning": 2961,
      "tests": 2962,
      "defense": 2963,
      "goaltender": 2964,
      "missions": 2965,
      "blockade": 2966,
      "status": 2967,
      "shaped": 2968,
      "offerings": 2969,
      "contact": 2970,
      "existence": 2971,
      "manifest": 2972,
      "\\!\\!": 2973,
      "rumors": 2974,
      "kinema": 2975,
      "smooth": 2976,
      "wife": 2977,
      "constant": 2978,
      "demonstr": 2979,
      "PlayStation": 2980,
      "invariant": 2981,
      "engaged": 2982,
      "Andrew": 2983,
      "weapons": 2984,
      "battleships": 2985,
      "European": 2986,
      "facilities": 2987,
      "pattern": 2988,
      "fruitbodies": 2989,
      "helicop": 2990,
      "hierarchical": 2991,
      "Music": 2992,
      "MacArthur": 2993,
      "Pilot": 2994,
      "thermodynamics": 2995,
      "Longacre": 2996,
      "silver": 2997,
      "techn": 2998,
      "instead": 2999,
      "scenario": 3000,
      "universal": 3001,
      "Georg": 3002,
      "Blood": 3003,
      "Frederick": 3004,
      "global": 3005,
      "opposite": 3006,
      "professional": 3007,
      "September": 3008,
      "brought": 3009,
      "wrote": 3010,
      "recreational": 3011,
      "himself": 3012,
      "27": 3013,
      "38": 3014,
      "69": 3015,
      "71": 3016,
      "Award": 3017,
      "Du": 3018,
      "Dor": 3019,
      "Dar": 3020,
      "Dis": 3021,
      "Dun": 3022,
      "Fly": 3023,
      "Gu": 3024,
      "Green": 3025,
      "Ha": 3026,
      "Har": 3027,
      "Hath": 3028,
      "Im": 3029,
      "Kay": 3030,
      "Mary": 3031,
      "Oc": 3032,
      "One": 3033,
      "Pro": 3034,
      "Pol": 3035,
      "Phil": 3036,
      "Rick": 3037,
      "Sy": 3038,
      "Sco": 3039,
      "Sur": 3040,
      "Spr": 3041,
      "Sha": 3042,
      "Set": 3043,
      "Tor": 3044,
      "Tri": 3045,
      "Wal": 3046,
      "Work": 3047,
      "ause": 3048,
      "award": 3049,
      "bl": 3050,
      "bil": 3051,
      "bir": 3052,
      "bary": 3053,
      "bill": 3054,
      "cp": 3055,
      "dri": 3056,
      "ek": 3057,
      "fal": 3058,
      "fair": 3059,
      "flin": 3060,
      "flat": 3061,
      "gment": 3062,
      "hit": 3063,
      "ham": 3064,
      "hol": 3065,
      "hom": 3066,
      "having": 3067,
      "ior": 3068,
      "ially": 3069,
      "ible": 3070,
      "lation": 3071,
      "mess": 3072,
      "nall": 3073,
      "night": 3074,
      "oke": 3075,
      "osity": 3076,
      "pis": 3077,
      "pow": 3078,
      "path": 3079,
      "rap": 3080,
      "rate": 3081,
      "sti": 3082,
      "sthetic": 3083,
      "tar": 3084,
      "tations": 3085,
      "ufact": 3086,
      "will": 3087,
      "ye": 3088,
      "yond": 3089,
      "Æsthetic": 3090,
      "onical": 3091,
      "tied": 3092,
      "title": 3093,
      "thres": 3094,
      "ina": 3095,
      "ink": 3096,
      "information": 3097,
      "ancient": 3098,
      "edul": 3099,
      "estern": 3100,
      "astron": 3101,
      "ref": 3102,
      "ret": 3103,
      "repe": 3104,
      "sip": 3105,
      "sibility": 3106,
      "struction": 3107,
      "ellip": 3108,
      "acted": 3109,
      "unch": 3110,
      "concept": 3111,
      "itu": 3112,
      "iter": 3113,
      "itch": 3114,
      "itable": 3115,
      "step": 3116,
      "stability": 3117,
      "let": 3118,
      "lear": 3119,
      "league": 3120,
      "max": 3121,
      "coins": 3122,
      "coeffici": 3123,
      "heat": 3124,
      "dev": 3125,
      "ured": 3126,
      "chance": 3127,
      "chiral": 3128,
      "cluster": 3129,
      "resolution": 3130,
      "amate": 3131,
      "ammun": 3132,
      "ampa": 3133,
      "acks": 3134,
      "because": 3135,
      "beyond": 3136,
      "distin": 3137,
      "disorder": 3138,
      "aps": 3139,
      "appar": 3140,
      "diers": 3141,
      "direction": 3142,
      "lyr": 3143,
      "very": 3144,
      "gether": 3145,
      "spent": 3146,
      "ceed": 3147,
      "extern": 3148,
      "prob": 3149,
      "prospec": 3150,
      "places": 3151,
      "ably": 3152,
      "abatic": 3153,
      "modern": 3154,
      "resulted": 3155,
      "thern": 3156,
      "areas": 3157,
      "gave": 3158,
      "ership": 3159,
      "cious": 3160,
      "taking": 3161,
      "core": 3162,
      "prac": 3163,
      "gran": 3164,
      "grand": 3165,
      "ize": 3166,
      "izations": 3167,
      "manage": 3168,
      "manufact": 3169,
      "note": 3170,
      "ference": 3171,
      "box": 3172,
      "commit": 3173,
      "fired": 3174,
      "equival": 3175,
      "xmath14": 3176,
      "oscill": 3177,
      "relating": 3178,
      "That": 3179,
      "nington": 3180,
      "larg": 3181,
      "entire": 3182,
      "traffic": 3183,
      "2014": 3184,
      "brary": 3185,
      "functional": 3186,
      "porting": 3187,
      "cancer": 3188,
      "canonical": 3189,
      "safe": 3190,
      "might": 3191,
      "tained": 3192,
      "signal": 3193,
      "owned": 3194,
      "denomin": 3195,
      "miles": 3196,
      "characterization": 3197,
      "rays": 3198,
      "epi": 3199,
      "albums": 3200,
      "supply": 3201,
      "turned": 3202,
      "give": 3203,
      "soldiers": 3204,
      "static": 3205,
      "adiabatic": 3206,
      "law": 3207,
      "tree": 3208,
      "atural": 3209,
      "superconduc": 3210,
      "completed": 3211,
      "Austral": 3212,
      "aska": 3213,
      "1861": 3214,
      "north": 3215,
      "remaining": 3216,
      "standing": 3217,
      "days": 3218,
      "opened": 3219,
      "list": 3220,
      "issued": 3221,
      "population": 3222,
      "Second": 3223,
      "meson": 3224,
      "collabor": 3225,
      "networks": 3226,
      "approximations": 3227,
      "breaking": 3228,
      "Howson": 3229,
      "othy": 3230,
      "combinations": 3231,
      "liter": 3232,
      "majority": 3233,
      "movement": 3234,
      "shock": 3235,
      "featured": 3236,
      "piec": 3237,
      "ensemble": 3238,
      "additional": 3239,
      "perturbation": 3240,
      "perturbative": 3241,
      "instruments": 3242,
      "identif": 3243,
      "attempt": 3244,
      "attempted": 3245,
      "chains": 3246,
      "depicted": 3247,
      "circular": 3248,
      "beliefs": 3249,
      "studies": 3250,
      "People": 3251,
      "mitted": 3252,
      "perspective": 3253,
      "perspectives": 3254,
      "fitting": 3255,
      "contributions": 3256,
      "minimal": 3257,
      "According": 3258,
      "writing": 3259,
      "recogn": 3260,
      "licensed": 3261,
      "Gallian": 3262,
      "McKay": 3263,
      "says": 3264,
      "component": 3265,
      "Children": 3266,
      "algebra": 3267,
      "assemb": 3268,
      "dispersion": 3269,
      "earlier": 3270,
      "instrumentation": 3271,
      "acceleration": 3272,
      "Atenism": 3273,
      "knots": 3274,
      "composed": 3275,
      "increasingly": 3276,
      "Karl": 3277,
      "Licence": 3278,
      "average": 3279,
      "categor": 3280,
      "registered": 3281,
      "guitar": 3282,
      "asymptotic": 3283,
      "propagation": 3284,
      "Bulloch": 3285,
      "Totten": 3286,
      "bombardment": 3287,
      "rarely": 3288,
      "worthiness": 3289,
      "renormalization": 3290,
      "damaged": 3291,
      "kinematics": 3292,
      "Dorothy": 3293,
      "Dunnington": 3294,
      "Hathor": 3295,
      "Spring": 3296,
      "amateur": 3297,
      "ammunition": 3298,
      "external": 3299,
      "89": 3300,
      "Ak": 3301,
      "Afr": 3302,
      "Bro": 3303,
      "Bec": 3304,
      "Fil": 3305,
      "Follow": 3306,
      "Ger": 3307,
      "Game": 3308,
      "Great": 3309,
      "Gods": 3310,
      "Hun": 3311,
      "Hol": 3312,
      "High": 3313,
      "IHL": 3314,
      "Jeff": 3315,
      "Lou": 3316,
      "Los": 3317,
      "Later": 3318,
      "Man": 3319,
      "Med": 3320,
      "Mand": 3321,
      "Mas": 3322,
      "Mil": 3323,
      "Mall": 3324,
      "Mid": 3325,
      "Nebr": 3326,
      "Pl": 3327,
      "Pic": 3328,
      "Port": 3329,
      "Pho": 3330,
      "Red": 3331,
      "Rus": 3332,
      "Sil": 3333,
      "Sum": 3334,
      "Ste": 3335,
      "Squad": 3336,
      "Te": 3337,
      "Tre": 3338,
      "Tatt": 3339,
      "Temp": 3340,
      "Van": 3341,
      "az": 3342,
      "aul": 3343,
      "amental": 3344,
      "blu": 3345,
      "bly": 3346,
      "bif": 3347,
      "cc": 3348,
      "cod": 3349,
      "cav": 3350,
      "ctor": 3351,
      "crit": 3352,
      "ctu": 3353,
      "dr": 3354,
      "dir": 3355,
      "eas": 3356,
      "eight": 3357,
      "eks": 3358,
      "ehaw": 3359,
      "face": 3360,
      "fold": 3361,
      "gon": 3362,
      "hed": 3363,
      "hop": 3364,
      "ix": 3365,
      "ike": 3366,
      "jun": 3367,
      "len": 3368,
      "latter": 3369,
      "lau": 3370,
      "mum": 3371,
      "nal": 3372,
      "nel": 3373,
      "oun": 3374,
      "ography": 3375,
      "pas": 3376,
      "past": 3377,
      "patch": 3378,
      "qcd": 3379,
      "rates": 3380,
      "s_": 3381,
      "sn": 3382,
      "sto": 3383,
      "scope": 3384,
      "tun": 3385,
      "uter": 3386,
      "vac": 3387,
      "volu": 3388,
      "vision": 3389,
      "wr": 3390,
      "went": 3391,
      "west": 3392,
      "wick": 3393,
      "ym": 3394,
      "zer": 3395,
      "onic": 3396,
      "titu": 3397,
      "thing": 3398,
      "thus": 3399,
      "inos": 3400,
      "independent": 3401,
      "era": 3402,
      "erry": 3403,
      "anno": 3404,
      "edge": 3405,
      "educ": 3406,
      "enough": 3407,
      "orian": 3408,
      "orial": 3409,
      "accoun": 3410,
      "tlock": 3411,
      "ising": 3412,
      "assigned": 3413,
      "aten": 3414,
      "odd": 3415,
      "reve": 3416,
      "rections": 3417,
      "returning": 3418,
      "tober": 3419,
      "together": 3420,
      "icate": 3421,
      "icide": 3422,
      "stra": 3423,
      "strip": 3424,
      "eles": 3425,
      "eline": 3426,
      "unc": 3427,
      "unified": 3428,
      "ites": 3429,
      "stern": 3430,
      "least": 3431,
      "cock": 3432,
      "dead": 3433,
      "deci": 3434,
      "deplo": 3435,
      "ures": 3436,
      "uries": 3437,
      "irl": 3438,
      "sex": 3439,
      "sets": 3440,
      "semic": 3441,
      "ches": 3442,
      "chron": 3443,
      "restri": 3444,
      "ols": 3445,
      "olved": 3446,
      "percussion": 3447,
      "discre": 3448,
      "disrup": 3449,
      "died": 3450,
      "diver": 3451,
      "lywood": 3452,
      "right": 3453,
      "versus": 3454,
      "spaces": 3455,
      "exc": 3456,
      "utes": 3457,
      "promin": 3458,
      "progres": 3459,
      "ques": 3460,
      "plas": 3461,
      "plann": 3462,
      "someth": 3463,
      "enty": 3464,
      "abs": 3465,
      "look": 3466,
      "optical": 3467,
      "nega": 3468,
      "neman": 3469,
      "teor": 3470,
      "1915": 3471,
      "rain": 3472,
      "via": 3473,
      "viol": 3474,
      "poor": 3475,
      "moun": 3476,
      "molec": 3477,
      "earch": 3478,
      "ember": 3479,
      "omor": 3480,
      "cies": 3481,
      "cities": 3482,
      "shar": 3483,
      "shown": 3484,
      "comes": 3485,
      "commen": 3486,
      "sisters": 3487,
      "tax": 3488,
      "tage": 3489,
      "taken": 3490,
      "worst": 3491,
      "correlation": 3492,
      "princi": 3493,
      "mann": 3494,
      "applied": 3495,
      "interview": 3496,
      "observation": 3497,
      "board": 3498,
      "minutes": 3499,
      "presence": 3500,
      "morph": 3501,
      "morning": 3502,
      "reduced": 3503,
      "torped": 3504,
      "hood": 3505,
      "host": 3506,
      "Art": 3507,
      "reek": 3508,
      "funer": 3509,
      "xmath12": 3510,
      "xmath15": 3511,
      "xmath16": 3512,
      "whose": 3513,
      "fru": 3514,
      "fron": 3515,
      "fractions": 3516,
      "tons": 3517,
      "iller": 3518,
      "traits": 3519,
      "curves": 3520,
      "layers": 3521,
      "Ang": 3522,
      "Another": 3523,
      "render": 3524,
      "contrast": 3525,
      "surrender": 3526,
      "dents": 3527,
      "good": 3528,
      "fourth": 3529,
      "characteristic": 3530,
      "variety": 3531,
      "hypo": 3532,
      "expected": 3533,
      "subject": 3534,
      "ideal": 3535,
      "social": 3536,
      "aerial": 3537,
      "warf": 3538,
      "occur": 3539,
      "supple": 3540,
      "representative": 3541,
      "designated": 3542,
      "1997": 3543,
      "problems": 3544,
      "smaller": 3545,
      "solit": 3546,
      "does": 3547,
      "plane": 3548,
      "Allied": 3549,
      "Reg": 3550,
      "galactic": 3551,
      "launch": 3552,
      "estimation": 3553,
      "trees": 3554,
      "grew": 3555,
      "regional": 3556,
      "remainder": 3557,
      "binary": 3558,
      "century": 3559,
      "helped": 3560,
      "sequence": 3561,
      "sequently": 3562,
      "diagn": 3563,
      "levels": 3564,
      "factors": 3565,
      "scholars": 3566,
      "schedul": 3567,
      "1986": 3568,
      "1988": 3569,
      "extension": 3570,
      "shif": 3571,
      "Warne": 3572,
      "tracks": 3573,
      "realm": 3574,
      "winning": 3575,
      "strugg": 3576,
      "derivatives": 3577,
      "response": 3578,
      "electric": 3579,
      "increased": 3580,
      "Christ": 3581,
      "microlights": 3582,
      "cases": 3583,
      "casem": 3584,
      "missed": 3585,
      "steer": 3586,
      "stead": 3587,
      "dimensions": 3588,
      "initially": 3589,
      "neutrinos": 3590,
      "should": 3591,
      "commander": 3592,
      "federal": 3593,
      "government": 3594,
      "direct": 3595,
      "director": 3596,
      "History": 3597,
      "glass": 3598,
      "ynamic": 3599,
      "integral": 3600,
      "draw": 3601,
      "elimin": 3602,
      "eventually": 3603,
      "communication": 3604,
      "purpose": 3605,
      "Suicide": 3606,
      "Weehaw": 3607,
      "benef": 3608,
      "needed": 3609,
      "manifold": 3610,
      "studio": 3611,
      "changes": 3612,
      "emerged": 3613,
      "Major": 3614,
      "radial": 3615,
      "injury": 3616,
      "contribution": 3617,
      "separate": 3618,
      "transferred": 3619,
      "becomes": 3620,
      "becoming": 3621,
      "computation": 3622,
      "massive": 3623,
      "middle": 3624,
      "assumptions": 3625,
      "course": 3626,
      "absorption": 3627,
      "schools": 3628,
      "improvements": 3629,
      "Khan": 3630,
      "habit": 3631,
      "image": 3632,
      "ynastic": 3633,
      "anime": 3634,
      "International": 3635,
      "briefly": 3636,
      "environment": 3637,
      "Governor": 3638,
      "Lanka": 3639,
      "sacred": 3640,
      "thriller": 3641,
      "concern": 3642,
      "coherent": 3643,
      "motivation": 3644,
      "implementation": 3645,
      "dreadnought": 3646,
      "Captain": 3647,
      "December": 3648,
      "Division": 3649,
      "Island": 3650,
      "fundamental": 3651,
      "geodesics": 3652,
      "triplet": 3653,
      "ironclad": 3654,
      "vocals": 3655,
      "Gregorian": 3656,
      "Hanneman": 3657,
      "Trophy": 3658,
      "threaten": 3659,
      "engines": 3660,
      "style": 3661,
      "technical": 3662,
      "Georgia": 3663,
      "October": 3664,
      "Pola": 3665,
      "birth": 3666,
      "flintlock": 3667,
      "threshold": 3668,
      "lyrics": 3669,
      "management": 3670,
      "committee": 3671,
      "epithe": 3672,
      "Australia": 3673,
      "collaboration": 3674,
      "Afric": 3675,
      "Because": 3676,
      "Following": 3677,
      "Louis": 3678,
      "Mandatory": 3679,
      "Mallory": 3680,
      "Nebraska": 3681,
      "Tattnall": 3682,
      "cavity": 3683,
      "criter": 3684,
      "dirac": 3685,
      "planned": 3686,
      "something": 3687,
      "molecular": 3688,
      "torpedo": 3689,
      "Weehawken": 3690,
      "1d": 3691,
      "300": 3692,
      "48": 3693,
      "400": 3694,
      "59": 3695,
      "74": 3696,
      "7cm": 3697,
      "800": 3698,
      "AA": 3699,
      "Bol": 3700,
      "Bah": 3701,
      "Emp": 3702,
      "East": 3703,
      "Fr": 3704,
      "Hen": 3705,
      "Hall": 3706,
      "Hart": 3707,
      "Jo": 3708,
      "Kur": 3709,
      "Lombard": 3710,
      "Mor": 3711,
      "Mem": 3712,
      "Many": 3713,
      "Not": 3714,
      "Nub": 3715,
      "Other": 3716,
      "Rap": 3717,
      "Rob": 3718,
      "Rub": 3719,
      "Sm": 3720,
      "Sab": 3721,
      "Stor": 3722,
      "Sak": 3723,
      "Sound": 3724,
      "TV": 3725,
      "Wil": 3726,
      "Wind": 3727,
      "Women": 3728,
      "XIII": 3729,
      "Year": 3730,
      "aw": 3731,
      "aper": 3732,
      "aid": 3733,
      "awa": 3734,
      "ban": 3735,
      "bit": 3736,
      "bow": 3737,
      "bass": 3738,
      "bang": 3739,
      "bath": 3740,
      "cau": 3741,
      "done": 3742,
      "dence": 3743,
      "dden": 3744,
      "dwell": 3745,
      "dual": 3746,
      "dust": 3747,
      "dwarf": 3748,
      "east": 3749,
      "ematic": 3750,
      "fth": 3751,
      "fant": 3752,
      "fast": 3753,
      "ging": 3754,
      "gers": 3755,
      "gree": 3756,
      "hd": 3757,
      "hat": 3758,
      "hang": 3759,
      "hub": 3760,
      "happen": 3761,
      "ig": 3762,
      "ij": 3763,
      "ier": 3764,
      "ians": 3765,
      "itical": 3766,
      "joseph": 3767,
      "kh": 3768,
      "kl": 3769,
      "ker": 3770,
      "knowledge": 3771,
      "lam": 3772,
      "ming": 3773,
      "mut": 3774,
      "mund": 3775,
      "mine": 3776,
      "mory": 3777,
      "money": 3778,
      "nd": 3779,
      "nine": 3780,
      "null": 3781,
      "pack": 3782,
      "pion": 3783,
      "page": 3784,
      "sd": 3785,
      "san": 3786,
      "squ": 3787,
      "sell": 3788,
      "sold": 3789,
      "sors": 3790,
      "t1": 3791,
      "tting": 3792,
      "tone": 3793,
      "usion": 3794,
      "uum": 3795,
      "uence": 3796,
      "zation": 3797,
      "tier": 3798,
      "inner": 3799,
      "infl": 3800,
      "inspir": 3801,
      "inery": 3802,
      "ano": 3803,
      "ange": 3804,
      "anom": 3805,
      "anthro": 3806,
      "espre": 3807,
      "enting": 3808,
      "encies": 3809,
      "trid": 3810,
      "trace": 3811,
      "true": 3812,
      "alth": 3813,
      "almost": 3814,
      "altern": 3815,
      "arri": 3816,
      "arrow": 3817,
      "accus": 3818,
      "activ": 3819,
      "accur": 3820,
      "accep": 3821,
      "rein": 3822,
      "reach": 3823,
      "remun": 3824,
      "sively": 3825,
      "tour": 3826,
      "roll": 3827,
      "rotation": 3828,
      "icon": 3829,
      "strate": 3830,
      "stress": 3831,
      "elder": 3832,
      "elastic": 3833,
      "unced": 3834,
      "congr": 3835,
      "concep": 3836,
      "uli": 3837,
      "ultim": 3838,
      "forced": 3839,
      "meet": 3840,
      "metal": 3841,
      "meteor": 3842,
      "stone": 3843,
      "stain": 3844,
      "leaving": 3845,
      "coast": 3846,
      "cosmo": 3847,
      "coordin": 3848,
      "demand": 3849,
      "urc": 3850,
      "ural": 3851,
      "cho": 3852,
      "chap": 3853,
      "chall": 3854,
      "church": 3855,
      "champion": 3856,
      "umber": 3857,
      "termin": 3858,
      "amed": 3859,
      "ampl": 3860,
      "ades": 3861,
      "adop": 3862,
      "perman": 3863,
      "beings": 3864,
      "better": 3865,
      "liding": 3866,
      "disting": 3867,
      "distribut": 3868,
      "ecess": 3869,
      "ectively": 3870,
      "spread": 3871,
      "hie": 3872,
      "ghter": 3873,
      "procur": 3874,
      "promot": 3875,
      "plans": 3876,
      "sou": 3877,
      "soon": 3878,
      "mentary": 3879,
      "otes": 3880,
      "abund": 3881,
      "abilities": 3882,
      "modified": 3883,
      "lost": 3884,
      "love": 3885,
      "1911": 3886,
      "rail": 3887,
      "rather": 3888,
      "cale": 3889,
      "moves": 3890,
      "gain": 3891,
      "parted": 3892,
      "fifth": 3893,
      "serve": 3894,
      "compres": 3895,
      "shor": 3896,
      "word": 3897,
      "dergar": 3898,
      "tene": 3899,
      "tensor": 3900,
      "tensors": 3901,
      "pray": 3902,
      "practic": 3903,
      "notes": 3904,
      "ferro": 3905,
      "apped": 3906,
      "observables": 3907,
      "boat": 3908,
      "minis": 3909,
      "preser": 3910,
      "noting": 3911,
      "overview": 3912,
      "feed": 3913,
      "creating": 3914,
      "finding": 3915,
      "finish": 3916,
      "redu": 3917,
      "endar": 3918,
      "agree": 3919,
      "hoc": 3920,
      "homo": 3921,
      "equili": 3922,
      "systematic": 3923,
      "fraction": 3924,
      "operator": 3925,
      "operators": 3926,
      "induced": 3927,
      "entials": 3928,
      "news": 3929,
      "trait": 3930,
      "must": 3931,
      "cults": 3932,
      "teams": 3933,
      "build": 3934,
      "satis": 3935,
      "cartrid": 3936,
      "wein": 3937,
      "weigh": 3938,
      "closely": 3939,
      "marked": 3940,
      "instance": 3941,
      "instability": 3942,
      "themes": 3943,
      "sensi": 3944,
      "pointed": 3945,
      "variability": 3946,
      "transi": 3947,
      "highly": 3948,
      "highest": 3949,
      "myster": 3950,
      "subsequently": 3951,
      "idea": 3952,
      "selected": 3953,
      "political": 3954,
      "supporting": 3955,
      "statement": 3956,
      "designs": 3957,
      "genus": 3958,
      "solv": 3959,
      "effort": 3960,
      "measuring": 3961,
      "cycle": 3962,
      "ords": 3963,
      "orders": 3964,
      "male": 3965,
      "estimate": 3966,
      "atures": 3967,
      "therefore": 3968,
      "require": 3969,
      "whereas": 3970,
      "supernov": 3971,
      "asked": 3972,
      "connections": 3973,
      "1863": 3974,
      "Bridge": 3975,
      "pedition": 3976,
      "localized": 3977,
      "broken": 3978,
      "centuries": 3979,
      "topological": 3980,
      "personified": 3981,
      "1925": 3982,
      "1929": 3983,
      "listing": 3984,
      "listed": 3985,
      "popul": 3986,
      "lighter": 3987,
      "1985": 3988,
      "Sea": 3989,
      "decision": 3990,
      "importance": 3991,
      "deliver": 3992,
      "burned": 3993,
      "bounds": 3994,
      "boundary": 3995,
      "Fairy": 3996,
      "traded": 3997,
      "trophic": 3998,
      "relationships": 3999,
      "covered": 4000,
      "formulas": 4001,
      "consisting": 4002,
      "consisten": 4003,
      "preliminary": 4004,
      "circul": 4005,
      "failed": 4006,
      "micros": 4007,
      "Deities": 4008,
      "ski": 4009,
      "skin": 4010,
      "skills": 4011,
      "steam": 4012,
      "location": 4013,
      "join": 4014,
      "joined": 4015,
      "Atum": 4016,
      "involving": 4017,
      "strongly": 4018,
      "illustrative": 4019,
      "syncre": 4020,
      "predecess": 4021,
      "establish": 4022,
      "authority": 4023,
      "ballo": 4024,
      "dealership": 4025,
      "figure": 4026,
      "floor": 4027,
      "materials": 4028,
      "shape": 4029,
      "surfaces": 4030,
      "Carol": 4031,
      "content": 4032,
      "expressed": 4033,
      "regulated": 4034,
      "regulatory": 4035,
      "Webb": 4036,
      "wanted": 4037,
      "cosmological": 4038,
      "difficulty": 4039,
      "medium": 4040,
      "mediate": 4041,
      "Edmund": 4042,
      "machines": 4043,
      "consul": 4044,
      "suggest": 4045,
      "interpretation": 4046,
      "vanced": 4047,
      "animal": 4048,
      "armored": 4049,
      "optimal": 4050,
      "Expedition": 4051,
      "Richards": 4052,
      "writings": 4053,
      "unique": 4054,
      "computational": 4055,
      "Charact": 4056,
      "indicated": 4057,
      "bulk": 4058,
      "farm": 4059,
      "horiz": 4060,
      "kindergar": 4061,
      "telev": 4062,
      "aneous": 4063,
      "assumed": 4064,
      "1849": 4065,
      "English": 4066,
      "England": 4067,
      "symbolic": 4068,
      "Aerod": 4069,
      "friends": 4070,
      "frequency": 4071,
      "Universe": 4072,
      "University": 4073,
      "legis": 4074,
      "spheres": 4075,
      "1920s": 4076,
      "currents": 4077,
      "purchase": 4078,
      "suffered": 4079,
      "bottom": 4080,
      "credited": 4081,
      "widespre": 4082,
      "represents": 4083,
      "repaired": 4084,
      "resonance": 4085,
      "books": 4086,
      "phenomena": 4087,
      "Japanese": 4088,
      "economic": 4089,
      "restricted": 4090,
      "participated": 4091,
      "expanded": 4092,
      "geneous": 4093,
      "framework": 4094,
      "Direc": 4095,
      "Early": 4096,
      "July": 4097,
      "Montene": 4098,
      "whether": 4099,
      "incorporated": 4100,
      "associated": 4101,
      "reflec": 4102,
      "convention": 4103,
      "configuration": 4104,
      "luminosity": 4105,
      "equipment": 4106,
      "manifestations": 4107,
      "Duat": 4108,
      "awarded": 4109,
      "baryon": 4110,
      "piston": 4111,
      "powers": 4112,
      "astronomy": 4113,
      "maxwell": 4114,
      "coefficients": 4115,
      "prospects": 4116,
      "equivalence": 4117,
      "denomination": 4118,
      "piece": 4119,
      "Hunwick": 4120,
      "bifurc": 4121,
      "vacuum": 4122,
      "volume": 4123,
      "announced": 4124,
      "education": 4125,
      "deadline": 4126,
      "restrictions": 4127,
      "hypothesis": 4128,
      "launched": 4129,
      "diagnos": 4130,
      "Hartford": 4131,
      "Lombardo": 4132,
      "Memorial": 4133,
      "Rubin": 4134,
      "josephson": 4135,
      "square": 4136,
      "inflation": 4137,
      "accepted": 4138,
      "congruence": 4139,
      "concepts": 4140,
      "stained": 4141,
      "cosmos": 4142,
      "amplitu": 4143,
      "distingu": 4144,
      "procured": 4145,
      "practices": 4146,
      "Bridgeport": 4147,
      "kindergarten": 4148,
      "widespread": 4149,
      "05": 4150,
      "31": 4151,
      "35": 4152,
      "36": 4153,
      "39": 4154,
      "47": 4155,
      "54": 4156,
      "60": 4157,
      "77": 4158,
      "86": 4159,
      "92": 4160,
      "96": 4161,
      "Ale": 4162,
      "Br": 4163,
      "Bal": 4164,
      "Bay": 4165,
      "Bill": 4166,
      "Brit": 4167,
      "Bost": 4168,
      "Cur": 4169,
      "Cam": 4170,
      "Cri": 4171,
      "City": 4172,
      "Cess": 4173,
      "Cong": 4174,
      "Center": 4175,
      "Den": 4176,
      "Fort": 4177,
      "Flight": 4178,
      "Gro": 4179,
      "Gil": 4180,
      "Gob": 4181,
      "Gard": 4182,
      "Greek": 4183,
      "Hous": 4184,
      "Hind": 4185,
      "Hitch": 4186,
      "Hym": 4187,
      "Jacqu": 4188,
      "Kick": 4189,
      "Lt": 4190,
      "My": 4191,
      "Min": 4192,
      "Mal": 4193,
      "Mic": 4194,
      "No": 4195,
      "Nah": 4196,
      "Nile": 4197,
      "Of": 4198,
      "Otran": 4199,
      "PL": 4200,
      "Pre": 4201,
      "Park": 4202,
      "Pub": 4203,
      "PPL": 4204,
      "Que": 4205,
      "Rhy": 4206,
      "Raven": 4207,
      "Rector": 4208,
      "Sun": 4209,
      "Sam": 4210,
      "Tr": 4211,
      "Tur": 4212,
      "Wis": 4213,
      "Whal": 4214,
      "Yet": 4215,
      "]);": 4216,
      "a_": 4217,
      "batter": 4218,
      "bought": 4219,
      "cand": 4220,
      "cat": 4221,
      "cere": 4222,
      "cend": 4223,
      "cise": 4224,
      "cros": 4225,
      "dent": 4226,
      "date": 4227,
      "ean": 4228,
      "fine": 4229,
      "gc": 4230,
      "girl": 4231,
      "hes": 4232,
      "hot": 4233,
      "hous": 4234,
      "iod": 4235,
      "imen": 4236,
      "imo": 4237,
      "ifi": 4238,
      "ictions": 4239,
      "jō": 4240,
      "kind": 4241,
      "lor": 4242,
      "lot": 4243,
      "mac": 4244,
      "museum": 4245,
      "miral": 4246,
      "nes": 4247,
      "nab": 4248,
      "native": 4249,
      "ngc": 4250,
      "ocal": 4251,
      "pic": 4252,
      "plu": 4253,
      "rant": 4254,
      "rational": 4255,
      "rang": 4256,
      "sw": 4257,
      "sat": 4258,
      "sting": 4259,
      "stop": 4260,
      "sket": 4261,
      "tent": 4262,
      "tant": 4263,
      "tell": 4264,
      "uts": 4265,
      "uting": 4266,
      "udo": 4267,
      "vation": 4268,
      "vent": 4269,
      "woman": 4270,
      "yes": 4271,
      "you": 4272,
      "yotes": 4273,
      "zy": 4274,
      "zed": 4275,
      "zine": 4276,
      "}\\": 4277,
      "tire": 4278,
      "tide": 4279,
      "antic": 4280,
      "theon": 4281,
      "theless": 4282,
      "edition": 4283,
      "entr": 4284,
      "eness": 4285,
      "enem": 4286,
      "enix": 4287,
      "tration": 4288,
      "arma": 4289,
      "artis": 4290,
      "acob": 4291,
      "accept": 4292,
      "actress": 4293,
      "tlake": 4294,
      "ists": 4295,
      "isation": 4296,
      "isms": 4297,
      "ashi": 4298,
      "atom": 4299,
      "oday": 4300,
      "rej": 4301,
      "reed": 4302,
      "rech": 4303,
      "rever": 4304,
      "replaced": 4305,
      "tolog": 4306,
      "room": 4307,
      "royal": 4308,
      "ict": 4309,
      "icing": 4310,
      "icity": 4311,
      "icating": 4312,
      "elev": 4313,
      "unable": 4314,
      "uncertain": 4315,
      "confir": 4316,
      "construc": 4317,
      "forts": 4318,
      "ita": 4319,
      "itation": 4320,
      "memor": 4321,
      "member": 4322,
      "stable": 4323,
      "letter": 4324,
      "makes": 4325,
      "cost": 4326,
      "cool": 4327,
      "colo": 4328,
      "covari": 4329,
      "ussian": 4330,
      "decor": 4331,
      "decommissioned": 4332,
      "urity": 4333,
      "see": 4334,
      "seem": 4335,
      "amity": 4336,
      "permitted": 4337,
      "library": 4338,
      "disap": 4339,
      "dies": 4340,
      "diame": 4341,
      "diag": 4342,
      "tices": 4343,
      "mph": 4344,
      "river": 4345,
      "split": 4346,
      "spring": 4347,
      "spati": 4348,
      "spores": 4349,
      "exhi": 4350,
      "explic": 4351,
      "except": 4352,
      "hidden": 4353,
      "proto": 4354,
      "quick": 4355,
      "qubits": 4356,
      "sound": 4357,
      "superi": 4358,
      "oped": 4359,
      "net": 4360,
      "neither": 4361,
      "forming": 4362,
      "teen": 4363,
      "pois": 4364,
      "pole": 4365,
      "poss": 4366,
      "moving": 4367,
      "mouth": 4368,
      "airworthiness": 4369,
      "park": 4370,
      "parton": 4371,
      "twin": 4372,
      "fight": 4373,
      "citiz": 4374,
      "comments": 4375,
      "ides": 4376,
      "idate": 4377,
      "phs": 4378,
      "Indian": 4379,
      "keep": 4380,
      "kept": 4381,
      "correspon": 4382,
      "destin": 4383,
      "grang": 4384,
      "output": 4385,
      "izing": 4386,
      "ousand": 4387,
      "notations": 4388,
      "hadron": 4389,
      "appe": 4390,
      "cessions": 4391,
      "inters": 4392,
      "intersection": 4393,
      "internal": 4394,
      "itself": 4395,
      "precious": 4396,
      "hael": 4397,
      "bov": 4398,
      "analytic": 4399,
      "Egyptolog": 4400,
      "feature": 4401,
      "1889": 4402,
      "Church": 4403,
      "finan": 4404,
      "finished": 4405,
      "regarded": 4406,
      "commut": 4407,
      "commonly": 4408,
      "ago": 4409,
      "agency": 4410,
      "agreed": 4411,
      "equated": 4412,
      "equator": 4413,
      "ifying": 4414,
      "mainly": 4415,
      "critics": 4416,
      "whole": 4417,
      "peak": 4418,
      "relax": 4419,
      "GASA": 4420,
      "ewski": 4421,
      "monte": 4422,
      "oked": 4423,
      "front": 4424,
      "shear": 4425,
      "induction": 4426,
      "Italy": 4427,
      "2015": 4428,
      "bras": 4429,
      "brane": 4430,
      "linked": 4431,
      "aux": 4432,
      "oughts": 4433,
      "Royal": 4434,
      "carlo": 4435,
      "cargo": 4436,
      "carry": 4437,
      "weeks": 4438,
      "useful": 4439,
      "taining": 4440,
      "closure": 4441,
      "signature": 4442,
      "2005": 4443,
      "sense": 4444,
      "priests": 4445,
      "depth": 4446,
      "hybri": 4447,
      "mercial": 4448,
      "referred": 4449,
      "subst": 4450,
      "powered": 4451,
      "transform": 4452,
      "transverse": 4453,
      "157": 4454,
      "flux": 4455,
      "fluctu": 4456,
      "occup": 4457,
      "suppres": 4458,
      "supported": 4459,
      "onses": 4460,
      "Blues": 4461,
      "recently": 4462,
      "gency": 4463,
      "archit": 4464,
      "1991": 4465,
      "media": 4466,
      "solitary": 4467,
      "recording": 4468,
      "efull": 4469,
      "Along": 4470,
      "certif": 4471,
      "ip_": 4472,
      "value": 4473,
      "valuation": 4474,
      "timescale": 4475,
      "ahl": 4476,
      "lagrang": 4477,
      "element": 4478,
      "seconds": 4479,
      "complete": 4480,
      "Austria": 4481,
      "connecting": 4482,
      "collec": 4483,
      "respectively": 4484,
      "responses": 4485,
      "spectros": 4486,
      "rounds": 4487,
      "appearances": 4488,
      "big": 4489,
      "binaries": 4490,
      "dynamic": 4491,
      "followed": 4492,
      "reductions": 4493,
      "broke": 4494,
      "brown": 4495,
      "topology": 4496,
      "Arkadelphia": 4497,
      "dama": 4498,
      "daily": 4499,
      "halo": 4500,
      "paper": 4501,
      "Between": 4502,
      "Sega": 4503,
      "buildings": 4504,
      "Raj": 4505,
      "producing": 4506,
      "theorems": 4507,
      "bursts": 4508,
      "brium": 4509,
      "bridge": 4510,
      "yield": 4511,
      "alongside": 4512,
      "score": 4513,
      "extent": 4514,
      "previously": 4515,
      "reviews": 4516,
      "considerations": 4517,
      "turbul": 4518,
      "Comp": 4519,
      "Coach": 4520,
      "Coyotes": 4521,
      "filter": 4522,
      "ready": 4523,
      "responsibility": 4524,
      "electrod": 4525,
      "Addition": 4526,
      "Admiral": 4527,
      "Entry": 4528,
      "flown": 4529,
      "increase": 4530,
      "xmath136": 4531,
      "xmath137": 4532,
      "xmath138": 4533,
      "radiation": 4534,
      "classi": 4535,
      "limitations": 4536,
      "combination": 4537,
      "decays": 4538,
      "successful": 4539,
      "successfully": 4540,
      "statistical": 4541,
      "Command": 4542,
      "Commercial": 4543,
      "passed": 4544,
      "passing": 4545,
      "errors": 4546,
      "illustrated": 4547,
      "perturbations": 4548,
      "synchron": 4549,
      "hands": 4550,
      "street": 4551,
      "colored": 4552,
      "braid": 4553,
      "integrals": 4554,
      "aspect": 4555,
      "statues": 4556,
      "excluded": 4557,
      "exclusive": 4558,
      "protection": 4559,
      "protect": 4560,
      "identified": 4561,
      "Canad": 4562,
      "Senjō": 4563,
      "ctcs": 4564,
      "pantheon": 4565,
      "elihood": 4566,
      "existing": 4567,
      "fermions": 4568,
      "circum": 4569,
      "Such": 4570,
      "victory": 4571,
      "cosmic": 4572,
      "cosmology": 4573,
      "provide": 4574,
      "Descri": 4575,
      "Peter": 4576,
      "Period": 4577,
      "machinery": 4578,
      "walks": 4579,
      "changing": 4580,
      "suggested": 4581,
      "clear": 4582,
      "paintings": 4583,
      "injured": 4584,
      "animals": 4585,
      "metall": 4586,
      "demons": 4587,
      "shells": 4588,
      "minimum": 4589,
      "female": 4590,
      "niewski": 4591,
      "engage": 4592,
      "weapon": 4593,
      "licensing": 4594,
      "collisions": 4595,
      "Gallia": 4596,
      "Pitlake": 4597,
      "Records": 4598,
      "School": 4599,
      "drop": 4600,
      "intended": 4601,
      "pounds": 4602,
      "partial": 4603,
      "components": 4604,
      "tized": 4605,
      "stationed": 4606,
      "stationary": 4607,
      "maintaining": 4608,
      "purchased": 4609,
      "representing": 4610,
      "declined": 4611,
      "destroy": 4612,
      "destroyed": 4613,
      "claimed": 4614,
      "phenomenology": 4615,
      "...": 4616,
      "Miss": 4617,
      "Presid": 4618,
      "festiv": 4619,
      "puls": 4620,
      "pseudo": 4621,
      "uki": 4622,
      "electromagnetic": 4623,
      "asymmetric": 4624,
      "cruisers": 4625,
      "pharaohs": 4626,
      "favorite": 4627,
      "label": 4628,
      "travel": 4629,
      "situation": 4630,
      "lepton": 4631,
      "likelihood": 4632,
      "ratios": 4633,
      "historic": 4634,
      "defenseman": 4635,
      "helicopters": 4636,
      "Greenaway": 4637,
      "Philadelphia": 4638,
      "Scott": 4639,
      "Toronto": 4640,
      "billion": 4641,
      "rapid": 4642,
      "learning": 4643,
      "distinct": 4644,
      "ceeded": 4645,
      "largely": 4646,
      "literature": 4647,
      "identifying": 4648,
      "German": 4649,
      "Highway": 4650,
      "Phoenix": 4651,
      "Squadron": 4652,
      "mumm": 4653,
      "account": 4654,
      "revealed": 4655,
      "straight": 4656,
      "strips": 4657,
      "disruption": 4658,
      "prominent": 4659,
      "plasma": 4660,
      "funerary": 4661,
      "Angeles": 4662,
      "occurred": 4663,
      "soliton": 4664,
      "scheduled": 4665,
      "casemate": 4666,
      "eliminated": 4667,
      "manifolds": 4668,
      "Bollywood": 4669,
      "Bahrain": 4670,
      "Empire": 4671,
      "Kurt": 4672,
      "Raphael": 4673,
      "Rober": 4674,
      "Sabres": 4675,
      "Sakimo": 4676,
      "Winds": 4677,
      "pageant": 4678,
      "accuracy": 4679,
      "challeng": 4680,
      "adopted": 4681,
      "permanent": 4682,
      "reduci": 4683,
      "hockey": 4684,
      "equilibrium": 4685,
      "cartridges": 4686,
      "weinberg": 4687,
      "sensitivity": 4688,
      "mysterious": 4689,
      "Carolina": 4690,
      "horizon": 4691,
      "television": 4692,
      "Director": 4693,
      "distinguished": 4694,
      "Britain": 4695,
      "Boston": 4696,
      "Curtis": 4697,
      "Camden": 4698,
      "Cessna": 4699,
      "Congress": 4700,
      "Gobrech": 4701,
      "Housefull": 4702,
      "Hindman": 4703,
      "Hitchcock": 4704,
      "Jacqueline": 4705,
      "Nahant": 4706,
      "Otranto": 4707,
      "Public": 4708,
      "Rhymes": 4709,
      "Wisniewski": 4710,
      "Whalers": 4711,
      "candidate": 4712,
      "ceremon": 4713,
      "nabla": 4714,
      "uncertainties": 4715,
      "decorated": 4716,
      "diameter": 4717,
      "diagonal": 4718,
      "spatial": 4719,
      "equatorial": 4720,
      "relaxation": 4721,
      "GASAR": 4722,
      "lagrangian": 4723,
      "Sakimoto": 4724,
      "Gobrecht": 4725,
      "''": 4726,
      "1st": 4727,
      "2d": 4728,
      "32": 4729,
      "40": 4730,
      "44": 4731,
      "49": 4732,
      "422": 4733,
      "53": 4734,
      "56": 4735,
      "70": 4736,
      "73": 4737,
      "75": 4738,
      "82": 4739,
      "85": 4740,
      "91": 4741,
      "97": 4742,
      "AR": 4743,
      "Am": 4744,
      "Apo": 4745,
      "BU": 4746,
      "Bo": 4747,
      "Ber": 4748,
      "Bel": 4749,
      "Bres": 4750,
      "Back": 4751,
      "Cl": 4752,
      "Cer": 4753,
      "Chi": 4754,
      "Dou": 4755,
      "Dev": 4756,
      "Due": 4757,
      "Def": 4758,
      "Fe": 4759,
      "Fu": 4760,
      "Fin": 4761,
      "Feder": 4762,
      "Gho": 4763,
      "Gold": 4764,
      "Ground": 4765,
      "Gliding": 4766,
      "Hi": 4767,
      "Hum": 4768,
      "Horn": 4769,
      "ICA": 4770,
      "JAR": 4771,
      "Knowledge": 4772,
      "Kerry": 4773,
      "Liv": 4774,
      "Last": 4775,
      "Mer": 4776,
      "Mum": 4777,
      "Mari": 4778,
      "M18": 4779,
      "Na": 4780,
      "Nec": 4781,
      "Near": 4782,
      "Natural": 4783,
      "Ot": 4784,
      "Offic": 4785,
      "Po": 4786,
      "Pr": 4787,
      "Pot": 4788,
      "Pers": 4789,
      "Pta": 4790,
      "Pred": 4791,
      "Res": 4792,
      "Rif": 4793,
      "Sec": 4794,
      "Sup": 4795,
      "Since": 4796,
      "Tar": 4797,
      "Tak": 4798,
      "Tampa": 4799,
      "Todd": 4800,
      "Up": 4801,
      "VI": 4802,
      "Vision": 4803,
      "Whi": 4804,
      "Wales": 4805,
      "Wake": 4806,
      "Western": 4807,
      "You": 4808,
      "``": 4809,
      "aan": 4810,
      "ama": 4811,
      "agn": 4812,
      "atly": 4813,
      "aground": 4814,
      "bad": 4815,
      "bay": 4816,
      "buck": 4817,
      "cli": 4818,
      "csen": 4819,
      "cry": 4820,
      "camp": 4821,
      "codes": 4822,
      "campa": 4823,
      "dh": 4824,
      "dp": 4825,
      "dron": 4826,
      "drew": 4827,
      "dnance": 4828,
      "dney": 4829,
      "dcc": 4830,
      "doped": 4831,
      "ee": 4832,
      "etr": 4833,
      "ech": 4834,
      "eties": 4835,
      "epr": 4836,
      "eag": 4837,
      "eak": 4838,
      "eigh": 4839,
      "eyes": 4840,
      "fat": 4841,
      "fic": 4842,
      "fres": 4843,
      "fate": 4844,
      "fall": 4845,
      "fear": 4846,
      "fill": 4847,
      "fect": 4848,
      "faces": 4849,
      "font": 4850,
      "gm": 4851,
      "gw": 4852,
      "gation": 4853,
      "gic": 4854,
      "gol": 4855,
      "gap": 4856,
      "got": 4857,
      "gate": 4858,
      "gone": 4859,
      "gases": 4860,
      "hon": 4861,
      "haps": 4862,
      "io": 4863,
      "iu": 4864,
      "iel": 4865,
      "ime": 4866,
      "iff": 4867,
      "ihil": 4868,
      "idian": 4869,
      "jid": 4870,
      "jour": 4871,
      "jud": 4872,
      "jacob": 4873,
      "ka": 4874,
      "kil": 4875,
      "kerr": 4876,
      "lad": 4877,
      "lav": 4878,
      "lach": 4879,
      "lang": 4880,
      "mus": 4881,
      "mper": 4882,
      "ny": 4883,
      "nṯ": 4884,
      "ners": 4885,
      "nodes": 4886,
      "natural": 4887,
      "narrow": 4888,
      "ood": 4889,
      "oot": 4890,
      "pec": 4891,
      "pap": 4892,
      "pace": 4893,
      "qd": 4894,
      "rf": 4895,
      "ror": 4896,
      "rich": 4897,
      "race": 4898,
      "racks": 4899,
      "sb": 4900,
      "sung": 4901,
      "sales": 4902,
      "swi": 4903,
      "slam": 4904,
      "tele": 4905,
      "taneous": 4906,
      "uto": 4907,
      "utive": 4908,
      "uable": 4909,
      "uzy": 4910,
      "vs": 4911,
      "vity": 4912,
      "vener": 4913,
      "vice": 4914,
      "whi": 4915,
      "wise": 4916,
      "western": 4917,
      "yard": 4918,
      "your": 4919,
      "zing": 4920,
      "zky": 4921,
      "µm": 4922,
      "tist": 4923,
      "titions": 4924,
      "tibility": 4925,
      "thy": 4926,
      "thoff": 4927,
      "thick": 4928,
      "indis": 4929,
      "inity": 4930,
      "infr": 4931,
      "inhab": 4932,
      "inversion": 4933,
      "erve": 4934,
      "erated": 4935,
      "erating": 4936,
      "anes": 4937,
      "anic": 4938,
      "anning": 4939,
      "edy": 4940,
      "tioned": 4941,
      "esis": 4942,
      "esty": 4943,
      "escap": 4944,
      "escope": 4945,
      "espec": 4946,
      "enant": 4947,
      "ensive": 4948,
      "enjo": 4949,
      "ording": 4950,
      "orbits": 4951,
      "oracles": 4952,
      "tradi": 4953,
      "trading": 4954,
      "alo": 4955,
      "alat": 4956,
      "align": 4957,
      "army": 4958,
      "artwork": 4959,
      "acci": 4960,
      "accompany": 4961,
      "isy": 4962,
      "isen": 4963,
      "ister": 4964,
      "aste": 4965,
      "asury": 4966,
      "atz": 4967,
      "attr": 4968,
      "atform": 4969,
      "atmo": 4970,
      "attribut": 4971,
      "odynamic": 4972,
      "rets": 4973,
      "revi": 4974,
      "reci": 4975,
      "really": 4976,
      "recalled": 4977,
      "removed": 4978,
      "reported": 4979,
      "recommen": 4980,
      "sitter": 4981,
      "sivity": 4982,
      "tools": 4983,
      "romatic": 4984,
      "icago": 4985,
      "strength": 4986,
      "elli": 4987,
      "ellow": 4988,
      "elite": 4989,
      "actor": 4990,
      "unity": 4991,
      "unitary": 4992,
      "conf": 4993,
      "contain": 4994,
      "conformal": 4995,
      "ules": 4996,
      "ulomb": 4997,
      "forn": 4998,
      "Under": 4999,
      "Unlike": 5000,
      "meant": 5001,
      "memory": 5002,
      "Times": 5003,
      "Abra": 5004,
      "stor": 5005,
      "stay": 5006,
      "stark": 5007,
      "stores": 5008,
      "lutting": 5009,
      "maga": 5010,
      "cow": 5011,
      "cooper": 5012,
      "coulomb": 5013,
      "heter": 5014,
      "heard": 5015,
      "health": 5016,
      "demo": 5017,
      "defe": 5018,
      "depart": 5019,
      "devo": 5020,
      "deformations": 5021,
      "decomposition": 5022,
      "degree": 5023,
      "departed": 5024,
      "ilar": 5025,
      "ilers": 5026,
      "irs": 5027,
      "irreduci": 5028,
      "seed": 5029,
      "secre": 5030,
      "semi": 5031,
      "chos": 5032,
      "chose": 5033,
      "chastic": 5034,
      "clubs": 5035,
      "tery": 5036,
      "resem": 5037,
      "resid": 5038,
      "research": 5039,
      "amoun": 5040,
      "adow": 5041,
      "addon": 5042,
      "adjust": 5043,
      "oly": 5044,
      "older": 5045,
      "wasn": 5046,
      "perception": 5047,
      "lie": 5048,
      "lived": 5049,
      "veter": 5050,
      "veying": 5051,
      "dissip": 5052,
      "aya": 5053,
      "apo": 5054,
      "aples": 5055,
      "Their": 5056,
      "Thebes": 5057,
      "divi": 5058,
      "diverse": 5059,
      "dielectric": 5060,
      "ticated": 5061,
      "tically": 5062,
      "righ": 5063,
      "rifle": 5064,
      "verty": 5065,
      "vertical": 5066,
      "versions": 5067,
      "verification": 5068,
      "gets": 5069,
      "spar": 5070,
      "spru": 5071,
      "exer": 5072,
      "utenant": 5073,
      "proved": 5074,
      "proposition": 5075,
      "propos": 5076,
      "project": 5077,
      "processions": 5078,
      "quate": 5079,
      "quality": 5080,
      "platform": 5081,
      "soul": 5082,
      "soil": 5083,
      "sover": 5084,
      "sophis": 5085,
      "tine": 5086,
      "ented": 5087,
      "abr": 5088,
      "moder": 5089,
      "modific": 5090,
      "resulting": 5091,
      "temper": 5092,
      "1919": 5093,
      "ratic": 5094,
      "rauzy": 5095,
      "cali": 5096,
      "call": 5097,
      "caly": 5098,
      "viable": 5099,
      "poverty": 5100,
      "motive": 5101,
      "airline": 5102,
      "airstrips": 5103,
      "gained": 5104,
      "gaussian": 5105,
      "parall": 5106,
      "partition": 5107,
      "twice": 5108,
      "twenty": 5109,
      "fidel": 5110,
      "omas": 5111,
      "oming": 5112,
      "compan": 5113,
      "compact": 5114,
      "obstruction": 5115,
      "summation": 5116,
      "shr": 5117,
      "shore": 5118,
      "shadow": 5119,
      "comb": 5120,
      "coming": 5121,
      "comedy": 5122,
      "sissip": 5123,
      "outs": 5124,
      "avour": 5125,
      "tening": 5126,
      "ansatz": 5127,
      "ions": 5128,
      "phases": 5129,
      "serving": 5130,
      "servation": 5131,
      "correlations": 5132,
      "correction": 5133,
      "corrections": 5134,
      "corners": 5135,
      "prin": 5136,
      "pricing": 5137,
      "gren": 5138,
      "ously": 5139,
      "lowest": 5140,
      "managed": 5141,
      "lest": 5142,
      "hadronic": 5143,
      "speculation": 5144,
      "apply": 5145,
      "achute": 5146,
      "observed": 5147,
      "preced": 5148,
      "prevent": 5149,
      "hau": 5150,
      "bogol": 5151,
      "pressure": 5152,
      "perial": 5153,
      "morse": 5154,
      "novel": 5155,
      "create": 5156,
      "Chap": 5157,
      "Champion": 5158,
      "Chicago": 5159,
      "find": 5160,
      "chart": 5161,
      "charged": 5162,
      "charges": 5163,
      "charcoal": 5164,
      "redshift": 5165,
      "regime": 5166,
      "agent": 5167,
      "aggres": 5168,
      "hosti": 5169,
      "sect": 5170,
      "turrets": 5171,
      "Arni": 5172,
      "Araya": 5173,
      "fungi": 5174,
      "xmath10": 5175,
      "wound": 5176,
      "metry": 5177,
      "ishes": 5178,
      "Head": 5179,
      "Stu": 5180,
      "Stan": 5181,
      "Staples": 5182,
      "mond": 5183,
      "office": 5184,
      "okie": 5185,
      "Thus": 5186,
      "frw": 5187,
      "operate": 5188,
      "operates": 5189,
      "tivistic": 5190,
      "gins": 5191,
      "traw": 5192,
      "branch": 5193,
      "link": 5194,
      "linder": 5195,
      "musical": 5196,
      "curv": 5197,
      "IIFA": 5198,
      "portion": 5199,
      "auto": 5200,
      "Room": 5201,
      "renew": 5202,
      "renamed": 5203,
      "install": 5204,
      "includes": 5205,
      "anner": 5206,
      "annual": 5207,
      "annually": 5208,
      "annihil": 5209,
      "diffusion": 5210,
      "denied": 5211,
      "going": 5212,
      "licences": 5213,
      "2001": 5214,
      "2002": 5215,
      "2003": 5216,
      "milli": 5217,
      "setting": 5218,
      "spacetime": 5219,
      "prize": 5220,
      "division": 5221,
      "understanding": 5222,
      "Author": 5223,
      "seasons": 5224,
      "highway": 5225,
      "hydr": 5226,
      "ometer": 5227,
      "riatic": 5228,
      "positions": 5229,
      "theories": 5230,
      "reference": 5231,
      "epis": 5232,
      "epide": 5233,
      "ritual": 5234,
      "scalars": 5235,
      "subj": 5236,
      "structures": 5237,
      "magnet": 5238,
      "magneto": 5239,
      "aero": 5240,
      "aerob": 5241,
      "warm": 5242,
      "150": 5243,
      "151": 5244,
      "below": 5245,
      "ranked": 5246,
      "ranean": 5247,
      "partment": 5248,
      "engra": 5249,
      "engers": 5250,
      "multiplic": 5251,
      "representations": 5252,
      "venue": 5253,
      "1992": 5254,
      "compared": 5255,
      "smallest": 5256,
      "solving": 5257,
      "efforts": 5258,
      "planet": 5259,
      "gunboat": 5260,
      "gives": 5261,
      "cylinder": 5262,
      "valid": 5263,
      "lands": 5264,
      "landing": 5265,
      "green": 5266,
      "greatly": 5267,
      "munitions": 5268,
      "supersymmetric": 5269,
      "comparisons": 5270,
      "xmath31": 5271,
      "xmath34": 5272,
      "1864": 5273,
      "1865": 5274,
      "xmath25": 5275,
      "xmath26": 5276,
      "differential": 5277,
      "relev": 5278,
      "caused": 5279,
      "causing": 5280,
      "longer": 5281,
      "117": 5282,
      "centime": 5283,
      "nucleus": 5284,
      "controller": 5285,
      "ogly": 5286,
      "attached": 5287,
      "sequel": 5288,
      "personnel": 5289,
      "1926": 5290,
      "continues": 5291,
      "130": 5292,
      "backgrounds": 5293,
      "1987": 5294,
      "itia": 5295,
      "extensive": 5296,
      "officer": 5297,
      "officially": 5298,
      "Radet": 5299,
      "produces": 5300,
      "Leo": 5301,
      "Leade": 5302,
      "burg": 5303,
      "bury": 5304,
      "burgh": 5305,
      "families": 5306,
      "pairs": 5307,
      "receiv": 5308,
      "geometrical": 5309,
      "symmetries": 5310,
      "captions": 5311,
      "capable": 5312,
      "capital": 5313,
      "flex": 5314,
      "tropic": 5315,
      "mythology": 5316,
      "records": 5317,
      "winner": 5318,
      "covery": 5319,
      "influenced": 5320,
      "comeback": 5321,
      "approximately": 5322,
      "responsible": 5323,
      "electrons": 5324,
      "Adriatic": 5325,
      "Games": 5326,
      "tility": 5327,
      "tilla": 5328,
      "microlight": 5329,
      "microcanonical": 5330,
      "Allen": 5331,
      "Department": 5332,
      "casion": 5333,
      "missing": 5334,
      "radius": 5335,
      "conversion": 5336,
      "meanings": 5337,
      "locations": 5338,
      "1942": 5339,
      "1943": 5340,
      "1948": 5341,
      "allowing": 5342,
      "evening": 5343,
      "polych": 5344,
      "polymer": 5345,
      "polytheistic": 5346,
      "defect": 5347,
      "determine": 5348,
      "shooto": 5349,
      "grams": 5350,
      "sectors": 5351,
      "bai": 5352,
      "flag": 5353,
      "governed": 5354,
      "henaten": 5355,
      "imaging": 5356,
      "1933": 5357,
      "1937": 5358,
      "1930s": 5359,
      "synthesis": 5360,
      "predomin": 5361,
      "authorities": 5362,
      "authorized": 5363,
      "Histor": 5364,
      "blocks": 5365,
      "fellow": 5366,
      "glas": 5367,
      "rington": 5368,
      "visual": 5369,
      "visible": 5370,
      "xmath53": 5371,
      "improved": 5372,
      "flotilla": 5373,
      "sundial": 5374,
      "channels": 5375,
      "Canaan": 5376,
      "adequate": 5377,
      "offered": 5378,
      "copy": 5379,
      "expressions": 5380,
      "processes": 5381,
      "xmath70": 5382,
      "community": 5383,
      "depicting": 5384,
      "gravity": 5385,
      "maskrays": 5386,
      "navi": 5387,
      "running": 5388,
      "hierogly": 5389,
      "worshipped": 5390,
      "criticized": 5391,
      "Calamity": 5392,
      "Despite": 5393,
      "icient": 5394,
      "changed": 5395,
      "interpretations": 5396,
      "Maj": 5397,
      "USS": 5398,
      "fuzz": 5399,
      "painted": 5400,
      "organic": 5401,
      "source": 5402,
      "optimization": 5403,
      "postcards": 5404,
      "shotguns": 5405,
      "tribute": 5406,
      "battlefield": 5407,
      "determining": 5408,
      "determination": 5409,
      "Richard": 5410,
      "Service": 5411,
      "eqn": 5412,
      "females": 5413,
      "penetr": 5414,
      "acquired": 5415,
      "uniform": 5416,
      "qualified": 5417,
      "photometry": 5418,
      "Charles": 5419,
      "commissioning": 5420,
      "surrounded": 5421,
      "battleship": 5422,
      "figures": 5423,
      "Pius": 5424,
      "Recording": 5425,
      "flesh": 5426,
      "harmon": 5427,
      "telescope": 5428,
      "mechanics": 5429,
      "mechanism": 5430,
      "mechanisms": 5431,
      "iliary": 5432,
      "getthoff": 5433,
      "absorbed": 5434,
      "partite": 5435,
      "partially": 5436,
      "corporate": 5437,
      "helicity": 5438,
      "diagrams": 5439,
      "Aero": 5440,
      "David": 5441,
      "Dahau": 5442,
      "affected": 5443,
      "frequencies": 5444,
      "slowly": 5445,
      "algebras": 5446,
      "argued": 5447,
      "argument": 5448,
      "assisted": 5449,
      "1962": 5450,
      "earliest": 5451,
      "shows": 5452,
      "maintained": 5453,
      "wooden": 5454,
      "currency": 5455,
      "environmental": 5456,
      "suffering": 5457,
      "Government": 5458,
      "Lankan": 5459,
      "lassical": 5460,
      "raman": 5461,
      "isotropic": 5462,
      "coherence": 5463,
      "decline": 5464,
      "xmath91": 5465,
      "gradu": 5466,
      "gradual": 5467,
      "detectors": 5468,
      "dreadnoughts": 5469,
      "Mississip": 5470,
      "Sajid": 5471,
      "Spalat": 5472,
      "Similar": 5473,
      "economy": 5474,
      "freely": 5475,
      "laboratory": 5476,
      "squadron": 5477,
      "window": 5478,
      "attended": 5479,
      "extrem": 5480,
      "polarized": 5481,
      "polarization": 5482,
      "treatment": 5483,
      "Battlefield": 5484,
      "Organ": 5485,
      "Ordnance": 5486,
      "afs": 5487,
      "cells": 5488,
      "scienti": 5489,
      "vintage": 5490,
      "walls": 5491,
      "situations": 5492,
      "coaching": 5493,
      "adapted": 5494,
      "likely": 5495,
      "distance": 5496,
      "projection": 5497,
      "quarters": 5498,
      "ratio": 5499,
      "historical": 5500,
      "preparation": 5501,
      "relativistic": 5502,
      "temporal": 5503,
      "employ": 5504,
      "demonstrated": 5505,
      "helicopter": 5506,
      "385": 5507,
      "Darling": 5508,
      "Darcsen": 5509,
      "Flying": 5510,
      "Imperial": 5511,
      "Sydney": 5512,
      "Waldron": 5513,
      "driven": 5514,
      "ekf": 5515,
      "homes": 5516,
      "retary": 5517,
      "elliptic": 5518,
      "iterranean": 5519,
      "devolved": 5520,
      "apparent": 5521,
      "probably": 5522,
      "practical": 5523,
      "practice": 5524,
      "granted": 5525,
      "manufacture": 5526,
      "safety": 5527,
      "shocks": 5528,
      "algebraic": 5529,
      "assembled": 5530,
      "Akhenaten": 5531,
      "Mediterranean": 5532,
      "Middle": 5533,
      "Pictures": 5534,
      "Silver": 5535,
      "Tegetthoff": 5536,
      "Treasury": 5537,
      "blue": 5538,
      "code": 5539,
      "passive": 5540,
      "snr": 5541,
      "stochastic": 5542,
      "deploy": 5543,
      "semiclassical": 5544,
      "discrete": 5545,
      "divergence": 5546,
      "excitation": 5547,
      "absence": 5548,
      "negative": 5549,
      "violation": 5550,
      "taxon": 5551,
      "supplementary": 5552,
      "Regular": 5553,
      "shifts": 5554,
      "steering": 5555,
      "benefit": 5556,
      "habitats": 5557,
      "concerns": 5558,
      "threatened": 5559,
      "epithets": 5560,
      "Africa": 5561,
      "criterion": 5562,
      "Henry": 5563,
      "Nubia": 5564,
      "Storrington": 5565,
      "caught": 5566,
      "fantasy": 5567,
      "klaces": 5568,
      "mutual": 5569,
      "t1000": 5570,
      "arrived": 5571,
      "reinforce": 5572,
      "chapel": 5573,
      "terminal": 5574,
      "distributed": 5575,
      "promote": 5576,
      "railroad": 5577,
      "ferromagnet": 5578,
      "feedback": 5579,
      "homogeneous": 5580,
      "satisf": 5581,
      "weighed": 5582,
      "transit": 5583,
      "supernova": 5584,
      "populace": 5585,
      "decisions": 5586,
      "consistency": 5587,
      "microscopic": 5588,
      "predecessors": 5589,
      "Characters": 5590,
      "farmland": 5591,
      "Aerodrome": 5592,
      "legislation": 5593,
      "Montenegro": 5594,
      "reflecting": 5595,
      "bifurcation": 5596,
      "amplitudes": 5597,
      "Brindis": 5598,
      "Hymns": 5599,
      "Queen": 5600,
      "Turkey": 5601,
      "lottery": 5602,
      "sketch": 5603,
      "entrance": 5604,
      "armament": 5605,
      "atoms": 5606,
      "splitting": 5607,
      "explicit": 5608,
      "superior": 5609,
      "poisson": 5610,
      "citizens": 5611,
      "destination": 5612,
      "Egyptologist": 5613,
      "commutative": 5614,
      "auxiliary": 5615,
      "hybrid": 5616,
      "substanti": 5617,
      "fluctuations": 5618,
      "architect": 5619,
      "damage": 5620,
      "electrodynamics": 5621,
      "synchronization": 5622,
      "metallicity": 5623,
      "President": 5624,
      "mummies": 5625,
      "Robert": 5626,
      "challenges": 5627,
      "ceremonies": 5628,
      "Apocaly": 5629,
      "Breslau": 5630,
      "Background": 5631,
      "Class": 5632,
      "Chief": 5633,
      "Douglas": 5634,
      "Fuj": 5635,
      "Federal": 5636,
      "Groundsel": 5637,
      "Hornung": 5638,
      "ICAO": 5639,
      "Mumbai": 5640,
      "M1822": 5641,
      "Ptah": 5642,
      "Secretary": 5643,
      "Whig": 5644,
      "campaign": 5645,
      "eagle": 5646,
      "eighth": 5647,
      "honor": 5648,
      "iubov": 5649,
      "jacobi": 5650,
      "langu": 5651,
      "nṯr": 5652,
      "swift": 5653,
      "whitish": 5654,
      "escape": 5655,
      "especially": 5656,
      "traditions": 5657,
      "accidents": 5658,
      "Abraham": 5659,
      "luttinger": 5660,
      "secret": 5661,
      "chosen": 5662,
      "resemble": 5663,
      "dissipation": 5664,
      "divided": 5665,
      "spruce": 5666,
      "sophisticated": 5667,
      "modifications": 5668,
      "bogoliubov": 5669,
      "Arniel": 5670,
      "hydrodynamic": 5671,
      "epidemic": 5672,
      "multiplicity": 5673,
      "Radetzky": 5674,
      "Leadeth": 5675,
      "shootout": 5676,
      "fuzzy": 5677,
      "Mississippi": 5678,
      "Spalato": 5679,
      "Waldrons": 5680,
      "Brindisi": 5681,
      "(@": 5682,
      ")\\": 5683,
      ".[": 5684,
      "1f": 5685,
      "2nd": 5686,
      "33": 5687,
      "3d": 5688,
      "3100": 5689,
      "4u": 5690,
      "51": 5691,
      "57": 5692,
      "62": 5693,
      "65": 5694,
      "79": 5695,
      "700": 5696,
      "84": 5697,
      "87": 5698,
      "94": 5699,
      "900": 5700,
      "=\\": 5701,
      "Az": 5702,
      "Aga": 5703,
      "Ass": 5704,
      "Bur": 5705,
      "Best": 5706,
      "Banner": 5707,
      "CN": 5708,
      "Cen": 5709,
      "Clay": 5710,
      "Come": 5711,
      "Catt": 5712,
      "Clevel": 5713,
      "DL": 5714,
      "DV": 5715,
      "Del": 5716,
      "Dha": 5717,
      "Dasy": 5718,
      "Dorn": 5719,
      "DTV": 5720,
      "Dahl": 5721,
      "EU": 5722,
      "El": 5723,
      "Edition": 5724,
      "Eye": 5725,
      "Fir": 5726,
      "Flin": 5727,
      "Fren": 5728,
      "Famil": 5729,
      "Four": 5730,
      "Faul": 5731,
      "Foot": 5732,
      "Gen": 5733,
      "Guit": 5734,
      "Hon": 5735,
      "Hang": 5736,
      "House": 5737,
      "Habs": 5738,
      "Ist": 5739,
      "Ja": 5740,
      "Jes": 5741,
      "Jen": 5742,
      "Joseph": 5743,
      "Ken": 5744,
      "Kum": 5745,
      "Kate": 5746,
      "Kim": 5747,
      "La": 5748,
      "Li": 5749,
      "Lar": 5750,
      "Lis": 5751,
      "Lie": 5752,
      "Live": 5753,
      "Like": 5754,
      "LAA": 5755,
      "Local": 5756,
      "Mar": 5757,
      "Mod": 5758,
      "Mur": 5759,
      "Mich": 5760,
      "Matter": 5761,
      "Memp": 5762,
      "Nadi": 5763,
      "Nik": 5764,
      "NPPL": 5765,
      "NDTV": 5766,
      "OS": 5767,
      "Oz": 5768,
      "Our": 5769,
      "Ori": 5770,
      "Out": 5771,
      "Off": 5772,
      "Oilers": 5773,
      "PS": 5774,
      "Pon": 5775,
      "Pac": 5776,
      "Pto": 5777,
      "Pit": 5778,
      "Pos": 5779,
      "Pez": 5780,
      "Player": 5781,
      "Post": 5782,
      "Ry": 5783,
      "Rel": 5784,
      "Race": 5785,
      "Rele": 5786,
      "Revolution": 5787,
      "Riel": 5788,
      "Sz": 5789,
      "Str": 5790,
      "Sal": 5791,
      "Sing": 5792,
      "Slo": 5793,
      "Song": 5794,
      "Scre": 5795,
      "Sports": 5796,
      "Still": 5797,
      "Strait": 5798,
      "Tun": 5799,
      "Tho": 5800,
      "Tuck": 5801,
      "Terry": 5802,
      "Ven": 5803,
      "Vic": 5804,
      "WW": 5805,
      "WY": 5806,
      "Wy": 5807,
      "West": 5808,
      "Wings": 5809,
      "Wood": 5810,
      "Waddon": 5811,
      "^{\\": 5812,
      "_swift": 5813,
      "ai": 5814,
      "ais": 5815,
      "ave": 5816,
      "ather": 5817,
      "atics": 5818,
      "bp": 5819,
      "bw": 5820,
      "bol": 5821,
      "bap": 5822,
      "bard": 5823,
      "bell": 5824,
      "border": 5825,
      "bds": 5826,
      "bcs": 5827,
      "cu": 5828,
      "cis": 5829,
      "cro": 5830,
      "cam": 5831,
      "cled": 5832,
      "card": 5833,
      "cence": 5834,
      "cast": 5835,
      "cub": 5836,
      "cris": 5837,
      "cision": 5838,
      "cacti": 5839,
      "crow": 5840,
      "dm": 5841,
      "dv": 5842,
      "dres": 5843,
      "dos": 5844,
      "dang": 5845,
      "dau": 5846,
      "doc": 5847,
      "drum": 5848,
      "eper": 5849,
      "eev": 5850,
      "ease": 5851,
      "eos": 5852,
      "eben": 5853,
      "fro": 5854,
      "fting": 5855,
      "fare": 5856,
      "fell": 5857,
      "fely": 5858,
      "fission": 5859,
      "fication": 5860,
      "fabr": 5861,
      "gp": 5862,
      "glu": 5863,
      "gri": 5864,
      "gments": 5865,
      "gian": 5866,
      "hb": 5867,
      "hm": 5868,
      "hu": 5869,
      "hin": 5870,
      "hers": 5871,
      "hard": 5872,
      "happ": 5873,
      "hell": 5874,
      "hull": 5875,
      "hss": 5876,
      "horn": 5877,
      "hills": 5878,
      "honey": 5879,
      "ien": 5880,
      "ilu": 5881,
      "ibility": 5882,
      "iforn": 5883,
      "jou": 5884,
      "kle": 5885,
      "kern": 5886,
      "kner": 5887,
      "lod": 5888,
      "lated": 5889,
      "mel": 5890,
      "mir": 5891,
      "mans": 5892,
      "mort": 5893,
      "mits": 5894,
      "mally": 5895,
      "mates": 5896,
      "mll": 5897,
      "mill": 5898,
      "march": 5899,
      "matur": 5900,
      "mills": 5901,
      "nt": 5902,
      "nan": 5903,
      "nur": 5904,
      "none": 5905,
      "nms": 5906,
      "navy": 5907,
      "ox": 5908,
      "oser": 5909,
      "oid": 5910,
      "ograp": 5911,
      "otry": 5912,
      "ocities": 5913,
      "otrophic": 5914,
      "ograms": 5915,
      "pin": 5916,
      "pal": 5917,
      "pod": 5918,
      "pit": 5919,
      "ptic": 5920,
      "pine": 5921,
      "pty": 5922,
      "rs": 5923,
      "rts": 5924,
      "rus": 5925,
      "rare": 5926,
      "rhy": 5927,
      "racing": 5928,
      "rham": 5929,
      "sr": 5930,
      "sap": 5931,
      "scri": 5932,
      "ssing": 5933,
      "stings": 5934,
      "sque": 5935,
      "tan": 5936,
      "tac": 5937,
      "table": 5938,
      "tub": 5939,
      "task": 5940,
      "text": 5941,
      "today": 5942,
      "taste": 5943,
      "ug": 5944,
      "uh": 5945,
      "uv": 5946,
      "ux": 5947,
      "uti": 5948,
      "uhe": 5949,
      "ught": 5950,
      "uds": 5951,
      "uij": 5952,
      "vá": 5953,
      "von": 5954,
      "vor": 5955,
      "vort": 5956,
      "vals": 5957,
      "volution": 5958,
      "wis": 5959,
      "wil": 5960,
      "wol": 5961,
      "ware": 5962,
      "wear": 5963,
      "winter": 5964,
      "xie": 5965,
      "yl": 5966,
      "yang": 5967,
      "yellow": 5968,
      "ycled": 5969,
      "za": 5970,
      "のヴ": 5971,
      "ァル": 5972,
      "ア3": 5973,
      "キュ": 5974,
      "リア3": 5975,
      "場のヴ": 5976,
      "戦場のヴ": 5977,
      "ony": 5978,
      "oning": 5979,
      "tie": 5980,
      "tile": 5981,
      "titive": 5982,
      "tified": 5983,
      "titles": 5984,
      "thum": 5985,
      "thousand": 5986,
      "thomas": 5987,
      "ination": 5988,
      "inde": 5989,
      "inver": 5990,
      "insp": 5991,
      "inely": 5992,
      "inside": 5993,
      "input": 5994,
      "informed": 5995,
      "instruction": 5996,
      "ered": 5997,
      "eras": 5998,
      "ervation": 5999,
      "annot": 6000,
      "antine": 6001,
      "thed": 6002,
      "theism": 6003,
      "eding": 6004,
      "edom": 6005,
      "ession": 6006,
      "esting": 6007,
      "enh": 6008,
      "ensing": 6009,
      "enters": 6010,
      "enses": 6011,
      "enclosed": 6012,
      "encing": 6013,
      "enlisted": 6014,
      "orth": 6015,
      "orad": 6016,
      "orous": 6017,
      "orange": 6018,
      "trac": 6019,
      "trap": 6020,
      "trary": 6021,
      "tries": 6022,
      "truc": 6023,
      "trunc": 6024,
      "alf": 6025,
      "alle": 6026,
      "allu": 6027,
      "alma": 6028,
      "alone": 6029,
      "alty": 6030,
      "alog": 6031,
      "arc": 6032,
      "aro": 6033,
      "aring": 6034,
      "arith": 6035,
      "array": 6036,
      "arbi": 6037,
      "arily": 6038,
      "arrang": 6039,
      "acts": 6040,
      "acres": 6041,
      "accomp": 6042,
      "achie": 6043,
      "oft": 6044,
      "anding": 6045,
      "tler": 6046,
      "isol": 6047,
      "isations": 6048,
      "isia": 6049,
      "isition": 6050,
      "astri": 6051,
      "asking": 6052,
      "astern": 6053,
      "ata": 6054,
      "aton": 6055,
      "oda": 6056,
      "odic": 6057,
      "rep": 6058,
      "reti": 6059,
      "reform": 6060,
      "repor": 6061,
      "remed": 6062,
      "replic": 6063,
      "reactions": 6064,
      "replace": 6065,
      "remix": 6066,
      "reports": 6067,
      "recurr": 6068,
      "reconstruction": 6069,
      "reception": 6070,
      "retained": 6071,
      "recovery": 6072,
      "sities": 6073,
      "ingly": 6074,
      "ington": 6075,
      "told": 6076,
      "togen": 6077,
      "tomed": 6078,
      "tsburgh": 6079,
      "rot": 6080,
      "rose": 6081,
      "rolight": 6082,
      "roots": 6083,
      "roster": 6084,
      "rott": 6085,
      "rotrophic": 6086,
      "icapped": 6087,
      "strings": 6088,
      "strange": 6089,
      "elled": 6090,
      "unid": 6091,
      "unlock": 6092,
      "unlicensed": 6093,
      "conce": 6094,
      "concussion": 6095,
      "confin": 6096,
      "consec": 6097,
      "concen": 6098,
      "convin": 6099,
      "concurrency": 6100,
      "ultrac": 6101,
      "Unlimited": 6102,
      "itt": 6103,
      "itz": 6104,
      "meg": 6105,
      "sters": 6106,
      "stem": 6107,
      "stating": 6108,
      "stances": 6109,
      "store": 6110,
      "stages": 6111,
      "lem": 6112,
      "lema": 6113,
      "lege": 6114,
      "leak": 6115,
      "lecul": 6116,
      "maine": 6117,
      "magn": 6118,
      "matric": 6119,
      "matire": 6120,
      "cobra": 6121,
      "coales": 6122,
      "user": 6123,
      "users": 6124,
      "ushed": 6125,
      "heav": 6126,
      "heart": 6127,
      "heisen": 6128,
      "deb": 6129,
      "dem": 6130,
      "deem": 6131,
      "deck": 6132,
      "debr": 6133,
      "deep": 6134,
      "decompos": 6135,
      "oweak": 6136,
      "iling": 6137,
      "ilian": 6138,
      "ires": 6139,
      "irregular": 6140,
      "irls": 6141,
      "sea": 6142,
      "chip": 6143,
      "chtler": 6144,
      "umn": 6145,
      "ump": 6146,
      "umes": 6147,
      "umping": 6148,
      "resc": 6149,
      "ression": 6150,
      "resur": 6151,
      "resum": 6152,
      "resour": 6153,
      "amph": 6154,
      "amond": 6155,
      "amorous": 6156,
      "aded": 6157,
      "adwal": 6158,
      "advanced": 6159,
      "olsky": 6160,
      "concludes": 6161,
      "ackets": 6162,
      "perce": 6163,
      "pertur": 6164,
      "percol": 6165,
      "percent": 6166,
      "permission": 6167,
      "perfect": 6168,
      "beat": 6169,
      "liam": 6170,
      "lified": 6171,
      "living": 6172,
      "lifes": 6173,
      "withdrew": 6174,
      "vehic": 6175,
      "vector": 6176,
      "discus": 6177,
      "disci": 6178,
      "distor": 6179,
      "disks": 6180,
      "displaced": 6181,
      "dispatch": 6182,
      "disagree": 6183,
      "ayish": 6184,
      "ape": 6185,
      "apit": 6186,
      "dible": 6187,
      "directions": 6188,
      "diamond": 6189,
      "mpted": 6190,
      "rie": 6191,
      "rien": 6192,
      "spl": 6193,
      "span": 6194,
      "spel": 6195,
      "spot": 6196,
      "spital": 6197,
      "spaper": 6198,
      "ceased": 6199,
      "ceiling": 6200,
      "exper": 6201,
      "exec": 6202,
      "explan": 6203,
      "exist": 6204,
      "hies": 6205,
      "hire": 6206,
      "hibi": 6207,
      "utumn": 6208,
      "program": 6209,
      "provision": 6210,
      "prompted": 6211,
      "qubit": 6212,
      "plate": 6213,
      "plates": 6214,
      "placing": 6215,
      "sole": 6216,
      "tinc": 6217,
      "tiny": 6218,
      "why": 6219,
      "whom": 6220,
      "entz": 6221,
      "xmath18": 6222,
      "xmath20": 6223,
      "xmath50": 6224,
      "mented": 6225,
      "aband": 6226,
      "modulation": 6227,
      "moduli": 6228,
      "loading": 6229,
      "loops": 6230,
      "supre": 6231,
      "suitable": 6232,
      "opol": 6233,
      "opra": 6234,
      "opport": 6235,
      "opposed": 6236,
      "nead": 6237,
      "nego": 6238,
      "neural": 6239,
      "romantic": 6240,
      "teich": 6241,
      "1912": 6242,
      "1910": 6243,
      "1917": 6244,
      "1950": 6245,
      "1914": 6246,
      "1916": 6247,
      "1964": 6248,
      "calling": 6249,
      "calendar": 6250,
      "vier": 6251,
      "vile": 6252,
      "pounder": 6253,
      "moments": 6254,
      "mobil": 6255,
      "molecul": 6256,
      "aired": 6257,
      "airship": 6258,
      "airships": 6259,
      "parap": 6260,
      "parity": 6261,
      "parents": 6262,
      "essed": 6263,
      "emin": 6264,
      "embed": 6265,
      "fits": 6266,
      "omical": 6267,
      "ffalo": 6268,
      "compris": 6269,
      "compati": 6270,
      "computer": 6271,
      "computing": 6272,
      "summer": 6273,
      "shower": 6274,
      "shots": 6275,
      "shuto": 6276,
      "ups": 6277,
      "comers": 6278,
      "commented": 6279,
      "takes": 6280,
      "taught": 6281,
      "worm": 6282,
      "worn": 6283,
      "worms": 6284,
      "words": 6285,
      "outer": 6286,
      "avoid": 6287,
      "ucks": 6288,
      "tention": 6289,
      "ansen": 6290,
      "pha": 6291,
      "phic": 6292,
      "phil": 6293,
      "Instead": 6294,
      "onged": 6295,
      "prise": 6296,
      "price": 6297,
      "desc": 6298,
      "grb": 6299,
      "grant": 6300,
      "grass": 6301,
      "grayish": 6302,
      "outgrowth": 6303,
      "typ": 6304,
      "iza": 6305,
      "izes": 6306,
      "otherwise": 6307,
      "ortation": 6308,
      "fertility": 6309,
      "specimen": 6310,
      "bubb": 6311,
      "interact": 6312,
      "interfer": 6313,
      "interest": 6314,
      "interpol": 6315,
      "interference": 6316,
      "interface": 6317,
      "itsu": 6318,
      "aching": 6319,
      "prehistory": 6320,
      "precession": 6321,
      "bose": 6322,
      "boards": 6323,
      "tried": 6324,
      "trips": 6325,
      "tripty": 6326,
      "analyses": 6327,
      "moral": 6328,
      "mordial": 6329,
      "noon": 6330,
      "notion": 6331,
      "nour": 6332,
      "notions": 6333,
      "assaul": 6334,
      "overlap": 6335,
      "grossing": 6336,
      "velocities": 6337,
      "fety": 6338,
      "feeling": 6339,
      "plays": 6340,
      "immedi": 6341,
      "Chopra": 6342,
      "ellites": 6343,
      "charter": 6344,
      "tories": 6345,
      "20th": 6346,
      "endor": 6347,
      "enders": 6348,
      "ager": 6349,
      "homa": 6350,
      "equal": 6351,
      "equally": 6352,
      "sec_": 6353,
      "ify": 6354,
      "tured": 6355,
      "xmath11": 6356,
      "xmath129": 6357,
      "ularities": 6358,
      "impact": 6359,
      "impos": 6360,
      "impurity": 6361,
      "peare": 6362,
      "ishing": 6363,
      "relate": 6364,
      "relative": 6365,
      "Stand": 6366,
      "monton": 6367,
      "monads": 6368,
      "experience": 6369,
      "experienced": 6370,
      "aking": 6371,
      "offers": 6372,
      "magic": 6373,
      "oks": 6374,
      "singer": 6375,
      "singularities": 6376,
      "fring": 6377,
      "fract": 6378,
      "iative": 6379,
      "operated": 6380,
      "operating": 6381,
      "angle": 6382,
      "asons": 6383,
      "generic": 6384,
      "illness": 6385,
      "newspaper": 6386,
      "newcomers": 6387,
      "ubis": 6388,
      "bring": 6389,
      "bration": 6390,
      "branes": 6391,
      "mu_": 6392,
      "muon": 6393,
      "mutiny": 6394,
      "starts": 6395,
      "starting": 6396,
      "presentative": 6397,
      "functioning": 6398,
      "portraits": 6399,
      "teammates": 6400,
      "Roy": 6401,
      "backing": 6402,
      "cannot": 6403,
      "ectations": 6404,
      "sailed": 6405,
      "safely": 6406,
      "template": 6407,
      "Anti": 6408,
      "Anubis": 6409,
      "guar": 6410,
      "mimo": 6411,
      "nonumber": 6412,
      "tains": 6413,
      "clouds": 6414,
      "marks": 6415,
      "survi": 6416,
      "surveying": 6417,
      "inclusive": 6418,
      "signs": 6419,
      "signing": 6420,
      "signals": 6421,
      "licence": 6422,
      "2004": 6423,
      "militia": 6424,
      "scrap": 6425,
      "primar": 6426,
      "primordial": 6427,
      "diving": 6428,
      "underwent": 6429,
      "appropri": 6430,
      "simultaneous": 6431,
      "variable": 6432,
      "variables": 6433,
      "varieties": 6434,
      "icks": 6435,
      "highlights": 6436,
      "hydro": 6437,
      "mera": 6438,
      "merge": 6439,
      "mergers": 6440,
      "ordered": 6441,
      "ordering": 6442,
      "positively": 6443,
      "eportation": 6444,
      "rites": 6445,
      "expon": 6446,
      "expectations": 6447,
      "rison": 6448,
      "scales": 6449,
      "submar": 6450,
      "subordin": 6451,
      "ideas": 6452,
      "ideals": 6453,
      "ideology": 6454,
      "selections": 6455,
      "magnetism": 6456,
      "powerful": 6457,
      "wareness": 6458,
      "transmission": 6459,
      "transformations": 6460,
      "translation": 6461,
      "police": 6462,
      "occurr": 6463,
      "occasion": 6464,
      "rank": 6465,
      "supposed": 6466,
      "enger": 6467,
      "views": 6468,
      "multitu": 6469,
      "multitensors": 6470,
      "rect": 6471,
      "recent": 6472,
      "recycled": 6473,
      "phylo": 6474,
      "describe": 6475,
      "ezed": 6476,
      "lishers": 6477,
      "venes": 6478,
      "remarked": 6479,
      "limits": 6480,
      "1993": 6481,
      "1995": 6482,
      "1999": 6483,
      "worldwide": 6484,
      "doing": 6485,
      "troit": 6486,
      "measures": 6487,
      "spinor": 6488,
      "planes": 6489,
      "planar": 6490,
      "Columbia": 6491,
      "Allies": 6492,
      "Assis": 6493,
      "valuable": 6494,
      "Regi": 6495,
      "Representative": 6496,
      "domin": 6497,
      "galli": 6498,
      "treated": 6499,
      "tremaine": 6500,
      "counting": 6501,
      "countries": 6502,
      "request": 6503,
      "property": 6504,
      "Austrians": 6505,
      "connec": 6506,
      "1860": 6507,
      "1869": 6508,
      "northern": 6509,
      "xmath23": 6510,
      "appears": 6511,
      "differed": 6512,
      "differenti": 6513,
      "biography": 6514,
      "biotrophic": 6515,
      "publishers": 6516,
      "invent": 6517,
      "invoked": 6518,
      "releases": 6519,
      "graphen": 6520,
      "graphic": 6521,
      "cade": 6522,
      "causes": 6523,
      "localization": 6524,
      "110": 6525,
      "11117": 6526,
      "centre": 6527,
      "nucleation": 6528,
      "towns": 6529,
      "1921": 6530,
      "continuous": 6531,
      "134": 6532,
      "lists": 6533,
      "severely": 6534,
      "Johansen": 6535,
      "factory": 6536,
      "masses": 6537,
      "1983": 6538,
      "Begrand": 6539,
      "Bechtler": 6540,
      "Seas": 6541,
      "download": 6542,
      "decades": 6543,
      "extends": 6544,
      "periodic": 6545,
      "officials": 6546,
      "dependences": 6547,
      "deliber": 6548,
      "emphas": 6549,
      "lesser": 6550,
      "shire": 6551,
      "xmath44": 6552,
      "xmath46": 6553,
      "product": 6554,
      "Leafs": 6555,
      "mesons": 6556,
      "pairing": 6557,
      "thorns": 6558,
      "caps": 6559,
      "realms": 6560,
      "realistic": 6561,
      "collap": 6562,
      "succession": 6563,
      "succeeded": 6564,
      "commerce": 6565,
      "Only": 6566,
      "bonus": 6567,
      "didn": 6568,
      "founded": 6569,
      "grown": 6570,
      "grows": 6571,
      "ologies": 6572,
      "mythic": 6573,
      "Airspace": 6574,
      "Airworthiness": 6575,
      "Hungary": 6576,
      "gerlach": 6577,
      "nered": 6578,
      "potentials": 6579,
      "covers": 6580,
      "sortie": 6581,
      "influences": 6582,
      "consistent": 6583,
      "electrical": 6584,
      "electroweak": 6585,
      "breakout": 6586,
      "Advanced": 6587,
      "Adrien": 6588,
      "Buffalo": 6589,
      "Croats": 6590,
      "Engra": 6591,
      "bands": 6592,
      "failu": 6593,
      "flows": 6594,
      "flowers": 6595,
      "xmath132": 6596,
      "Defin": 6597,
      "Detroit": 6598,
      "casc": 6599,
      "ruler": 6600,
      "radii": 6601,
      "uitbodies": 6602,
      "converted": 6603,
      "stered": 6604,
      "1940": 6605,
      "1940s": 6606,
      "possi": 6607,
      "allows": 6608,
      "polyamph": 6609,
      "joy": 6610,
      "joint": 6611,
      "ville": 6612,
      "amping": 6613,
      "dimension": 6614,
      "decaying": 6615,
      "iii": 6616,
      "define": 6617,
      "defenses": 6618,
      "deterior": 6619,
      "competed": 6620,
      "competitions": 6621,
      "commands": 6622,
      "statistic": 6623,
      "Common": 6624,
      "flavour": 6625,
      "governor": 6626,
      "pier": 6627,
      "pixie": 6628,
      "passage": 6629,
      "passengers": 6630,
      "illustration": 6631,
      "illustrations": 6632,
      "illustrator": 6633,
      "directed": 6634,
      "directly": 6635,
      "1936": 6636,
      "predic": 6637,
      "predictions": 6638,
      "membership": 6639,
      "Horthy": 6640,
      "Norway": 6641,
      "balance": 6642,
      "glamorous": 6643,
      "handed": 6644,
      "handling": 6645,
      "nedy": 6646,
      "samples": 6647,
      "visited": 6648,
      "stream": 6649,
      "xmath52": 6650,
      "objective": 6651,
      "profitable": 6652,
      "improving": 6653,
      "complexes": 6654,
      "coloring": 6655,
      "constraint": 6656,
      "changeable": 6657,
      "America": 6658,
      "Maxim": 6659,
      "flood": 6660,
      "margins": 6661,
      "neck": 6662,
      "statue": 6663,
      "speaking": 6664,
      "spirits": 6665,
      "spirals": 6666,
      "spiracles": 6667,
      "exclusively": 6668,
      "protective": 6669,
      "losses": 6670,
      "civilian": 6671,
      "shapes": 6672,
      "identities": 6673,
      "publicly": 6674,
      "Cancer": 6675,
      "Canucks": 6676,
      "Prior": 6677,
      "Senate": 6678,
      "Senators": 6679,
      "ctuary": 6680,
      "drawn": 6681,
      "panels": 6682,
      "writer": 6683,
      "sixth": 6684,
      "simplest": 6685,
      "context": 6686,
      "existed": 6687,
      "expression": 6688,
      "processing": 6689,
      "fermionic": 6690,
      "communities": 6691,
      "communicating": 6692,
      "depict": 6693,
      "depicts": 6694,
      "bench": 6695,
      "barracks": 6696,
      "runs": 6697,
      "runways": 6698,
      "vices": 6699,
      "vicinity": 6700,
      "trict": 6701,
      "focused": 6702,
      "popularity": 6703,
      "Calthro": 6704,
      "Californ": 6705,
      "Edmonton": 6706,
      "Perhaps": 6707,
      "\\!/": 6708,
      "gress": 6709,
      "walk": 6710,
      "envision": 6711,
      "conscious": 6712,
      "couver": 6713,
      "amongst": 6714,
      "begins": 6715,
      "quasars": 6716,
      "logical": 6717,
      "sufficient": 6718,
      "emergency": 6719,
      "interpreted": 6720,
      "regularized": 6721,
      "months": 6722,
      "attacks": 6723,
      "kespeare": 6724,
      "kinetic": 6725,
      "painting": 6726,
      "radon": 6727,
      "radiative": 6728,
      "organizations": 6729,
      "constants": 6730,
      "constantly": 6731,
      "separation": 6732,
      "behaviour": 6733,
      "optimality": 6734,
      "significantly": 6735,
      "youngest": 6736,
      "Actress": 6737,
      "Extra": 6738,
      "PopMatter": 6739,
      "Richmond": 6740,
      "Serbs": 6741,
      "aete": 6742,
      "cheaper": 6743,
      "invariants": 6744,
      "acquisition": 6745,
      "recoil": 6746,
      "procedures": 6747,
      "qualifi": 6748,
      "availability": 6749,
      "Charts": 6750,
      "indicates": 6751,
      "crucial": 6752,
      "individuals": 6753,
      "Parrott": 6754,
      "Scholars": 6755,
      "crosses": 6756,
      "garrison": 6757,
      "garnered": 6758,
      "horse": 6759,
      "patterns": 6760,
      "picks": 6761,
      "saying": 6762,
      "teleportation": 6763,
      "schemes": 6764,
      "improvement": 6765,
      "Dave": 6766,
      "Khenty": 6767,
      "Macmill": 6768,
      "Neotry": 6769,
      "Pilots": 6770,
      "boring": 6771,
      "friend": 6772,
      "oils": 6773,
      "slowed": 6774,
      "udos": 6775,
      "assists": 6776,
      "assistant": 6777,
      "spherical": 6778,
      "thermodynamic": 6779,
      "Intermediate": 6780,
      "specialized": 6781,
      "counterfe": 6782,
      "counterparts": 6783,
      "accelerating": 6784,
      "credit": 6785,
      "duties": 6786,
      "duff": 6787,
      "laser": 6788,
      "width": 6789,
      "beams": 6790,
      "1954": 6791,
      "1973": 6792,
      "motivating": 6793,
      "playoffs": 6794,
      "Divine": 6795,
      "Frank": 6796,
      "Francis": 6797,
      "Preservation": 6798,
      "Safety": 6799,
      "Simon": 6800,
      "freedom": 6801,
      "household": 6802,
      "laborers": 6803,
      "winds": 6804,
      "zzle": 6805,
      "roscopic": 6806,
      "restrictive": 6807,
      "geodesic": 6808,
      "weakly": 6809,
      "treatments": 6810,
      "brothers": 6811,
      "electrogeodesics": 6812,
      "asymmetry": 6813,
      "ironclads": 6814,
      "cruiser": 6815,
      "Barry": 6816,
      "Goals": 6817,
      "Goeben": 6818,
      "Julian": 6819,
      "]),": 6820,
      "cutoff": 6821,
      "fantry": 6822,
      "lapl": 6823,
      "phisms": 6824,
      "science": 6825,
      "tismal": 6826,
      "associations": 6827,
      "reasons": 6828,
      "reflect": 6829,
      "configurations": 6830,
      "leptogen": 6831,
      "distances": 6832,
      "quantization": 6833,
      "prepared": 6834,
      "relatively": 6835,
      "monotheistic": 6836,
      "temporary": 6837,
      "\\!\\!\\!/": 6838,
      "demonstration": 6839,
      "Awards": 6840,
      "Guide": 6841,
      "Haiti": 6842,
      "Harrel": 6843,
      "Imca": 6844,
      "Shakespeare": 6845,
      "Torre": 6846,
      "Works": 6847,
      "falcon": 6848,
      "false": 6849,
      "fairies": 6850,
      "gmentation": 6851,
      "holes": 6852,
      "homology": 6853,
      "message": 6854,
      "target": 6855,
      "retarded": 6856,
      "apparently": 6857,
      "oscillating": 6858,
      "largest": 6859,
      "superconductivity": 6860,
      "superconductors": 6861,
      "recognised": 6862,
      "assembly": 6863,
      "categories": 6864,
      "Brooke": 6865,
      "Brooks": 6866,
      "Holy": 6867,
      "Media": 6868,
      "Masand": 6869,
      "Military": 6870,
      "Planning": 6871,
      "Picture": 6872,
      "Portable": 6873,
      "Rediff": 6874,
      "Russell": 6875,
      "Rushie": 6876,
      "Silent": 6877,
      "Summary": 6878,
      "Summer": 6879,
      "Steve": 6880,
      "Team": 6881,
      "Temple": 6882,
      "Temples": 6883,
      "Vancouver": 6884,
      "easily": 6885,
      "junction": 6886,
      "lensing": 6887,
      "write": 6888,
      "deciding": 6889,
      "decided": 6890,
      "mounted": 6891,
      "shared": 6892,
      "taxi": 6893,
      "principle": 6894,
      "morphological": 6895,
      "fruiting": 6896,
      "frontier": 6897,
      "surrendered": 6898,
      "struggle": 6899,
      "Christmas": 6900,
      "drawings": 6901,
      "epithet": 6902,
      "African": 6903,
      "criteria": 6904,
      "Fruitbodies": 6905,
      "Joint": 6906,
      "Note": 6907,
      "Smith": 6908,
      "Small": 6909,
      "Soundtrack": 6910,
      "William": 6911,
      "aware": 6912,
      "baths": 6913,
      "hubbard": 6914,
      "happened": 6915,
      "sdss": 6916,
      "sanctuary": 6917,
      "anomal": 6918,
      "anomaly": 6919,
      "anthropo": 6920,
      "alternating": 6921,
      "accused": 6922,
      "remuneration": 6923,
      "remunerated": 6924,
      "iconography": 6925,
      "iconograp": 6926,
      "strategic": 6927,
      "ultimately": 6928,
      "meteorological": 6929,
      "coordinates": 6930,
      "choice": 6931,
      "championship": 6932,
      "championships": 6933,
      "southern": 6934,
      "abundance": 6935,
      "compressible": 6936,
      "solvable": 6937,
      "solvability": 6938,
      "requirements": 6939,
      "delivery": 6940,
      "steamer": 6941,
      "syncretism": 6942,
      "syncretized": 6943,
      "balloon": 6944,
      "balloons": 6945,
      "consulted": 6946,
      "conventional": 6947,
      "maxwells": 6948,
      "diagnosed": 6949,
      "Alex": 6950,
      "Balk": 6951,
      "Billboard": 6952,
      "Gilii": 6953,
      "Garden": 6954,
      "Microlight": 6955,
      "Samu": 6956,
      "battery": 6957,
      "crossover": 6958,
      "hessian": 6959,
      "housed": 6960,
      "lorentz": 6961,
      "picture": 6962,
      "stingray": 6963,
      "enemy": 6964,
      "artists": 6965,
      "rejected": 6966,
      "confirmation": 6967,
      "constructed": 6968,
      "costumes": 6969,
      "cology": 6970,
      "covariant": 6971,
      "exhib": 6972,
      "protocol": 6973,
      "quickly": 6974,
      "possession": 6975,
      "correspondence": 6976,
      "appeal": 6977,
      "financial": 6978,
      "peaked": 6979,
      "carrying": 6980,
      "occupied": 6981,
      "Alongside": 6982,
      "certification": 6983,
      "collectively": 6984,
      "spectroscopic": 6985,
      "Rajeev": 6986,
      "turbulence": 6987,
      "Compe": 6988,
      "Additionally": 6989,
      "Commander": 6990,
      "Canadian": 6991,
      "circumstances": 6992,
      "Description": 6993,
      "festival": 6994,
      "422nd": 6995,
      "Among": 6996,
      "Feeding": 6997,
      "Lively": 6998,
      "Meridian": 6999,
      "Mariah": 7000,
      "Necklaces": 7001,
      "Otta": 7002,
      "Official": 7003,
      "Potentials": 7004,
      "Personal": 7005,
      "Predynastic": 7006,
      "crystal": 7007,
      "dpvs": 7008,
      "filling": 7009,
      "journey": 7010,
      "killed": 7011,
      "telegraph": 7012,
      "accompanying": 7013,
      "atmosphere": 7014,
      "attributes": 7015,
      "recommended": 7016,
      "magazine": 7017,
      "hetero": 7018,
      "defeated": 7019,
      "devotion": 7020,
      "amount": 7021,
      "veteran": 7022,
      "exercise": 7023,
      "proposal": 7024,
      "temperature": 7025,
      "parallel": 7026,
      "fidelity": 7027,
      "companions": 7028,
      "obstructions": 7029,
      "Championship": 7030,
      "hostile": 7031,
      "Stanley": 7032,
      "curvature": 7033,
      "automatic": 7034,
      "subjects": 7035,
      "aerobatics": 7036,
      "engraver": 7037,
      "relevant": 7038,
      "centimeter": 7039,
      "receiving": 7040,
      "polychaete": 7041,
      "predominantly": 7042,
      "Historic": 7043,
      "hieroglyphs": 7044,
      "penetrate": 7045,
      "Recordings": 7046,
      "harmonic": 7047,
      "satisfy": 7048,
      "substantial": 7049,
      "architecture": 7050,
      "Apocalypse": 7051,
      "language": 7052,
      "1fgl": 7053,
      "Azure": 7054,
      "Against": 7055,
      "Assmann": 7056,
      "Clayton": 7057,
      "Cattaro": 7058,
      "Cleveland": 7059,
      "DLC": 7060,
      "DVD": 7061,
      "Dhawan": 7062,
      "Dahlgren": 7063,
      "First": 7064,
      "Flint": 7065,
      "French": 7066,
      "Faulkner": 7067,
      "Football": 7068,
      "Guitar": 7069,
      "Honjou": 7070,
      "Habsburg": 7071,
      "Istvá": 7072,
      "Kumar": 7073,
      "Latin": 7074,
      "Library": 7075,
      "Lieutenant": 7076,
      "Memphis": 7077,
      "Nadiadwal": 7078,
      "Ozawa": 7079,
      "Pacific": 7080,
      "Ptolema": 7081,
      "Pittsburgh": 7082,
      "Peziza": 7083,
      "Ryan": 7084,
      "Riela": 7085,
      "Szent": 7086,
      "Slovenes": 7087,
      "Songs": 7088,
      "Scream": 7089,
      "Tunisia": 7090,
      "Thoth": 7091,
      "WWII": 7092,
      "WYO": 7093,
      "Wyoming": 7094,
      "_swift_": 7095,
      "baptismal": 7096,
      "cubic": 7097,
      "crisis": 7098,
      "giants": 7099,
      "herself": 7100,
      "happy": 7101,
      "klein": 7102,
      "mirror": 7103,
      "mller": 7104,
      "podolsky": 7105,
      "rhythm": 7106,
      "saprotrophic": 7107,
      "squeezed": 7108,
      "tactical": 7109,
      "uijn": 7110,
      "vortex": 7111,
      "wisdom": 7112,
      "wilson": 7113,
      "ァルキュ": 7114,
      "戦場のヴァルキュ": 7115,
      "thumously": 7116,
      "index": 7117,
      "annotata": 7118,
      "arbitrary": 7119,
      "arranged": 7120,
      "achieve": 7121,
      "reporter": 7122,
      "unlocked": 7123,
      "consecutive": 7124,
      "ultracold": 7125,
      "matrices": 7126,
      "heisenberg": 7127,
      "deemed": 7128,
      "debruijn": 7129,
      "perturbed": 7130,
      "percolation": 7131,
      "vehicles": 7132,
      "supreme": 7133,
      "negoti": 7134,
      "teichmller": 7135,
      "mobilized": 7136,
      "shutout": 7137,
      "bubbles": 7138,
      "triptych": 7139,
      "assault": 7140,
      "immediately": 7141,
      "primarily": 7142,
      "multitude": 7143,
      "Engraver": 7144,
      "failure": 7145,
      "polyampholy": 7146,
      "Calthrop": 7147,
      "California": 7148,
      "PopMatters": 7149,
      "qualifiers": 7150,
      "Macmillan": 7151,
      "Neotrygon": 7152,
      "leptogenesis": 7153,
      "iconographies": 7154,
      "István": 7155,
      "Nadiadwala": 7156,
      "Ptolemaic": 7157,
      "戦場のヴァルキュリア3": 7158,
      "$]": 7159,
      "&&": 7160,
      "(-": 7161,
      "+(": 7162,
      ",\\": 7163,
      "09": 7164,
      "0equ": 7165,
      "250": 7166,
      "37": 7167,
      "3body": 7168,
      "43": 7169,
      "46": 7170,
      "469": 7171,
      "55": 7172,
      "58": 7173,
      "5cm": 7174,
      "63": 7175,
      "66": 7176,
      "600": 7177,
      "72": 7178,
      "76": 7179,
      "83": 7180,
      "98": 7181,
      "9th": 7182,
      "=-": 7183,
      "AD": 7184,
      "Ath": 7185,
      "Action": 7186,
      "Astr": 7187,
      "Aay": 7188,
      "Ather": 7189,
      "Ash": 7190,
      "Ape": 7191,
      "Agg": 7192,
      "AHL": 7193,
      "Aval": 7194,
      "Apos": 7195,
      "Azer": 7196,
      "Agency": 7197,
      "Autumn": 7198,
      "Awareness": 7199,
      "BN": 7200,
      "Bi": 7201,
      "Bon": 7202,
      "Bes": 7203,
      "Bas": 7204,
      "Bre": 7205,
      "Bus": 7206,
      "Bil": 7207,
      "Bap": 7208,
      "Block": 7209,
      "Both": 7210,
      "Bru": 7211,
      "Big": 7212,
      "CD": 7213,
      "Cre": 7214,
      "Cic": 7215,
      "Cli": 7216,
      "Cec": 7217,
      "Cop": 7218,
      "Cher": 7219,
      "Cris": 7220,
      "Cross": 7221,
      "Crew": 7222,
      "Creek": 7223,
      "Dan": 7224,
      "Dra": 7225,
      "Dem": 7226,
      "Dion": 7227,
      "Dyn": 7228,
      "Dynastic": 7229,
      "Dalma": 7230,
      "ET": 7231,
      "Ele": 7232,
      "Even": 7233,
      "Elh": 7234,
      "Eastern": 7235,
      "FR": 7236,
      "Fl": 7237,
      "Fis": 7238,
      "Fur": 7239,
      "Fam": 7240,
      "Fri": 7241,
      "Fem": 7242,
      "Flow": 7243,
      "Fried": 7244,
      "Five": 7245,
      "Father": 7246,
      "GP": 7247,
      "GS": 7248,
      "Ga": 7249,
      "Gra": 7250,
      "Greco": 7251,
      "Glas": 7252,
      "Girl": 7253,
      "Grant": 7254,
      "Girls": 7255,
      "Hand": 7256,
      "Has": 7257,
      "Hod": 7258,
      "Hate": 7259,
      "Hav": 7260,
      "Hell": 7261,
      "Hamil": 7262,
      "Hash": 7263,
      "Hamp": 7264,
      "Heli": 7265,
      "Half": 7266,
      "IU": 7267,
      "If": 7268,
      "Il": 7269,
      "Ice": 7270,
      "Ign": 7271,
      "Jones": 7272,
      "Kub": 7273,
      "Kah": 7274,
      "Kapo": 7275,
      "Kais": 7276,
      "Lon": 7277,
      "Lor": 7278,
      "Lem": 7279,
      "Let": 7280,
      "Lord": 7281,
      "Mo": 7282,
      "Mus": 7283,
      "Map": 7284,
      "Mut": 7285,
      "Mess": 7286,
      "Mgr": 7287,
      "Mark": 7288,
      "Mos": 7289,
      "Met": 7290,
      "Mak": 7291,
      "Mater": 7292,
      "Maga": 7293,
      "Mike": 7294,
      "Moun": 7295,
      "NA": 7296,
      "Non": 7297,
      "Nation": 7298,
      "Nine": 7299,
      "None": 7300,
      "Nass": 7301,
      "Never": 7302,
      "Nature": 7303,
      "Next": 7304,
      "Nov": 7305,
      "Ob": 7306,
      "Os": 7307,
      "Over": 7308,
      "Outh": 7309,
      "Own": 7310,
      "Py": 7311,
      "Pal": 7312,
      "Pul": 7313,
      "Pad": 7314,
      "Pra": 7315,
      "Page": 7316,
      "Pray": 7317,
      "Pump": 7318,
      "PET": 7319,
      "Qu": 7320,
      "Ron": 7321,
      "Rand": 7322,
      "Rod": 7323,
      "Ric": 7324,
      "Rol": 7325,
      "Rep": 7326,
      "Races": 7327,
      "Reli": 7328,
      "Racing": 7329,
      "Sk": 7330,
      "Sus": 7331,
      "Spl": 7332,
      "Scal": 7333,
      "Sci": 7334,
      "Suc": 7335,
      "Sain": 7336,
      "Sub": 7337,
      "Sever": 7338,
      "Slat": 7339,
      "Saves": 7340,
      "Sank": 7341,
      "Span": 7342,
      "Swan": 7343,
      "Stral": 7344,
      "Shor": 7345,
      "Supper": 7346,
      "Scut": 7347,
      "Slau": 7348,
      "Sier": 7349,
      "Slav": 7350,
      "Ty": 7351,
      "Ter": 7352,
      "Tan": 7353,
      "Tex": 7354,
      "Tom": 7355,
      "Tax": 7356,
      "Tris": 7357,
      "Tran": 7358,
      "Tour": 7359,
      "Treat": 7360,
      "Today": 7361,
      "TGS": 7362,
      "Ul": 7363,
      "Ut": 7364,
      "Ver": 7365,
      "Var": 7366,
      "Vol": 7367,
      "Vers": 7368,
      "Vill": 7369,
      "VFR": 7370,
      "Won": 7371,
      "Wish": 7372,
      "Will": 7373,
      "Wild": 7374,
      "Wash": 7375,
      "Woman": 7376,
      "Where": 7377,
      "Yug": 7378,
      "\\\\": 7379,
      "]\\": 7380,
      "ael": 7381,
      "auction": 7382,
      "aft": 7383,
      "atis": 7384,
      "avier": 7385,
      "bh": 7386,
      "bing": 7387,
      "bare": 7388,
      "blow": 7389,
      "bble": 7390,
      "bag": 7391,
      "bold": 7392,
      "bian": 7393,
      "bulation": 7394,
      "bank": 7395,
      "bore": 7396,
      "bital": 7397,
      "bloch": 7398,
      "bsite": 7399,
      "cn": 7400,
      "cq": 7401,
      "cta": 7402,
      "cure": 7403,
      "cft": 7404,
      "cmb": 7405,
      "cari": 7406,
      "cele": 7407,
      "ctors": 7408,
      "dg": 7409,
      "dor": 7410,
      "dic": 7411,
      "dut": 7412,
      "dated": 7413,
      "dance": 7414,
      "dors": 7415,
      "darker": 7416,
      "dele": 7417,
      "dry": 7418,
      "dna": 7419,
      "dlas": 7420,
      "dress": 7421,
      "dict": 7422,
      "damping": 7423,
      "ege": 7424,
      "easy": 7425,
      "etings": 7426,
      "emotion": 7427,
      "einste": 7428,
      "eye": 7429,
      "ecology": 7430,
      "fs": 7431,
      "fec": 7432,
      "fers": 7433,
      "flar": 7434,
      "fying": 7435,
      "fried": 7436,
      "fishes": 7437,
      "fcn": 7438,
      "gma": 7439,
      "gow": 7440,
      "gare": 7441,
      "gies": 7442,
      "gory": 7443,
      "greg": 7444,
      "gates": 7445,
      "gue": 7446,
      "gord": 7447,
      "gkin": 7448,
      "hund": 7449,
      "hall": 7450,
      "hates": 7451,
      "hmu": 7452,
      "hors": 7453,
      "hps": 7454,
      "hired": 7455,
      "ium": 7456,
      "idi": 7457,
      "itin": 7458,
      "iment": 7459,
      "ifer": 7460,
      "ipe": 7461,
      "itis": 7462,
      "ikes": 7463,
      "ibly": 7464,
      "ibay": 7465,
      "igalli": 7466,
      "ju": 7467,
      "jections": 7468,
      "jda": 7469,
      "jcm": 7470,
      "kf": 7471,
      "ki": 7472,
      "ko": 7473,
      "kon": 7474,
      "kas": 7475,
      "khar": 7476,
      "kdv": 7477,
      "kuh": 7478,
      "koda": 7479,
      "lm": 7480,
      "ln": 7481,
      "lv": 7482,
      "lun": 7483,
      "lain": 7484,
      "lord": 7485,
      "lvan": 7486,
      "mh": 7487,
      "mical": 7488,
      "mason": 7489,
      "mise": 7490,
      "mns": 7491,
      "mologies": 7492,
      "nm": 7493,
      "nin": 7494,
      "nis": 7495,
      "nic": 7496,
      "nil": 7497,
      "nations": 7498,
      "nom": 7499,
      "nsy": 7500,
      "nell": 7501,
      "nish": 7502,
      "natur": 7503,
      "nomin": 7504,
      "nfem": 7505,
      "neling": 7506,
      "nhd": 7507,
      "oe": 7508,
      "oo": 7509,
      "oy": 7510,
      "osion": 7511,
      "oter": 7512,
      "oting": 7513,
      "ovi": 7514,
      "osis": 7515,
      "osynthesis": 7516,
      "p_": 7517,
      "pu": 7518,
      "py": 7519,
      "pun": 7520,
      "pra": 7521,
      "pans": 7522,
      "psy": 7523,
      "piv": 7524,
      "pend": 7525,
      "pie": 7526,
      "pull": 7527,
      "pector": 7528,
      "pacing": 7529,
      "pumping": 7530,
      "qed": 7531,
      "qgp": 7532,
      "qnms": 7533,
      "rg": 7534,
      "rm": 7535,
      "rac": 7536,
      "rhi": 7537,
      "rated": 7538,
      "rase": 7539,
      "rill": 7540,
      "rise": 7541,
      "ruit": 7542,
      "ratch": 7543,
      "rality": 7544,
      "rhic": 7545,
      "rented": 7546,
      "rrm": 7547,
      "sin": 7548,
      "sand": 7549,
      "sections": 7550,
      "sunk": 7551,
      "scre": 7552,
      "scan": 7553,
      "scar": 7554,
      "slight": 7555,
      "saves": 7556,
      "slip": 7557,
      "sink": 7558,
      "slen": 7559,
      "soft": 7560,
      "tz": 7561,
      "tul": 7562,
      "tum": 7563,
      "tte": 7564,
      "tance": 7565,
      "tely": 7566,
      "tute": 7567,
      "tario": 7568,
      "tanding": 7569,
      "uma": 7570,
      "ugh": 7571,
      "uments": 7572,
      "uating": 7573,
      "usive": 7574,
      "uinely": 7575,
      "v_": 7576,
      "var": 7577,
      "vul": 7578,
      "varies": 7579,
      "vince": 7580,
      "vague": 7581,
      "wed": 7582,
      "wre": 7583,
      "wav": 7584,
      "wish": 7585,
      "xb": 7586,
      "xy": 7587,
      "xmm": 7588,
      "xford": 7589,
      "xima": 7590,
      "ya": 7591,
      "yer": 7592,
      "yet": 7593,
      "yards": 7594,
      "youth": 7595,
      "zes": 7596,
      "{-": 7597,
      "}^": 7598,
      "}\\!\\!": 7599,
      "}=-": 7600,
      "Škoda": 7601,
      "onon": 7602,
      "oned": 7603,
      "onian": 7604,
      "onset": 7605,
      "online": 7606,
      "onomy": 7607,
      "tip": 7608,
      "tiary": 7609,
      "tivities": 7610,
      "titute": 7611,
      "ini": 7612,
      "ints": 7613,
      "inion": 7614,
      "inine": 7615,
      "infer": 7616,
      "inspec": 7617,
      "inau": 7618,
      "incess": 7619,
      "instruc": 7620,
      "inese": 7621,
      "informal": 7622,
      "infinite": 7623,
      "inney": 7624,
      "independence": 7625,
      "inference": 7626,
      "indirect": 7627,
      "inhabit": 7628,
      "inadequate": 7629,
      "inhomogeneous": 7630,
      "inhibi": 7631,
      "erous": 7632,
      "erie": 7633,
      "erters": 7634,
      "erased": 7635,
      "erosion": 7636,
      "aning": 7637,
      "anity": 7638,
      "anced": 7639,
      "anwhile": 7640,
      "anche": 7641,
      "antee": 7642,
      "thes": 7643,
      "thesi": 7644,
      "theast": 7645,
      "editions": 7646,
      "edges": 7647,
      "esz": 7648,
      "ester": 7649,
      "eshi": 7650,
      "esian": 7651,
      "esaw": 7652,
      "esoter": 7653,
      "ena": 7654,
      "enth": 7655,
      "ened": 7656,
      "ening": 7657,
      "enge": 7658,
      "entry": 7659,
      "entered": 7660,
      "ennead": 7661,
      "ored": 7662,
      "orac": 7663,
      "orts": 7664,
      "orches": 7665,
      "orbital": 7666,
      "tres": 7667,
      "trol": 7668,
      "tray": 7669,
      "trunk": 7670,
      "trend": 7671,
      "trization": 7672,
      "trapped": 7673,
      "trln": 7674,
      "aling": 7675,
      "alled": 7676,
      "altered": 7677,
      "already": 7678,
      "arth": 7679,
      "ared": 7680,
      "ardi": 7681,
      "artic": 7682,
      "arte": 7683,
      "arity": 7684,
      "arsen": 7685,
      "arrange": 7686,
      "arche": 7687,
      "arrest": 7688,
      "armory": 7689,
      "artist": 7690,
      "acs": 7691,
      "acis": 7692,
      "acces": 7693,
      "acian": 7694,
      "actly": 7695,
      "acorn": 7696,
      "ander": 7697,
      "andre": 7698,
      "andrase": 7699,
      "tland": 7700,
      "tlist": 7701,
      "ises": 7702,
      "ismo": 7703,
      "isers": 7704,
      "isone": 7705,
      "isove": 7706,
      "isomor": 7707,
      "asis": 7708,
      "aster": 7709,
      "asers": 7710,
      "asci": 7711,
      "asty": 7712,
      "assign": 7713,
      "astro": 7714,
      "astrop": 7715,
      "astruc": 7716,
      "atum": 7717,
      "aters": 7718,
      "atov": 7719,
      "atomic": 7720,
      "ode": 7721,
      "odrom": 7722,
      "odometer": 7723,
      "rey": 7724,
      "rear": 7725,
      "reis": 7726,
      "recur": 7727,
      "reading": 7728,
      "remembers": 7729,
      "remit": 7730,
      "refri": 7731,
      "reply": 7732,
      "retreat": 7733,
      "rearmed": 7734,
      "reminis": 7735,
      "retaining": 7736,
      "recombination": 7737,
      "reproduces": 7738,
      "revolution": 7739,
      "retains": 7740,
      "sick": 7741,
      "siven": 7742,
      "sitting": 7743,
      "sigma": 7744,
      "tood": 7745,
      "toms": 7746,
      "tolic": 7747,
      "toshi": 7748,
      "totrop": 7749,
      "toler": 7750,
      "roy": 7751,
      "rotor": 7752,
      "romean": 7753,
      "rookie": 7754,
      "ica": 7755,
      "iced": 7756,
      "ications": 7757,
      "icated": 7758,
      "icial": 7759,
      "ictory": 7760,
      "strm": 7761,
      "strike": 7762,
      "strict": 7763,
      "strahl": 7764,
      "elle": 7765,
      "else": 7766,
      "elop": 7767,
      "elength": 7768,
      "actual": 7769,
      "actually": 7770,
      "unary": 7771,
      "unty": 7772,
      "unless": 7773,
      "unconstrain": 7774,
      "unov": 7775,
      "unital": 7776,
      "uncontrolled": 7777,
      "unofficial": 7778,
      "unsure": 7779,
      "unlikely": 7780,
      "undistor": 7781,
      "conve": 7782,
      "confi": 7783,
      "concer": 7784,
      "conject": 7785,
      "convey": 7786,
      "contained": 7787,
      "confron": 7788,
      "conservation": 7789,
      "contention": 7790,
      "contemporary": 7791,
      "conifer": 7792,
      "ulf": 7793,
      "ulum": 7794,
      "ultra": 7795,
      "forth": 7796,
      "forest": 7797,
      "forests": 7798,
      "forcing": 7799,
      "item": 7800,
      "iteration": 7801,
      "meter": 7802,
      "meetings": 7803,
      "Aby": 7804,
      "stations": 7805,
      "stab": 7806,
      "stair": 7807,
      "stacles": 7808,
      "stacks": 7809,
      "letic": 7810,
      "legal": 7811,
      "leigh": 7812,
      "leave": 7813,
      "intronic": 7814,
      "maker": 7815,
      "maisone": 7816,
      "coes": 7817,
      "cold": 7818,
      "coached": 7819,
      "costs": 7820,
      "cott": 7821,
      "coelastic": 7822,
      "cohes": 7823,
      "coexisted": 7824,
      "ush": 7825,
      "ustic": 7826,
      "hear": 7827,
      "heim": 7828,
      "height": 7829,
      "heka": 7830,
      "heavier": 7831,
      "dean": 7832,
      "dees": 7833,
      "detr": 7834,
      "devi": 7835,
      "deposi": 7836,
      "decoupling": 7837,
      "decoherence": 7838,
      "deceased": 7839,
      "mended": 7840,
      "mentioned": 7841,
      "menium": 7842,
      "ura": 7843,
      "urav": 7844,
      "uria": 7845,
      "urban": 7846,
      "ilt": 7847,
      "ilica": 7848,
      "irt": 7849,
      "iring": 7850,
      "irical": 7851,
      "irits": 7852,
      "irational": 7853,
      "irable": 7854,
      "sey": 7855,
      "seat": 7856,
      "seized": 7857,
      "seek": 7858,
      "seesaw": 7859,
      "setlist": 7860,
      "cher": 7861,
      "ched": 7862,
      "chair": 7863,
      "chief": 7864,
      "chdu": 7865,
      "chromatic": 7866,
      "chandrase": 7867,
      "chasers": 7868,
      "umul": 7869,
      "umann": 7870,
      "clues": 7871,
      "clusters": 7872,
      "tering": 7873,
      "terton": 7874,
      "terior": 7875,
      "tertiary": 7876,
      "reser": 7877,
      "restor": 7878,
      "ressed": 7879,
      "reserve": 7880,
      "amid": 7881,
      "ambul": 7882,
      "adin": 7883,
      "aders": 7884,
      "adding": 7885,
      "advis": 7886,
      "admitted": 7887,
      "adminis": 7888,
      "adjoin": 7889,
      "addres": 7890,
      "adictory": 7891,
      "iths": 7892,
      "oll": 7893,
      "olith": 7894,
      "oldes": 7895,
      "pers": 7896,
      "bek": 7897,
      "bet": 7898,
      "bear": 7899,
      "bead": 7900,
      "beta": 7901,
      "bears": 7902,
      "lii": 7903,
      "liou": 7904,
      "lider": 7905,
      "limb": 7906,
      "lized": 7907,
      "lifting": 7908,
      "withdra": 7909,
      "withdraw": 7910,
      "discor": 7911,
      "dischar": 7912,
      "displayed": 7913,
      "disturb": 7914,
      "disappeared": 7915,
      "dismissed": 7916,
      "disease": 7917,
      "ays": 7918,
      "aylor": 7919,
      "eclip": 7920,
      "apis": 7921,
      "appr": 7922,
      "appointed": 7923,
      "aphors": 7924,
      "apunov": 7925,
      "dios": 7926,
      "dijets": 7927,
      "lying": 7928,
      "lymp": 7929,
      "lyapunov": 7930,
      "mpc": 7931,
      "rier": 7932,
      "rimp": 7933,
      "riting": 7934,
      "riem": 7935,
      "riff": 7936,
      "rigor": 7937,
      "rivals": 7938,
      "riesz": 7939,
      "verti": 7940,
      "versely": 7941,
      "vertically": 7942,
      "gev": 7943,
      "geting": 7944,
      "getics": 7945,
      "spell": 7946,
      "spray": 7947,
      "spons": 7948,
      "spots": 7949,
      "spont": 7950,
      "spikes": 7951,
      "sports": 7952,
      "spintronic": 7953,
      "expl": 7954,
      "exha": 7955,
      "extra": 7956,
      "excess": 7957,
      "extre": 7958,
      "exported": 7959,
      "exception": 7960,
      "explo": 7961,
      "exceed": 7962,
      "exactly": 7963,
      "exterior": 7964,
      "hiro": 7965,
      "ghz": 7966,
      "ghting": 7967,
      "utter": 7968,
      "probe": 7969,
      "prove": 7970,
      "procal": 7971,
      "propo": 7972,
      "promo": 7973,
      "promul": 7974,
      "proton": 7975,
      "propri": 7976,
      "promotion": 7977,
      "procession": 7978,
      "proceeded": 7979,
      "promise": 7980,
      "province": 7981,
      "quis": 7982,
      "quities": 7983,
      "queen": 7984,
      "quint": 7985,
      "plings": 7986,
      "plau": 7987,
      "plung": 7988,
      "plots": 7989,
      "soid": 7990,
      "tino": 7991,
      "xmath64": 7992,
      "otto": 7993,
      "abstract": 7994,
      "abled": 7995,
      "absolu": 7996,
      "modular": 7997,
      "modore": 7998,
      "modifi": 7999,
      "loon": 8000,
      "lose": 8001,
      "loving": 8002,
      "sued": 8003,
      "suit": 8004,
      "sustained": 8005,
      "option": 8006,
      "opener": 8007,
      "opposition": 8008,
      "opinion": 8009,
      "nets": 8010,
      "neigh": 8011,
      "nematic": 8012,
      "neumann": 8013,
      "unders": 8014,
      "teous": 8015,
      "teaching": 8016,
      "191": 8017,
      "thermore": 8018,
      "rage": 8019,
      "raments": 8020,
      "raise": 8021,
      "calar": 8022,
      "vie": 8023,
      "vivi": 8024,
      "pose": 8025,
      "poster": 8026,
      "pointers": 8027,
      "mous": 8028,
      "motions": 8029,
      "movie": 8030,
      "unker": 8031,
      "unknow": 8032,
      "airfield": 8033,
      "airport": 8034,
      "gather": 8035,
      "paration": 8036,
      "parate": 8037,
      "party": 8038,
      "parous": 8039,
      "parag": 8040,
      "partly": 8041,
      "parachute": 8042,
      "earned": 8043,
      "ems": 8044,
      "eman": 8045,
      "twop": 8046,
      "fift": 8047,
      "fidu": 8048,
      "fighter": 8049,
      "ombo": 8050,
      "omial": 8051,
      "omnis": 8052,
      "histotrop": 8053,
      "serious": 8054,
      "cidence": 8055,
      "compare": 8056,
      "compass": 8057,
      "compet": 8058,
      "compound": 8059,
      "composer": 8060,
      "complain": 8061,
      "obs": 8062,
      "obtain": 8063,
      "obsc": 8064,
      "obtained": 8065,
      "obtaining": 8066,
      "obstacles": 8067,
      "shay": 8068,
      "share": 8069,
      "shall": 8070,
      "shallow": 8071,
      "shops": 8072,
      "shake": 8073,
      "shaft": 8074,
      "shrimp": 8075,
      "shutter": 8076,
      "upset": 8077,
      "upgra": 8078,
      "uphold": 8079,
      "update": 8080,
      "upama": 8081,
      "combat": 8082,
      "sisted": 8083,
      "wore": 8084,
      "oub": 8085,
      "uctors": 8086,
      "hera": 8087,
      "tended": 8088,
      "answ": 8089,
      "ids": 8090,
      "ided": 8091,
      "idal": 8092,
      "idance": 8093,
      "ionization": 8094,
      "phere": 8095,
      "phonon": 8096,
      "Ind": 8097,
      "Infantry": 8098,
      "servatory": 8099,
      "servants": 8100,
      "sym": 8101,
      "synon": 8102,
      "sympto": 8103,
      "kets": 8104,
      "keeper": 8105,
      "corp": 8106,
      "cores": 8107,
      "coronal": 8108,
      "corrhi": 8109,
      "evil": 8110,
      "evol": 8111,
      "evolved": 8112,
      "desper": 8113,
      "descend": 8114,
      "destitute": 8115,
      "grin": 8116,
      "gradi": 8117,
      "outed": 8118,
      "outbreak": 8119,
      "outfits": 8120,
      "tying": 8121,
      "energies": 8122,
      "energetics": 8123,
      "manga": 8124,
      "manner": 8125,
      "ferring": 8126,
      "spect": 8127,
      "specif": 8128,
      "specified": 8129,
      "mbal": 8130,
      "mbing": 8131,
      "apping": 8132,
      "applies": 8133,
      "bubble": 8134,
      "interplay": 8135,
      "intersec": 8136,
      "interven": 8137,
      "interval": 8138,
      "interrelated": 8139,
      "interests": 8140,
      "interior": 8141,
      "interacted": 8142,
      "intermediate": 8143,
      "achuting": 8144,
      "prey": 8145,
      "preval": 8146,
      "precise": 8147,
      "precision": 8148,
      "preemin": 8149,
      "prefers": 8150,
      "hak": 8151,
      "boats": 8152,
      "fock": 8153,
      "trials": 8154,
      "triangle": 8155,
      "mini": 8156,
      "mint": 8157,
      "mines": 8158,
      "mination": 8159,
      "minus": 8160,
      "minted": 8161,
      "minute": 8162,
      "minima": 8163,
      "press": 8164,
      "preshe": 8165,
      "pressur": 8166,
      "presided": 8167,
      "estones": 8168,
      "analysed": 8169,
      "analyzing": 8170,
      "morels": 8171,
      "morality": 8172,
      "noire": 8173,
      "ariate": 8174,
      "aset": 8175,
      "assed": 8176,
      "assessed": 8177,
      "oversi": 8178,
      "overtime": 8179,
      "overarch": 8180,
      "oversaw": 8181,
      "groin": 8182,
      "feigen": 8183,
      "feyn": 8184,
      "180": 8185,
      "1800": 8186,
      "1821": 8187,
      "1805": 8188,
      "1853": 8189,
      "1879": 8190,
      "imals": 8191,
      "Chinese": 8192,
      "bute": 8193,
      "ella": 8194,
      "charm": 8195,
      "chartrain": 8196,
      "charitable": 8197,
      "torque": 8198,
      "regression": 8199,
      "regolith": 8200,
      "203": 8201,
      "multiv": 8202,
      "endly": 8203,
      "agb": 8204,
      "agi": 8205,
      "agents": 8206,
      "firm": 8207,
      "fires": 8208,
      "firing": 8209,
      "hotra": 8210,
      "hospital": 8211,
      "sec1": 8212,
      "sec2": 8213,
      "sec3": 8214,
      "sec4": 8215,
      "secure": 8216,
      "security": 8217,
      "tural": 8218,
      "turing": 8219,
      "Arts": 8220,
      "Argen": 8221,
      "Arjun": 8222,
      "Archdu": 8223,
      "functor": 8224,
      "cler": 8225,
      "cloning": 8226,
      "xmath120": 8227,
      "xmath164": 8228,
      "xmath128": 8229,
      "dedication": 8230,
      "dedicated": 8231,
      "osts": 8232,
      "impul": 8233,
      "implod": 8234,
      "ishment": 8235,
      "relatives": 8236,
      "etc": 8237,
      "ette": 8238,
      "etta": 8239,
      "Heath": 8240,
      "Hejda": 8241,
      "sons": 8242,
      "dataset": 8243,
      "olutions": 8244,
      "mons": 8245,
      "monad": 8246,
      "monodrom": 8247,
      "akov": 8248,
      "offset": 8249,
      "offensive": 8250,
      "pleas": 8251,
      "plets": 8252,
      "pleased": 8253,
      "plemental": 8254,
      "Three": 8255,
      "Threat": 8256,
      "Thousand": 8257,
      "angles": 8258,
      "toned": 8259,
      "genera": 8260,
      "generate": 8261,
      "generated": 8262,
      "generating": 8263,
      "ieve": 8264,
      "ieee": 8265,
      "ieux": 8266,
      "iekf": 8267,
      "smc": 8268,
      "effected": 8269,
      "illand": 8270,
      "illae": 8271,
      "newer": 8272,
      "newtonian": 8273,
      "sometime": 8274,
      "bron": 8275,
      "brated": 8276,
      "brackets": 8277,
      "linking": 8278,
      "links": 8279,
      "muda": 8280,
      "mustered": 8281,
      "condens": 8282,
      "starter": 8283,
      "starring": 8284,
      "curve": 8285,
      "curved": 8286,
      "presented": 8287,
      "culmin": 8288,
      "culture": 8289,
      "portray": 8290,
      "augh": 8291,
      "audition": 8292,
      "autom": 8293,
      "augment": 8294,
      "audible": 8295,
      "afterward": 8296,
      "afterlife": 8297,
      "afternoon": 8298,
      "lacks": 8299,
      "Road": 8300,
      "Rookie": 8301,
      "backed": 8302,
      "cannon": 8303,
      "canopy": 8304,
      "gaming": 8305,
      "save": 8306,
      "tempo": 8307,
      "Anton": 8308,
      "Ancient": 8309,
      "Anupama": 8310,
      "Animals": 8311,
      "carri": 8312,
      "rendition": 8313,
      "renov": 8314,
      "renumber": 8315,
      "contradictory": 8316,
      "guess": 8317,
      "guard": 8318,
      "guidance": 8319,
      "mile": 8320,
      "mitive": 8321,
      "nonperturbative": 8322,
      "noncommutative": 8323,
      "weight": 8324,
      "weyl": 8325,
      "website": 8326,
      "cloth": 8327,
      "clothes": 8328,
      "markov": 8329,
      "markovi": 8330,
      "surance": 8331,
      "surprise": 8332,
      "vedere": 8333,
      "instant": 8334,
      "instabilities": 8335,
      "installed": 8336,
      "annular": 8337,
      "owners": 8338,
      "diffr": 8339,
      "xmath04": 8340,
      "xmath0h": 8341,
      "xmath0parameter": 8342,
      "xmath0lie": 8343,
      "densities": 8344,
      "goes": 8345,
      "gospel": 8346,
      "milk": 8347,
      "scant": 8348,
      "scratch": 8349,
      "settled": 8350,
      "sette": 8351,
      "spacetimes": 8352,
      "fourier": 8353,
      "fourteen": 8354,
      "pries": 8355,
      "privile": 8356,
      "primitive": 8357,
      "depot": 8358,
      "depending": 8359,
      "depictions": 8360,
      "divis": 8361,
      "understand": 8362,
      "underlying": 8363,
      "axino": 8364,
      "axisy": 8365,
      "approval": 8366,
      "approxima": 8367,
      "dying": 8368,
      "simulating": 8369,
      "rayet": 8370,
      "rayleigh": 8371,
      "trances": 8372,
      "Valerie": 8373,
      "generalities": 8374,
      "generalization": 8375,
      "hyses": 8376,
      "hymns": 8377,
      "hymenium": 8378,
      "myself": 8379,
      "mycorrhi": 8380,
      "merger": 8381,
      "orderly": 8382,
      "ritory": 8383,
      "ritually": 8384,
      "expense": 8385,
      "expensive": 8386,
      "subproblem": 8387,
      "substrate": 8388,
      "submanifolds": 8389,
      "grounds": 8390,
      "ideograms": 8391,
      "structural": 8392,
      "orials": 8393,
      "oriented": 8394,
      "translocation": 8395,
      "transcend": 8396,
      "translated": 8397,
      "152": 8398,
      "1550": 8399,
      "1580": 8400,
      "1582": 8401,
      "polic": 8402,
      "examination": 8403,
      "belonged": 8404,
      "believe": 8405,
      "ranks": 8406,
      "partner": 8407,
      "viewing": 8408,
      "recruit": 8409,
      "representatives": 8410,
      "describes": 8411,
      "descriptions": 8412,
      "gennes": 8413,
      "genuinely": 8414,
      "venge": 8415,
      "ventral": 8416,
      "ceptions": 8417,
      "1994": 8418,
      "1996": 8419,
      "Jackson": 8420,
      "medley": 8421,
      "giant": 8422,
      "solve": 8423,
      "solved": 8424,
      "continent": 8425,
      "origins": 8426,
      "door": 8427,
      "planets": 8428,
      "kingship": 8429,
      "relief": 8430,
      "Columbian": 8431,
      "Altern": 8432,
      "Aladin": 8433,
      "certified": 8434,
      "goldstone": 8435,
      "ordstrm": 8436,
      "calculated": 8437,
      "calculating": 8438,
      "Read": 8439,
      "Reform": 8440,
      "Region": 8441,
      "domes": 8442,
      "laid": 8443,
      "landed": 8444,
      "landau": 8445,
      "mmetric": 8446,
      "piloth": 8447,
      "developing": 8448,
      "secondary": 8449,
      "performing": 8450,
      "greens": 8451,
      "requested": 8452,
      "requires": 8453,
      "superv": 8454,
      "superscaling": 8455,
      "superhed": 8456,
      "supergiants": 8457,
      "completion": 8458,
      "completing": 8459,
      "Austrian": 8460,
      "connects": 8461,
      "colors": 8462,
      "respect": 8463,
      "xmath30": 8464,
      "xmath33": 8465,
      "xmath38": 8466,
      "xmath300": 8467,
      "xmath372": 8468,
      "normally": 8469,
      "northeast": 8470,
      "remains": 8471,
      "rounding": 8472,
      "standout": 8473,
      "xmath22": 8474,
      "xmath24": 8475,
      "xmath274": 8476,
      "differences": 8477,
      "bias": 8478,
      "biology": 8479,
      "bitrad": 8480,
      "biases": 8481,
      "bijections": 8482,
      "involutions": 8483,
      "graphics": 8484,
      "12th": 8485,
      "caustic": 8486,
      "follows": 8487,
      "session": 8488,
      "wait": 8489,
      "waite": 8490,
      "waiting": 8491,
      "centers": 8492,
      "helping": 8493,
      "nuclei": 8494,
      "nucleosynthesis": 8495,
      "humanity": 8496,
      "ogle": 8497,
      "ogue": 8498,
      "institu": 8499,
      "instinc": 8500,
      "topic": 8501,
      "topher": 8502,
      "town": 8503,
      "towers": 8504,
      "persons": 8505,
      "personally": 8506,
      "1927": 8507,
      "1928": 8508,
      "continuation": 8509,
      "continuity": 8510,
      "139": 8511,
      "lisation": 8512,
      "listen": 8513,
      "listening": 8514,
      "severe": 8515,
      "applicability": 8516,
      "dae": 8517,
      "factorials": 8518,
      "halos": 8519,
      "paid": 8520,
      "pauli": 8521,
      "schol": 8522,
      "placement": 8523,
      "1984": 8524,
      "1980s": 8525,
      "Begin": 8526,
      "Before": 8527,
      "Behind": 8528,
      "Seik": 8529,
      "Sekh": 8530,
      "Seasons": 8531,
      "etymologies": 8532,
      "extensions": 8533,
      "parametrization": 8534,
      "periodically": 8535,
      "Conference": 8536,
      "Conservation": 8537,
      "Connell": 8538,
      "Conversely": 8539,
      "delicate": 8540,
      "empirical": 8541,
      "shield": 8542,
      "tug": 8543,
      "defined": 8544,
      "defines": 8545,
      "xmath42": 8546,
      "xmath47": 8547,
      "xmath48": 8548,
      "xmath49": 8549,
      "producer": 8550,
      "Leone": 8551,
      "Leading": 8552,
      "burst": 8553,
      "burning": 8554,
      "brig": 8555,
      "lattices": 8556,
      "receive": 8557,
      "bounded": 8558,
      "boundaries": 8559,
      "170": 8560,
      "172": 8561,
      "cmd": 8562,
      "crushed": 8563,
      "capac": 8564,
      "captain": 8565,
      "capture": 8566,
      "donated": 8567,
      "scorer": 8568,
      "collection": 8569,
      "collections": 8570,
      "Atlantic": 8571,
      "Ontario": 8572,
      "bond": 8573,
      "bony": 8574,
      "bonfire": 8575,
      "tropical": 8576,
      "reviewer": 8577,
      "consideration": 8578,
      "lifetimes": 8579,
      "keyboards": 8580,
      "growing": 8581,
      "approaches": 8582,
      "mythological": 8583,
      "Airport": 8584,
      "Airports": 8585,
      "Counc": 8586,
      "County": 8587,
      "films": 8588,
      "gerator": 8589,
      "nerable": 8590,
      "influencing": 8591,
      "trained": 8592,
      "ashes": 8593,
      "readily": 8594,
      "approximate": 8595,
      "responded": 8596,
      "electron": 8597,
      "508": 8598,
      "Adminis": 8599,
      "Crowe": 8600,
      "Crooked": 8601,
      "banded": 8602,
      "tillery": 8603,
      "increases": 8604,
      "anchor": 8605,
      "Christopher": 8606,
      "AllMusic": 8607,
      "Debut": 8608,
      "mistaken": 8609,
      "utrino": 8610,
      "1944": 8611,
      "1946": 8612,
      "posthumously": 8613,
      "classic": 8614,
      "clas12": 8615,
      "conductivity": 8616,
      "polynom": 8617,
      "polyakov": 8618,
      "testing": 8619,
      "istus": 8620,
      "successor": 8621,
      "successors": 8622,
      "Forces": 8623,
      "initiative": 8624,
      "movements": 8625,
      "pointment": 8626,
      "Commit": 8627,
      "Commodore": 8628,
      "baum": 8629,
      "baij": 8630,
      "flavor": 8631,
      "flaps": 8632,
      "govern": 8633,
      "governing": 8634,
      "governance": 8635,
      "talent": 8636,
      "heads": 8637,
      "headquarters": 8638,
      "quadr": 8639,
      "quadratic": 8640,
      "1934": 8641,
      "1938": 8642,
      "synthesi": 8643,
      "predynastic": 8644,
      "authorizing": 8645,
      "240": 8646,
      "247": 8647,
      "Northern": 8648,
      "Norbury": 8649,
      "blockading": 8650,
      "blockaders": 8651,
      "handled": 8652,
      "handicapped": 8653,
      "sampling": 8654,
      "visits": 8655,
      "viscoelastic": 8656,
      "xmath54": 8657,
      "profound": 8658,
      "profile": 8659,
      "evaluating": 8660,
      "coloration": 8661,
      "formulae": 8662,
      "Penalty": 8663,
      "Pennsy": 8664,
      "Penarth": 8665,
      "brain": 8666,
      "floors": 8667,
      "marble": 8668,
      "married": 8669,
      "market": 8670,
      "voiced": 8671,
      "integration": 8672,
      "integrated": 8673,
      "aspirational": 8674,
      "rewriting": 8675,
      "speech": 8676,
      "spiral": 8677,
      "spirit": 8678,
      "exclusion": 8679,
      "exclude": 8680,
      "excludes": 8681,
      "protest": 8682,
      "protected": 8683,
      "civilization": 8684,
      "identity": 8685,
      "Italians": 8686,
      "surfaced": 8687,
      "14th": 8688,
      "1650": 8689,
      "Hermes": 8690,
      "Senator": 8691,
      "Senigalli": 8692,
      "drama": 8693,
      "pantheistic": 8694,
      "sixty": 8695,
      "sixteen": 8696,
      "simply": 8697,
      "simplified": 8698,
      "rows": 8699,
      "copically": 8700,
      "coincidence": 8701,
      "express": 8702,
      "expressing": 8703,
      "xmath79": 8704,
      "regulate": 8705,
      "regulating": 8706,
      "regulator": 8707,
      "commoners": 8708,
      "criticality": 8709,
      "filmmaker": 8710,
      "circle": 8711,
      "circuit": 8712,
      "algorithms": 8713,
      "Europan": 8714,
      "Sujoy": 8715,
      "barely": 8716,
      "barrier": 8717,
      "nament": 8718,
      "runner": 8719,
      "victories": 8720,
      "wants": 8721,
      "wanting": 8722,
      "focusing": 8723,
      "critically": 8724,
      "criticism": 8725,
      "studied": 8726,
      "Calendar": 8727,
      "Design": 8728,
      "Deshmu": 8729,
      "Edward": 8730,
      "Edfu": 8731,
      "Peale": 8732,
      "Permit": 8733,
      "Sobek": 8734,
      "machine": 8735,
      "skydiving": 8736,
      "wald": 8737,
      "onductors": 8738,
      "constitu": 8739,
      "maximal": 8740,
      "couplings": 8741,
      "deaths": 8742,
      "logic": 8743,
      "logarith": 8744,
      "suggests": 8745,
      "suggesting": 8746,
      "emerge": 8747,
      "emergence": 8748,
      "regularization": 8749,
      "waveforms": 8750,
      "attacking": 8751,
      "USN": 8752,
      "doubly": 8753,
      "fuel": 8754,
      "fusion": 8755,
      "futile": 8756,
      "fragments": 8757,
      "fragmentation": 8758,
      "kinematic": 8759,
      "paint": 8760,
      "vanished": 8761,
      "animation": 8762,
      "organized": 8763,
      "organization": 8764,
      "organised": 8765,
      "organisations": 8766,
      "accumul": 8767,
      "metaphors": 8768,
      "separated": 8769,
      "optimizes": 8770,
      "posted": 8771,
      "significance": 8772,
      "determined": 8773,
      "Acting": 8774,
      "Books": 8775,
      "Except": 8776,
      "Playing": 8777,
      "Serbia": 8778,
      "Services": 8779,
      "Serapis": 8780,
      "bsg": 8781,
      "check": 8782,
      "eqs": 8783,
      "feminine": 8784,
      "lhs": 8785,
      "niques": 8786,
      "penal": 8787,
      "think": 8788,
      "invariance": 8789,
      "acquire": 8790,
      "leader": 8791,
      "propelled": 8792,
      "qualification": 8793,
      "qualifying": 8794,
      "photograph": 8795,
      "photoassociation": 8796,
      "indicating": 8797,
      "indicator": 8798,
      "Confederacy": 8799,
      "graviton": 8800,
      "Colton": 8801,
      "Colorad": 8802,
      "College": 8803,
      "Colombo": 8804,
      "McElh": 8805,
      "McConnell": 8806,
      "Piper": 8807,
      "Paris": 8808,
      "Party": 8809,
      "Parable": 8810,
      "Parachute": 8811,
      "drove": 8812,
      "droplets": 8813,
      "farther": 8814,
      "facts": 8815,
      "hartree": 8816,
      "kinson": 8817,
      "midst": 8818,
      "picked": 8819,
      "waterline": 8820,
      "intention": 8821,
      "intense": 8822,
      "accordingly": 8823,
      "fortun": 8824,
      "fortune": 8825,
      "courses": 8826,
      "searching": 8827,
      "getting": 8828,
      "thermalisation": 8829,
      "1840": 8830,
      "1844": 8831,
      "fruitbody": 8832,
      "hierarchy": 8833,
      "hierarchies": 8834,
      "symbolized": 8835,
      "symbolize": 8836,
      "Neith": 8837,
      "Network": 8838,
      "affect": 8839,
      "affects": 8840,
      "affili": 8841,
      "besides": 8842,
      "borrow": 8843,
      "borromean": 8844,
      "frequently": 8845,
      "motu": 8846,
      "motor": 8847,
      "wingspan": 8848,
      "tization": 8849,
      "argues": 8850,
      "arguments": 8851,
      "assemble": 8852,
      "legend": 8853,
      "seventh": 8854,
      "dispersive": 8855,
      "spherically": 8856,
      "xmath81": 8857,
      "xmath84": 8858,
      "1960": 8859,
      "1961": 8860,
      "1968": 8861,
      "1960s": 8862,
      "emissions": 8863,
      "avalry": 8864,
      "photons": 8865,
      "pharaonic": 8866,
      "specialist": 8867,
      "currently": 8868,
      "counterexample": 8869,
      "delays": 8870,
      "Meanwhile": 8871,
      "bottle": 8872,
      "knock": 8873,
      "sacs": 8874,
      "susy": 8875,
      "widely": 8876,
      "thrash": 8877,
      "incident": 8878,
      "isospin": 8879,
      "isotopic": 8880,
      "repairs": 8881,
      "concaten": 8882,
      "coalition": 8883,
      "resonant": 8884,
      "resonances": 8885,
      "xmath63": 8886,
      "xmath69": 8887,
      "techniques": 8888,
      "1955": 8889,
      "1970": 8890,
      "1972": 8891,
      "1970s": 8892,
      "gradually": 8893,
      "1891": 8894,
      "1894": 8895,
      "1895": 8896,
      "crews": 8897,
      "claiming": 8898,
      "scene": 8899,
      "everyone": 8900,
      "everyday": 8901,
      "everybody": 8902,
      "ordinary": 8903,
      "George": 8904,
      "802": 8905,
      "Franz": 8906,
      "Licensing": 8907,
      "Spec": 8908,
      "Spirits": 8909,
      "Simmons": 8910,
      "category": 8911,
      "eigenstates": 8912,
      "eigenvalues": 8913,
      "pulses": 8914,
      "pseudos": 8915,
      "ukone": 8916,
      "attention": 8917,
      "attendees": 8918,
      "reenacted": 8919,
      "advoc": 8920,
      "advice": 8921,
      "advanta": 8922,
      "nova": 8923,
      "efficiency": 8924,
      "guitars": 8925,
      "surveys": 8926,
      "participate": 8927,
      "hypergeometric": 8928,
      "expanding": 8929,
      "genetic": 8930,
      "Reigning": 8931,
      "asymmetries": 8932,
      "asymptotics": 8933,
      "propagator": 8934,
      "Vaticana": 8935,
      "2686": 8936,
      "Barrage": 8937,
      "Gregory": 8938,
      "Hana": 8939,
      "Shu": 8940,
      "afm": 8941,
      "afford": 8942,
      "fano": 8943,
      "labels": 8944,
      "phism": 8945,
      "wheel": 8946,
      "tificate": 8947,
      "engined": 8948,
      "travels": 8949,
      "traveling": 8950,
      "conventions": 8951,
      "styles": 8952,
      "stalk": 8953,
      "stalked": 8954,
      "adaptation": 8955,
      "adaptations": 8956,
      "distant": 8957,
      "projects": 8958,
      "projected": 8959,
      "quartic": 8960,
      "quantities": 8961,
      "loaded": 8962,
      "1908": 8963,
      "preparing": 8964,
      "bosons": 8965,
      "equipped": 8966,
      "xmath173": 8967,
      "xmath177": 8968,
      "relativity": 8969,
      "monotheism": 8970,
      "monochromatic": 8971,
      "temporarily": 8972,
      "broadly": 8973,
      "employed": 8974,
      "employe": 8975,
      "manifestation": 8976,
      "Andrews": 8977,
      "District": 8978,
      "Flyers": 8979,
      "Guard": 8980,
      "Hai": 8981,
      "Haus": 8982,
      "Progress": 8983,
      "System": 8984,
      "Scotland": 8985,
      "Surrey": 8986,
      "Shawn": 8987,
      "Tries": 8988,
      "Tribulation": 8989,
      "Tribute": 8990,
      "Walter": 8991,
      "blg": 8992,
      "baryons": 8993,
      "cpbs": 8994,
      "drive": 8995,
      "falcons": 8996,
      "fairy": 8997,
      "holding": 8998,
      "messages": 8999,
      "messenger": 9000,
      "powder": 9001,
      "targets": 9002,
      "targeting": 9003,
      "willing": 9004,
      "inka": 9005,
      "astronomical": 9006,
      "refuse": 9007,
      "repeating": 9008,
      "repetition": 9009,
      "repetitive": 9010,
      "ellipsoid": 9011,
      "itude": 9012,
      "steps": 9013,
      "learn": 9014,
      "coefficient": 9015,
      "devout": 9016,
      "probability": 9017,
      "prospect": 9018,
      "granular": 9019,
      "granules": 9020,
      "manufactur": 9021,
      "boxes": 9022,
      "equivalent": 9023,
      "xmath144": 9024,
      "oscillations": 9025,
      "oscillators": 9026,
      "denominations": 9027,
      "literal": 9028,
      "pieces": 9029,
      "recognized": 9030,
      "categorised": 9031,
      "Akshay": 9032,
      "Film": 9033,
      "Filatov": 9034,
      "Germain": 9035,
      "Holid": 9036,
      "Hollywood": 9037,
      "Losses": 9038,
      "Manager": 9039,
      "Masterton": 9040,
      "Places": 9041,
      "Photo": 9042,
      "Steele": 9043,
      "Trees": 9044,
      "azio": 9045,
      "blur": 9046,
      "ctuaries": 9047,
      "eastern": 9048,
      "folded": 9049,
      "hedonic": 9050,
      "hopes": 9051,
      "junctions": 9052,
      "passivity": 9053,
      "pastels": 9054,
      "stood": 9055,
      "tunnel": 9056,
      "tunneling": 9057,
      "uterine": 9058,
      "zero": 9059,
      "titude": 9060,
      "accounts": 9061,
      "uncles": 9062,
      "deployed": 9063,
      "sexes": 9064,
      "semiconductors": 9065,
      "disrupted": 9066,
      "excited": 9067,
      "progressive": 9068,
      "progresses": 9069,
      "questions": 9070,
      "questioned": 9071,
      "looking": 9072,
      "negatively": 9073,
      "poorly": 9074,
      "mounts": 9075,
      "omorphic": 9076,
      "omorphisms": 9077,
      "sharing": 9078,
      "commenced": 9079,
      "principal": 9080,
      "morphic": 9081,
      "morphology": 9082,
      "funeral": 9083,
      "occurs": 9084,
      "supplemental": 9085,
      "solitons": 9086,
      "schedule": 9087,
      "shifting": 9088,
      "struggled": 9089,
      "struggling": 9090,
      "steerability": 9091,
      "steady": 9092,
      "glasses": 9093,
      "beneficial": 9094,
      "Islands": 9095,
      "Islanders": 9096,
      "birthplace": 9097,
      "flintlocks": 9098,
      "thresholds": 9099,
      "France": 9100,
      "Henri": 9101,
      "Joe": 9102,
      "Morrill": 9103,
      "Nubian": 9104,
      "Stories": 9105,
      "aids": 9106,
      "duality": 9107,
      "hatnet": 9108,
      "hubble": 9109,
      "lamin": 9110,
      "packed": 9111,
      "packing": 9112,
      "sanctuaries": 9113,
      "inspiring": 9114,
      "inspiration": 9115,
      "anthrop": 9116,
      "alternative": 9117,
      "accustomed": 9118,
      "activate": 9119,
      "activated": 9120,
      "activism": 9121,
      "tours": 9122,
      "rolls": 9123,
      "ultimate": 9124,
      "meteoric": 9125,
      "coordination": 9126,
      "choos": 9127,
      "chapels": 9128,
      "promoted": 9129,
      "sought": 9130,
      "abundances": 9131,
      "compression": 9132,
      "shorter": 9133,
      "shortly": 9134,
      "prayer": 9135,
      "prayers": 9136,
      "ferromagnetic": 9137,
      "preserved": 9138,
      "preservation": 9139,
      "agreement": 9140,
      "traitor": 9141,
      "weighted": 9142,
      "transitions": 9143,
      "requirement": 9144,
      "supernovae": 9145,
      "populations": 9146,
      "consistently": 9147,
      "circulation": 9148,
      "circulate": 9149,
      "circulated": 9150,
      "microscopically": 9151,
      "joining": 9152,
      "predecessor": 9153,
      "establishment": 9154,
      "Character": 9155,
      "Aerodromes": 9156,
      "legisl": 9157,
      "Montenegrin": 9158,
      "bifurcations": 9159,
      "diagnostics": 9160,
      "amplitude": 9161,
      "Aleuria": 9162,
      "Balloon": 9163,
      "Critic": 9164,
      "Critical": 9165,
      "Denza": 9166,
      "Group": 9167,
      "Gardens": 9168,
      "Malini": 9169,
      "Malhotra": 9170,
      "Sundial": 9171,
      "Track": 9172,
      "batteries": 9173,
      "cattle": 9174,
      "hotep": 9175,
      "macro": 9176,
      "macroscopic": 9177,
      "plus": 9178,
      "plurality": 9179,
      "ranging": 9180,
      "switch": 9181,
      "satellites": 9182,
      "stopped": 9183,
      "stopping": 9184,
      "tells": 9185,
      "telling": 9186,
      "enemies": 9187,
      "artistic": 9188,
      "actresses": 9189,
      "revered": 9190,
      "reversible": 9191,
      "elevation": 9192,
      "elevated": 9193,
      "memorial": 9194,
      "colour": 9195,
      "covariance": 9196,
      "seeing": 9197,
      "seemed": 9198,
      "seemingly": 9199,
      "disappointed": 9200,
      "disappointment": 9201,
      "possess": 9202,
      "keeping": 9203,
      "corresponding": 9204,
      "intersections": 9205,
      "financed": 9206,
      "suppression": 9207,
      "suppressed": 9208,
      "spectroscopy": 9209,
      "Raja": 9210,
      "turbulent": 9211,
      "filtering": 9212,
      "Additional": 9213,
      "classified": 9214,
      "classification": 9215,
      "braids": 9216,
      "braiding": 9217,
      "Canada": 9218,
      "circumstellar": 9219,
      "festivals": 9220,
      "pulsations": 9221,
      "pulsars": 9222,
      "labeled": 9223,
      "traveled": 9224,
      "rapidly": 9225,
      "rapidity": 9226,
      "Raphaelites": 9227,
      "Boy": 9228,
      "Bermuda": 9229,
      "Belvedere": 9230,
      "Certain": 9231,
      "Certificate": 9232,
      "Develop": 9233,
      "Ghosh": 9234,
      "Ghosts": 9235,
      "Hitoshi": 9236,
      "Humans": 9237,
      "Navi": 9238,
      "Points": 9239,
      "Research": 9240,
      "Rifles": 9241,
      "Supporting": 9242,
      "Supplemental": 9243,
      "Tarrant": 9244,
      "Takeshi": 9245,
      "Upon": 9246,
      "badly": 9247,
      "bayesian": 9248,
      "climbing": 9249,
      "dhda": 9250,
      "fatal": 9251,
      "fresh": 9252,
      "frescoes": 9253,
      "gmcs": 9254,
      "judged": 9255,
      "judgment": 9256,
      "lady": 9257,
      "ladder": 9258,
      "musket": 9259,
      "muskets": 9260,
      "papillae": 9261,
      "sbf": 9262,
      "veneration": 9263,
      "venerated": 9264,
      "infrastruc": 9265,
      "inhabited": 9266,
      "estyle": 9267,
      "enjoyed": 9268,
      "aligned": 9269,
[...]
