{
  "version": "1.0",
  "truncation": null,
  "padding": null,
  "added_tokens": [
    {
      "id": 0,
      "content": "[PAD]",
      "single_word": false,
      "lstrip": false,
      "rstrip": false,
      "normalized": false,
      "special": true
    },
    {
      "id": 1,
      "content": "[EOS]",
      "single_word": false,
      "lstrip": false,
      "rstrip": false,
      "normalized": false,
      "special": true
    },
    {
      "id": 2,
      "content": "[SEP]",
      "single_word": false,
      "lstrip": false,
      "rstrip": false,
      "normalized": false,
      "special": true
    }
  ],
  "normalizer": null,
  "pre_tokenizer": {
    "type": "Whitespace"
  },
  "post_processor": null,
  "decoder": null,
  "model": {
    "type": "BPE",
    "dropout": null,
    "unk_token": null,
    "continuing_subword_prefix": null,
    "end_of_word_suffix": null,
    "fuse_unk": false,
    "byte_fallback": false,
    "ignore_merges": false,
    "vocab": {
      "[PAD]": 0,
      "[EOS]": 1,
      "[SEP]": 2,
      "!": 3,
      "\"": 4,
      "#": 5,
      "$": 6,
      "%": 7,
      "&": 8,
      "'": 9,
      "(": 10,
      ")": 11,
      "*": 12,
      "+": 13,
      ",": 14,
      "-": 15,
      ".": 16,
      "/": 17,
      "0": 18,
      "1": 19,
      "2": 20,
      "3": 21,
      "4": 22,
      "5": 23,
      "6": 24,
      "7": 25,
      "8": 26,
      "9": 27,
      ":": 28,
      ";": 29,
      "<": 30,
      "=": 31,
      ">": 32,
      "?": 33,
      "@": 34,
      "A": 35,
      "B": 36,
      "C": 37,
      "D": 38,
      "E": 39,
      "F": 40,
      "G": 41,
      "H": 42,
      "I": 43,
      "J": 44,
      "K": 45,
      "L": 46,
      "M": 47,
      "N": 48,
      "O": 49,
      "P": 50,
      "Q": 51,
      "R": 52,
      "S": 53,
      "T": 54,
      "U": 55,
      "V": 56,
      "W": 57,
      "X": 58,
      "Y": 59,
      "Z": 60,
      "[": 61,
      "\\": 62,
      "]": 63,
      "^": 64,
      "_": 65,
      "`": 66,
      "a": 67,
      "b": 68,
      "c": 69,
      "d": 70,
      "e": 71,
      "f": 72,
      "g": 73,
      "h": 74,
      "i": 75,
      "j": 76,
      "k": 77,
      "l": 78,
      "m": 79,
      "n": 80,
      "o": 81,
      "p": 82,
      "q": 83,
      "r": 84,
      "s": 85,
      "t": 86,
      "u": 87,
      "v": 88,
      "w": 89,
      "x": 90,
      "y": 91,
      "z": 92,
      "{": 93,
      "|": 94,
      "}": 95,
      "~": 96,
      "£": 97,
      "°": 98,
      "²": 99,
      "´": 100,
      "µ": 101,
      "Æ": 102,
      "É": 103,
      "Ö": 104,
      "×": 105,
      "Ü": 106,
      "ß": 107,
      "á": 108,
      "ã": 109,
      "ä": 110,
      "ç": 111,
      "è": 112,
      "é": 113,
      "í": 114,
      "ñ": 115,
      "ó": 116,
      "ô": 117,
      "ö": 118,
      "ü": 119,
      "ā": 120,
      "ą": 121,
      "ć": 122,
      "č": 123,
      "đ": 124,
      "Ł": 125,
      "ł": 126,
      "ń": 127,
      "ō": 128,
      "ś": 129,
      "Š": 130,
      "š": 131,
      "ź": 132,
      "Ż": 133,
      "ż": 134,
      "α": 135,
      "β": 136,
      "δ": 137,
      "μ": 138,
      "К": 139,
      "а": 140,
      "й": 141,
      "н": 142,
      "р": 143,
      "с": 144,
      "ы": 145,
      "ก": 146,
      "ง": 147,
      "ณ": 148,
      "ต": 149,
      "ม": 150,
      "ย": 151,
      "ร": 152,
      "ล": 153,
      "ว": 154,
      "ั": 155,
      "า": 156,
      "ิ": 157,
      "็": 158,
      "่": 159,
      "้": 160,
      "์": 161,
      "ṯ": 162,
      "ạ": 163,
      "–": 164,
      "—": 165,
      "‘": 166,
      "’": 167,
      "“": 168,
      "”": 169,
      "†": 170,
      "‡": 171,
      "…": 172,
      "⁄": 173,
      "₤": 174,
      "₹": 175,
      "→": 176,
      "−": 177,
      "の": 178,
      "ァ": 179,
      "ア": 180,
      "キ": 181,
      "ュ": 182,
      "リ": 183,
      "ル": 184,
      "ヴ": 185,
      "場": 186,
      "戦": 187,
      "th": 188,
      "the": 189,
      "in": 190,
      "ma": 191,
      "on": 192,
      "re": 193,
      "ti": 194,
      "math": 195,
      "an": 196,
      "xmath": 197,
      "er": 198,
      "en": 199,
      "al": 200,
      "or": 201,
      "is": 202,
      "of": 203,
      "te": 204,
      "tion": 205,
      "ar": 206,
      "es": 207,
      "and": 208,
      "as": 209,
      "at": 210,
      "le": 211,
      "to": 212,
      "ing": 213,
      "ro": 214,
      "ed": 215,
      "si": 216,
      "st": 217,
      "xmath1": 218,
      "ic": 219,
      "se": 220,
      "ac": 221,
      "de": 222,
      "it": 223,
      "for": 224,
      "ou": 225,
      "we": 226,
      "ation": 227,
      "ve": 228,
      "be": 229,
      "me": 230,
      "ly": 231,
      "tr": 232,
      "su": 233,
      "ent": 234,
      "co": 235,
      "con": 236,
      "ig": 237,
      "wi": 238,
      "lo": 239,
      "mp": 240,
      "ch": 241,
      "ate": 242,
      "ter": 243,
      "di": 244,
      "mo": 245,
      "wh": 246,
      "xmath2": 247,
      "that": 248,
      "ci": 249,
      "ce": 250,
      "un": 251,
      "with": 252,
      "sp": 253,
      "pro": 254,
      "qu": 255,
      "are": 256,
      "ex": 257,
      "ul": 258,
      "ol": 259,
      "no": 260,
      "ra": 261,
      "ver": 262,
      "ec": 263,
      "by": 264,
      "tic": 265,
      "ll": 266,
      "ab": 267,
      "po": 268,
      "per": 269,
      "ge": 270,
      "um": 271,
      "ho": 272,
      "us": 273,
      "ere": 274,
      "res": 275,
      "xmath3": 276,
      "ta": 277,
      "this": 278,
      "ts": 279,
      "cite": 280,
      "xcite": 281,
      "ne": 282,
      "ha": 283,
      "ur": 284,
      "ction": 285,
      "fi": 286,
      "par": 287,
      "ted": 288,
      "li": 289,
      "ff": 290,
      "cal": 291,
      "so": 292,
      "ph": 293,
      "ure": 294,
      "der": 295,
      "ap": 296,
      "rom": 297,
      "igh": 298,
      "from": 299,
      "xmath4": 300,
      "dis": 301,
      "{\\": 302,
      "ity": 303,
      "ment": 304,
      "ri": 305,
      "ys": 306,
      "ld": 307,
      "ad": 308,
      "comp": 309,
      "du": 310,
      "low": 311,
      "00": 312,
      "la": 313,
      "ct": 314,
      "fig": 315,
      "ich": 316,
      "gi": 317,
      "can": 318,
      "ob": 319,
      "vi": 320,
      "ations": 321,
      "xmath5": 322,
      "fin": 323,
      "den": 324,
      "il": 325,
      "which": 326,
      "ty": 327,
      "lu": 328,
      "tive": 329,
      "sion": 330,
      "ener": 331,
      "str": 332,
      "ther": 333,
      "if": 334,
      "xmath6": 335,
      "bu": 336,
      "our": 337,
      "ant": 338,
      "val": 339,
      "tri": 340,
      "ated": 341,
      "oun": 342,
      "xmath7": 343,
      "pres": 344,
      "lin": 345,
      "one": 346,
      "he": 347,
      "cor": 348,
      "ase": 349,
      "do": 350,
      "not": 351,
      "ir": 352,
      "am": 353,
      "ame": 354,
      "19": 355,
      "del": 356,
      "have": 357,
      "ss": 358,
      "tw": 359,
      "}}": 360,
      "end": 361,
      "pl": 362,
      "xmath8": 363,
      "ally": 364,
      "where": 365,
      "ight": 366,
      "act": 367,
      "sho": 368,
      "ess": 369,
      "ari": 370,
      "tions": 371,
      "des": 372,
      "all": 373,
      "red": 374,
      "spec": 375,
      "bo": 376,
      "ms": 377,
      "ag": 378,
      "equ": 379,
      "pe": 380,
      "ser": 381,
      "fun": 382,
      "xmath9": 383,
      "eq": 384,
      "model": 385,
      "ber": 386,
      "diff": 387,
      "inter": 388,
      "xmath10": 389,
      "ke": 390,
      "tain": 391,
      "show": 392,
      "ven": 393,
      "ach": 394,
      "xi": 395,
      "min": 396,
      "two": 397,
      "eren": 398,
      "valu": 399,
      "ble": 400,
      "tial": 401,
      "ten": 402,
      "form": 403,
      "gy": 404,
      "able": 405,
      "sh": 406,
      "function": 407,
      "state": 408,
      "mi": 409,
      "op": 410,
      "corre": 411,
      "ace": 412,
      "200": 413,
      "eld": 414,
      "there": 415,
      "fr": 416,
      "ary": 417,
      "}\\": 418,
      "int": 419,
      "ound": 420,
      "ang": 421,
      "od": 422,
      "sul": 423,
      "eff": 424,
      "tran": 425,
      "xmath12": 426,
      "10": 427,
      "has": 428,
      "ong": 429,
      "et": 430,
      "resul": 431,
      "out": 432,
      "ding": 433,
      "cur": 434,
      "clu": 435,
      "wa": 436,
      "up": 437,
      "olu": 438,
      "ons": 439,
      "xmath13": 440,
      "man": 441,
      "serv": 442,
      "its": 443,
      "sity": 444,
      "ous": 445,
      "also": 446,
      "line": 447,
      "mag": 448,
      "id": 449,
      "yste": 450,
      "ree": 451,
      "num": 452,
      "cre": 453,
      "these": 454,
      "mu": 455,
      "gh": 456,
      "pa": 457,
      "exp": 458,
      "syste": 459,
      "ence": 460,
      "ical": 461,
      "ca": 462,
      "ore": 463,
      "field": 464,
      "tribu": 465,
      "energy": 466,
      "xmath11": 467,
      "differen": 468,
      "dep": 469,
      "ves": 470,
      "ting": 471,
      "time": 472,
      "dy": 473,
      "ties": 474,
      "imp": 475,
      "xmath14": 476,
      "bet": 477,
      "lec": 478,
      "non": 479,
      "gra": 480,
      "ould": 481,
      "use": 482,
      "amp": 483,
      "observ": 484,
      "then": 485,
      "les": 486,
      "ular": 487,
      "xmath0": 488,
      "was": 489,
      "lar": 490,
      "let": 491,
      "vari": 492,
      "mass": 493,
      "com": 494,
      "20": 495,
      "sig": 496,
      "xmath15": 497,
      "other": 498,
      "such": 499,
      "frac": 500,
      "fol": 501,
      "ces": 502,
      "over": 503,
      "scal": 504,
      "see": 505,
      "order": 506,
      "more": 507,
      "ance": 508,
      "sim": 509,
      "gener": 510,
      "star": 511,
      "only": 512,
      "right": 513,
      "ween": 514,
      "between": 515,
      "xmath16": 516,
      "iz": 517,
      "ds": 518,
      "tical": 519,
      "partic": 520,
      "sub": 521,
      "case": 522,
      "than": 523,
      "parame": 524,
      "cri": 525,
      "om": 526,
      "ft": 527,
      "follow": 528,
      "fir": 529,
      "ack": 530,
      "high": 531,
      "defin": 532,
      "mal": 533,
      "led": 534,
      "stru": 535,
      "ors": 536,
      "ect": 537,
      "pre": 538,
      "ev": 539,
      "parameter": 540,
      "sed": 541,
      "ste": 542,
      "metr": 543,
      "em": 544,
      "cle": 545,
      "nu": 546,
      "will": 547,
      "xmath17": 548,
      "ak": 549,
      "obtain": 550,
      "peri": 551,
      "given": 552,
      "set": 553,
      "}{": 554,
      "spectr": 555,
      "appro": 556,
      "section": 557,
      "spon": 558,
      "199": 559,
      "mation": 560,
      "gr": 561,
      "ite": 562,
      "wor": 563,
      "ga": 564,
      "consi": 565,
      "gro": 566,
      "las": 567,
      "ton": 568,
      "dat": 569,
      "ard": 570,
      "ers": 571,
      "now": 572,
      "os": 573,
      "density": 574,
      "present": 575,
      "fe": 576,
      "olution": 577,
      "using": 578,
      "number": 579,
      "ature": 580,
      "regi": 581,
      "first": 582,
      "ort": 583,
      "gal": 584,
      "xmath18": 585,
      "ren": 586,
      "meas": 587,
      "sin": 588,
      "fer": 589,
      "radi": 590,
      "12": 591,
      "sma": 592,
      "ced": 593,
      "but": 594,
      "inte": 595,
      "each": 596,
      "cy": 597,
      "fact": 598,
      "anal": 599,
      "ange": 600,
      "been": 601,
      "^{": 602,
      "trans": 603,
      "small": 604,
      "data": 605,
      "xmath19": 606,
      "sign": 607,
      "left": 608,
      "cul": 609,
      "requ": 610,
      "const": 611,
      "pp": 612,
      "results": 613,
      "char": 614,
      "sum": 615,
      "ut": 616,
      "sure": 617,
      "when": 618,
      "sing": 619,
      "flu": 620,
      "sur": 621,
      "system": 622,
      "posi": 623,
      "ates": 624,
      "sy": 625,
      "phys": 626,
      "depend": 627,
      "ility": 628,
      "ments": 629,
      "correspon": 630,
      "loc": 631,
      "here": 632,
      "tribution": 633,
      "lat": 634,
      "13": 635,
      "temp": 636,
      "bas": 637,
      "calcul": 638,
      "different": 639,
      "measure": 640,
      "est": 641,
      "struct": 642,
      "magne": 643,
      "mon": 644,
      "space": 645,
      "some": 646,
      "values": 647,
      "rel": 648,
      "very": 649,
      "fore": 650,
      "15": 651,
      "ents": 652,
      "cont": 653,
      "since": 654,
      "stu": 655,
      "used": 656,
      "same": 657,
      "ory": 658,
      "ile": 659,
      "under": 660,
      "br": 661,
      "xmath20": 662,
      "men": 663,
      "bound": 664,
      "produ": 665,
      "sc": 666,
      "large": 667,
      "tively": 668,
      "ast": 669,
      "wever": 670,
      "ori": 671,
      "app": 672,
      "main": 673,
      "cess": 674,
      "dition": 675,
      "ist": 676,
      "however": 677,
      "value": 678,
      "into": 679,
      "ici": 680,
      "pr": 681,
      "any": 682,
      "elec": 683,
      "11": 684,
      "electr": 685,
      "uni": 686,
      "respec": 687,
      "consider": 688,
      "point": 689,
      ",\\": 690,
      "da": 691,
      "sa": 692,
      "ks": 693,
      "ise": 694,
      "ose": 695,
      "well": 696,
      "both": 697,
      "most": 698,
      "ded": 699,
      "gala": 700,
      "lim": 701,
      "ures": 702,
      "their": 703,
      "mes": 704,
      "descri": 705,
      "xmath24": 706,
      "cent": 707,
      "ating": 708,
      "col": 709,
      "ze": 710,
      "may": 711,
      "shown": 712,
      "ion": 713,
      "ved": 714,
      "ext": 715,
      "ane": 716,
      "vel": 717,
      "ove": 718,
      "effec": 719,
      "und": 720,
      "ful": 721,
      "were": 722,
      "mb": 723,
      "ssi": 724,
      "action": 725,
      "gth": 726,
      "dire": 727,
      "xmath22": 728,
      "thus": 729,
      "ases": 730,
      "tur": 731,
      "ref": 732,
      "xmath23": 733,
      "cou": 734,
      "bin": 735,
      "ps": 736,
      "sol": 737,
      "comple": 738,
      "like": 739,
      "\\\\": 740,
      "ample": 741,
      "figure": 742,
      "ission": 743,
      "equation": 744,
      "xmath26": 745,
      "formation": 746,
      "magnetic": 747,
      "xmath25": 748,
      "mar": 749,
      "''": 750,
      "termin": 751,
      "oper": 752,
      "ind": 753,
      "states": 754,
      "ish": 755,
      "lay": 756,
      "xmath27": 757,
      "phase": 758,
      "spin": 759,
      "above": 760,
      "pho": 761,
      "age": 762,
      "ability": 763,
      "nam": 764,
      "go": 765,
      "cus": 766,
      "spe": 767,
      "incre": 768,
      "14": 769,
      "``": 770,
      "ensure": 771,
      "ctor": 772,
      "they": 773,
      "experi": 774,
      "ugh": 775,
      "lit": 776,
      "anti": 777,
      "tal": 778,
      "following": 779,
      "temper": 780,
      "ger": 781,
      "zer": 782,
      "ected": 783,
      "rela": 784,
      "ain": 785,
      "af": 786,
      "simil": 787,
      "while": 788,
      "distribution": 789,
      "xmath28": 790,
      "obtained": 791,
      "(\\": 792,
      "im": 793,
      "work": 794,
      "nor": 795,
      "ough": 796,
      "mmetr": 797,
      "simp": 798,
      "similar": 799,
      "ensuremath": 800,
      "inclu": 801,
      "16": 802,
      "ini": 803,
      "phy": 804,
      "mat": 805,
      "-@": 806,
      "ving": 807,
      "general": 808,
      "sec": 809,
      "tu": 810,
      "sour": 811,
      "determin": 812,
      "due": 813,
      "proper": 814,
      "observed": 815,
      "simul": 816,
      "dynam": 817,
      "coun": 818,
      "rough": 819,
      "mul": 820,
      "cons": 821,
      "note": 822,
      "tis": 823,
      "poten": 824,
      "chi": 825,
      "esti": 826,
      "ii": 827,
      "bed": 828,
      "parameters": 829,
      "sk": 830,
      "face": 831,
      "ray": 832,
      "ele": 833,
      "mate": 834,
      "long": 835,
      "part": 836,
      "therefore": 837,
      "wer": 838,
      "compon": 839,
      "cond": 840,
      "limit": 841,
      "med": 842,
      "chan": 843,
      "ign": 844,
      "possi": 845,
      "cro": 846,
      "bi": 847,
      "cause": 848,
      "sequ": 849,
      "ator": 850,
      "coll": 851,
      "meth": 852,
      "region": 853,
      "would": 854,
      "matri": 855,
      "au": 856,
      "xmath29": 857,
      "matrix": 858,
      "process": 859,
      "mean": 860,
      "dist": 861,
      "clo": 862,
      "physi": 863,
      "18": 864,
      "finite": 865,
      "theore": 866,
      "potential": 867,
      "bit": 868,
      "dimen": 869,
      "ints": 870,
      "ges": 871,
      "dimension": 872,
      "three": 873,
      "result": 874,
      "bl": 875,
      "angle": 876,
      "dete": 877,
      "als": 878,
      "nucle": 879,
      "vity": 880,
      "approxi": 881,
      "ine": 882,
      "less": 883,
      "zation": 884,
      "quant": 885,
      "moment": 886,
      "oc": 887,
      "equi": 888,
      "abs": 889,
      "emission": 890,
      "ational": 891,
      "discus": 892,
      "pul": 893,
      "models": 894,
      "log": 895,
      "method": 896,
      "ength": 897,
      "second": 898,
      "multi": 899,
      "new": 900,
      "av": 901,
      "pi": 902,
      "quantum": 903,
      "pic": 904,
      "super": 905,
      "because": 906,
      "ian": 907,
      "range": 908,
      "atter": 909,
      "30": 910,
      "structure": 911,
      "found": 912,
      "ino": 913,
      "temperature": 914,
      "deri": 915,
      "shif": 916,
      "dence": 917,
      "defined": 918,
      "corresponding": 919,
      "transi": 920,
      "clas": 921,
      "cer": 922,
      "clust": 923,
      "zero": 924,
      "real": 925,
      "xmath30": 926,
      "know": 927,
      "strong": 928,
      "proble": 929,
      "terms": 930,
      "linear": 931,
      "pri": 932,
      "rati": 933,
      "stand": 934,
      "analys": 935,
      "band": 936,
      "scale": 937,
      "symmetr": 938,
      "nel": 939,
      "redu": 940,
      "wave": 941,
      "frequ": 942,
      "assu": 943,
      "bar": 944,
      "hol": 945,
      "ency": 946,
      "ord": 947,
      "17": 948,
      "represent": 949,
      "pt": 950,
      "fic": 951,
      "pol": 952,
      "effici": 953,
      "cl": 954,
      "tak": 955,
      "^{\\": 956,
      "dependent": 957,
      "sch": 958,
      "{{\\": 959,
      "50": 960,
      "hy": 961,
      "integr": 962,
      "neu": 963,
      "ark": 964,
      "verse": 965,
      "local": 966,
      "big": 967,
      "through": 968,
      "light": 969,
      "speci": 970,
      "jec": 971,
      "contin": 972,
      "power": 973,
      "plic": 974,
      "respectively": 975,
      "istic": 976,
      "lead": 977,
      "provi": 978,
      "cr": 979,
      "continu": 980,
      "ative": 981,
      "constant": 982,
      "xmath32": 983,
      "graph": 984,
      "level": 985,
      "lines": 986,
      "son": 987,
      "cen": 988,
      "after": 989,
      "times": 990,
      "hi": 991,
      "deno": 992,
      "indic": 993,
      "spectrum": 994,
      "functions": 995,
      "paper": 996,
      "based": 997,
      "cross": 998,
      "prop": 999,
      "ni": 1000,
      "gen": 1001,
      "back": 1002,
      "_1": 1003,
      "curren": 1004,
      "zed": 1005,
      "stars": 1006,
      "fied": 1007,
      "systems": 1008,
      "expres": 1009,
      "ear": 1010,
      "even": 1011,
      "sti": 1012,
      "ground": 1013,
      "shows": 1014,
      "gas": 1015,
      "tex": 1016,
      "numer": 1017,
      "pha": 1018,
      "pair": 1019,
      "single": 1020,
      "70": 1021,
      "soci": 1022,
      "analysis": 1023,
      "ized": 1024,
      "sel": 1025,
      "gre": 1026,
      "xmath35": 1027,
      "ics": 1028,
      "ption": 1029,
      "el": 1030,
      "40": 1031,
      "coupl": 1032,
      "flux": 1033,
      "experiment": 1034,
      "tes": 1035,
      "particle": 1036,
      "xmath33": 1037,
      "factor": 1038,
      "mer": 1039,
      "study": 1040,
      "neutr": 1041,
      "ific": 1042,
      "veloc": 1043,
      "way": 1044,
      "cs": 1045,
      "velocity": 1046,
      "wn": 1047,
      "find": 1048,
      "initial": 1049,
      "gam": 1050,
      "correl": 1051,
      "fur": 1052,
      "prob": 1053,
      "electron": 1054,
      "period": 1055,
      "ared": 1056,
      "car": 1057,
      "dth": 1058,
      "ude": 1059,
      "tice": 1060,
      "though": 1061,
      "width": 1062,
      "surface": 1063,
      "acter": 1064,
      "-\\": 1065,
      "total": 1066,
      "within": 1067,
      "theory": 1068,
      "coupling": 1069,
      "approach": 1070,
      "iden": 1071,
      "mic": 1072,
      "appe": 1073,
      "should": 1074,
      "aver": 1075,
      "solution": 1076,
      "vious": 1077,
      "alpha": 1078,
      "character": 1079,
      "does": 1080,
      "galaxi": 1081,
      "xmath34": 1082,
      "diag": 1083,
      "particular": 1084,
      "galaxies": 1085,
      "25": 1086,
      "follows": 1087,
      "fit": 1088,
      "further": 1089,
      "scatter": 1090,
      "ot": 1091,
      "align": 1092,
      "import": 1093,
      "off": 1094,
      "effect": 1095,
      "problem": 1096,
      "sen": 1097,
      "xmath36": 1098,
      "err": 1099,
      "equations": 1100,
      "about": 1101,
      "fix": 1102,
      "exis": 1103,
      "xy": 1104,
      "sta": 1105,
      "psi": 1106,
      "side": 1107,
      "lower": 1108,
      "possible": 1109,
      "arch": 1110,
      "position": 1111,
      "rest": 1112,
      "near": 1113,
      "van": 1114,
      "centr": 1115,
      "war": 1116,
      "reg": 1117,
      "@-@": 1118,
      "xmath37": 1119,
      "requi": 1120,
      "her": 1121,
      "}}}}": 1122,
      "group": 1123,
      "matic": 1124,
      "ratio": 1125,
      "signific": 1126,
      "ck": 1127,
      "ew": 1128,
      "cho": 1129,
      "length": 1130,
      "addition": 1131,
      "points": 1132,
      "medi": 1133,
      "cted": 1134,
      "ism": 1135,
      "fy": 1136,
      "ner": 1137,
      "could": 1138,
      "dered": 1139,
      "conn": 1140,
      "compar": 1141,
      "que": 1142,
      "properties": 1143,
      "The": 1144,
      "ice": 1145,
      "momentum": 1146,
      "interaction": 1147,
      "xmath38": 1148,
      "term": 1149,
      "tra": 1150,
      "hal": 1151,
      "allow": 1152,
      "fermi": 1153,
      "appear": 1154,
      "24": 1155,
      "condition": 1156,
      "pred": 1157,
      "free": 1158,
      "type": 1159,
      "contain": 1160,
      "ject": 1161,
      "example": 1162,
      "studi": 1163,
      "turb": 1164,
      "beha": 1165,
      "particles": 1166,
      "}{\\": 1167,
      ")\\": 1168,
      "ented": 1169,
      "bri": 1170,
      "known": 1171,
      "xmath39": 1172,
      "bel": 1173,
      "those": 1174,
      "certain": 1175,
      "boundary": 1176,
      "change": 1177,
      "quanti": 1178,
      "inde": 1179,
      "below": 1180,
      "velo": 1181,
      "gamma": 1182,
      "observations": 1183,
      "constra": 1184,
      "lies": 1185,
      "evolution": 1186,
      "maxi": 1187,
      "198": 1188,
      "predic": 1189,
      "gu": 1190,
      "supp": 1191,
      "higher": 1192,
      "22": 1193,
      "size": 1194,
      "current": 1195,
      "scattering": 1196,
      "aligned": 1197,
      "intro": 1198,
      "significant": 1199,
      "deca": 1200,
      "hand": 1201,
      "effects": 1202,
      "important": 1203,
      "larger": 1204,
      "tail": 1205,
      "frequency": 1206,
      "self": 1207,
      "many": 1208,
      "transition": 1209,
      "ple": 1210,
      "flow": 1211,
      "behavi": 1212,
      "galaxy": 1213,
      "analy": 1214,
      "equal": 1215,
      "shift": 1216,
      "mil": 1217,
      "introdu": 1218,
      "read": 1219,
      "fields": 1220,
      "hence": 1221,
      "associ": 1222,
      "smo": 1223,
      "lem": 1224,
      "separ": 1225,
      "mode": 1226,
      "lamb": 1227,
      "orig": 1228,
      "assum": 1229,
      "emp": 1230,
      "much": 1231,
      "source": 1232,
      "rot": 1233,
      "origin": 1234,
      "xmath43": 1235,
      "tivity": 1236,
      "identi": 1237,
      "ju": 1238,
      "depen": 1239,
      "lum": 1240,
      "vector": 1241,
      "atures": 1242,
      "sigma": 1243,
      "component": 1244,
      "had": 1245,
      "asi": 1246,
      "she": 1247,
      "spectra": 1248,
      "xmath40": 1249,
      "label": 1250,
      "fra": 1251,
      "disk": 1252,
      "partial": 1253,
      "xmath45": 1254,
      "compu": 1255,
      "direct": 1256,
      "asy": 1257,
      "effective": 1258,
      "described": 1259,
      "llar": 1260,
      "lambda": 1261,
      "formed": 1262,
      "sions": 1263,
      "ns": 1264,
      "rate": 1265,
      "clear": 1266,
      "ron": 1267,
      "sequence": 1268,
      "vis": 1269,
      "dro": 1270,
      "need": 1271,
      "til": 1272,
      "tributions": 1273,
      "table": 1274,
      "uring": 1275,
      "direction": 1276,
      "comes": 1277,
      "_2": 1278,
      "put": 1279,
      "ler": 1280,
      "igen": 1281,
      "inci": 1282,
      "xmath48": 1283,
      "peak": 1284,
      "matter": 1285,
      "xmath46": 1286,
      "satis": 1287,
      "theorem": 1288,
      "vol": 1289,
      "previous": 1290,
      "py": 1291,
      "distance": 1292,
      "ently": 1293,
      "tern": 1294,
      "along": 1295,
      "sive": 1296,
      "estimate": 1297,
      "23": 1298,
      "tit": 1299,
      "xmath47": 1300,
      "ordin": 1301,
      "tau": 1302,
      "numerical": 1303,
      "xmath44": 1304,
      "combin": 1305,
      "hep": 1306,
      "independent": 1307,
      "recent": 1308,
      "stellar": 1309,
      "fixed": 1310,
      "metric": 1311,
      "test": 1312,
      "assume": 1313,
      "cluster": 1314,
      "cir": 1315,
      "consist": 1316,
      "eigen": 1317,
      "complex": 1318,
      "his": 1319,
      "get": 1320,
      "fa": 1321,
      "absor": 1322,
      "xmath49": 1323,
      "formul": 1324,
      "physical": 1325,
      "ditions": 1326,
      "dependence": 1327,
      "lic": 1328,
      "sug": 1329,
      "26": 1330,
      "gori": 1331,
      "rm": 1332,
      "thm": 1333,
      "presented": 1334,
      "remain": 1335,
      "gs": 1336,
      "conditions": 1337,
      "prof": 1338,
      "ward": 1339,
      "onal": 1340,
      "contr": 1341,
      "symmetry": 1342,
      "umber": 1343,
      "dot": 1344,
      "sample": 1345,
      "ators": 1346,
      "spectral": 1347,
      "indu": 1348,
      "define": 1349,
      "ization": 1350,
      "amplit": 1351,
      "xmath21": 1352,
      "sha": 1353,
      "play": 1354,
      "tonian": 1355,
      "28": 1356,
      "xiv": 1357,
      "mix": 1358,
      "ning": 1359,
      "edge": 1360,
      "reson": 1361,
      "lot": 1362,
      "cc": 1363,
      "arxiv": 1364,
      "geo": 1365,
      "considered": 1366,
      "delta": 1367,
      "hamil": 1368,
      "interest": 1369,
      "bul": 1370,
      "channel": 1371,
      "bre": 1372,
      "coeffici": 1373,
      "relation": 1374,
      "60": 1375,
      "operator": 1376,
      "lattice": 1377,
      "quad": 1378,
      "domin": 1379,
      "four": 1380,
      "expected": 1381,
      "bro": 1382,
      "chang": 1383,
      "must": 1384,
      "them": 1385,
      "tially": 1386,
      "weak": 1387,
      "conclu": 1388,
      "xmath50": 1389,
      "plane": 1390,
      "standard": 1391,
      "gies": 1392,
      "ses": 1393,
      "mali": 1394,
      "fraction": 1395,
      "ically": 1396,
      "being": 1397,
      "ield": 1398,
      "asing": 1399,
      "cap": 1400,
      "perturb": 1401,
      "lemma": 1402,
      "veral": 1403,
      "ko": 1404,
      "quark": 1405,
      "exact": 1406,
      "rand": 1407,
      "associated": 1408,
      "por": 1409,
      "approximation": 1410,
      "actions": 1411,
      "classi": 1412,
      "pu": 1413,
      "xmath54": 1414,
      "seen": 1415,
      "search": 1416,
      "open": 1417,
      "aces": 1418,
      "average": 1419,
      "xmath42": 1420,
      "several": 1421,
      "again": 1422,
      "xmath59": 1423,
      "olutions": 1424,
      "extend": 1425,
      "}(": 1426,
      "cases": 1427,
      "hamiltonian": 1428,
      "ings": 1429,
      "simple": 1430,
      "gives": 1431,
      "dimensional": 1432,
      "ome": 1433,
      "har": 1434,
      "plan": 1435,
      "black": 1436,
      "dynamics": 1437,
      "equival": 1438,
      "xmath31": 1439,
      "erence": 1440,
      "consistent": 1441,
      "regions": 1442,
      "33": 1443,
      "80": 1444,
      "ash": 1445,
      "nonumber": 1446,
      "old": 1447,
      "mini": 1448,
      "modes": 1449,
      "phi": 1450,
      "magn": 1451,
      "imag": 1452,
      "twor": 1453,
      "view": 1454,
      "ei": 1455,
      "charge": 1456,
      "simulations": 1457,
      "ru": 1458,
      "lumino": 1459,
      "ness": 1460,
      "measured": 1461,
      "contribution": 1462,
      "sources": 1463,
      "typ": 1464,
      "mod": 1465,
      "ip": 1466,
      "map": 1467,
      "inst": 1468,
      "networ": 1469,
      "row": 1470,
      "decre": 1471,
      "critical": 1472,
      "body": 1473,
      "calculations": 1474,
      "logical": 1475,
      "mechan": 1476,
      "stable": 1477,
      "optical": 1478,
      "rit": 1479,
      "ax": 1480,
      "gev": 1481,
      "probability": 1482,
      "decay": 1483,
      "tig": 1484,
      "tro": 1485,
      "although": 1486,
      "radius": 1487,
      "chi_": 1488,
      ".\\": 1489,
      "21": 1490,
      "law": 1491,
      "algori": 1492,
      "accoun": 1493,
      "angular": 1494,
      "propag": 1495,
      "bra": 1496,
      "constru": 1497,
      "xmath57": 1498,
      "behavior": 1499,
      "xmath56": 1500,
      "opti": 1501,
      "xmath58": 1502,
      "correction": 1503,
      "orph": 1504,
      "experimental": 1505,
      "random": 1506,
      "gin": 1507,
      "molec": 1508,
      "around": 1509,
      "smaller": 1510,
      "100": 1511,
      "inves": 1512,
      "poly": 1513,
      "close": 1514,
      "sup": 1515,
      "90": 1516,
      "respect": 1517,
      "determined": 1518,
      "king": 1519,
      "complete": 1520,
      "cill": 1521,
      "ep": 1522,
      "yield": 1523,
      "bur": 1524,
      "logy": 1525,
      "correlation": 1526,
      "unk": 1527,
      "come": 1528,
      "positive": 1529,
      "ances": 1530,
      "during": 1531,
      "xmath53": 1532,
      "ables": 1533,
      "difference": 1534,
      "27": 1535,
      "unit": 1536,
      "occur": 1537,
      "sto": 1538,
      "sco": 1539,
      "atur": 1540,
      "cd": 1541,
      "investig": 1542,
      "solutions": 1543,
      "ba": 1544,
      "45": 1545,
      "ker": 1546,
      "components": 1547,
      "photo": 1548,
      "tically": 1549,
      "box": 1550,
      "va": 1551,
      "tech": 1552,
      "inf": 1553,
      "xmath60": 1554,
      "scalar": 1555,
      "curve": 1556,
      "without": 1557,
      "=\"": 1558,
      "magnit": 1559,
      "suff": 1560,
      "35": 1561,
      "pc": 1562,
      "condu": 1563,
      "calculated": 1564,
      "homo": 1565,
      "invari": 1566,
      "information": 1567,
      "becomes": 1568,
      "mum": 1569,
      "](": 1570,
      "xmath55": 1571,
      "how": 1572,
      "lying": 1573,
      "coordin": 1574,
      "what": 1575,
      "dou": 1576,
      "conver": 1577,
      "rho": 1578,
      "loop": 1579,
      "oscill": 1580,
      "exce": 1581,
      "normal": 1582,
      "29": 1583,
      "fil": 1584,
      "expan": 1585,
      "polari": 1586,
      "cm": 1587,
      "related": 1588,
      "tens": 1589,
      "ason": 1590,
      "dual": 1591,
      "relative": 1592,
      "xmath66": 1593,
      "physics": 1594,
      "ill": 1595,
      "motion": 1596,
      "propo": 1597,
      "beta": 1598,
      "path": 1599,
      "bal": 1600,
      "uncertain": 1601,
      "defini": 1602,
      "thermal": 1603,
      "teri": 1604,
      "compared": 1605,
      "central": 1606,
      "tre": 1607,
      "ide": 1608,
      "expon": 1609,
      "either": 1610,
      "energies": 1611,
      "ices": 1612,
      "cording": 1613,
      "bility": 1614,
      "chain": 1615,
      "luminosity": 1616,
      "rele": 1617,
      "nega": 1618,
      "collis": 1619,
      "bor": 1620,
      "jo": 1621,
      "ies": 1622,
      "still": 1623,
      "xmath41": 1624,
      "xmath64": 1625,
      "plot": 1626,
      "..": 1627,
      "stric": 1628,
      "down": 1629,
      "_0": 1630,
      "mage": 1631,
      "curves": 1632,
      "bb": 1633,
      "called": 1634,
      "upper": 1635,
      "xmath65": 1636,
      "circ": 1637,
      "writ": 1638,
      "acce": 1639,
      "xmath67": 1640,
      "every": 1641,
      "sphere": 1642,
      "finally": 1643,
      "step": 1644,
      "sugges": 1645,
      "error": 1646,
      "photon": 1647,
      "atom": 1648,
      "maximum": 1649,
      "discussed": 1650,
      ".@": 1651,
      "xmath68": 1652,
      "beam": 1653,
      "og": 1654,
      "ture": 1655,
      "sal": 1656,
      "jet": 1657,
      "accur": 1658,
      "next": 1659,
      "xmath63": 1660,
      "hole": 1661,
      "break": 1662,
      "full": 1663,
      "diagra": 1664,
      "xmath73": 1665,
      "statis": 1666,
      "take": 1667,
      "pressure": 1668,
      "xmath70": 1669,
      "land": 1670,
      "proof": 1671,
      "trac": 1672,
      "final": 1673,
      "xmath69": 1674,
      "color": 1675,
      "tun": 1676,
      "hu": 1677,
      "xmath84": 1678,
      "sian": 1679,
      "lon": 1680,
      "noise": 1681,
      "compo": 1682,
      "background": 1683,
      "comparis": 1684,
      "absorption": 1685,
      "expansion": 1686,
      "orbit": 1687,
      "xmath75": 1688,
      "basis": 1689,
      "production": 1690,
      "cit": 1691,
      "measurements": 1692,
      "solid": 1693,
      "velop": 1694,
      "clou": 1695,
      "strate": 1696,
      "mis": 1697,
      "xmath76": 1698,
      "xmath77": 1699,
      "specific": 1700,
      "ell": 1701,
      "lain": 1702,
      "relations": 1703,
      "detail": 1704,
      "signal": 1705,
      "lied": 1706,
      "bf": 1707,
      "interactions": 1708,
      "taken": 1709,
      "sities": 1710,
      "gau": 1711,
      "clusters": 1712,
      "inste": 1713,
      "popul": 1714,
      "ctors": 1715,
      "according": 1716,
      "make": 1717,
      "anel": 1718,
      "give": 1719,
      "denote": 1720,
      "tiv": 1721,
      "agree": 1722,
      "([": 1723,
      "panel": 1724,
      "ques": 1725,
      "corresponds": 1726,
      "_i": 1727,
      "ano": 1728,
      "ential": 1729,
      "amplitude": 1730,
      "evalu": 1731,
      "vit": 1732,
      "ick": 1733,
      "good": 1734,
      "xmath74": 1735,
      "ions": 1736,
      "cover": 1737,
      "formal": 1738,
      "comm": 1739,
      "call": 1740,
      "implies": 1741,
      "squ": 1742,
      "config": 1743,
      "ways": 1744,
      "algorithm": 1745,
      "expression": 1746,
      "hor": 1747,
      "nec": 1748,
      "who": 1749,
      "scaling": 1750,
      "ring": 1751,
      "excit": 1752,
      "closed": 1753,
      "consis": 1754,
      "astro": 1755,
      "exists": 1756,
      "least": 1757,
      "ue": 1758,
      "xmath80": 1759,
      "configur": 1760,
      "text": 1761,
      "mm": 1762,
      "tt": 1763,
      "made": 1764,
      "frame": 1765,
      "another": 1766,
      "develop": 1767,
      "explain": 1768,
      "means": 1769,
      "vo": 1770,
      "before": 1771,
      "derived": 1772,
      "hig": 1773,
      "xmath52": 1774,
      "bran": 1775,
      "xmath79": 1776,
      "symmetric": 1777,
      "spa": 1778,
      "xmath62": 1779,
      "mated": 1780,
      "negative": 1781,
      "}^{": 1782,
      "radiation": 1783,
      "xmath78": 1784,
      "far": 1785,
      "def": 1786,
      "various": 1787,
      "xmath61": 1788,
      "2001": 1789,
      "pas": 1790,
      "usu": 1791,
      "resolution": 1792,
      "In": 1793,
      "gaus": 1794,
      "equili": 1795,
      "account": 1796,
      "modi": 1797,
      "rather": 1798,
      "rev": 1799,
      "xmath51": 1800,
      "features": 1801,
      "deg": 1802,
      "just": 1803,
      "fo": 1804,
      "event": 1805,
      "magnitude": 1806,
      "36": 1807,
      "reach": 1808,
      "top": 1809,
      "aff": 1810,
      "assump": 1811,
      "actic": 1812,
      "38": 1813,
      "core": 1814,
      "lection": 1815,
      "bes": 1816,
      "sible": 1817,
      "neg": 1818,
      "mc": 1819,
      "ctu": 1820,
      "jects": 1821,
      "divi": 1822,
      "explic": 1823,
      "glo": 1824,
      "omega": 1825,
      "presence": 1826,
      "xmath87": 1827,
      "center": 1828,
      "alge": 1829,
      "gauge": 1830,
      "05": 1831,
      "few": 1832,
      "univer": 1833,
      "definition": 1834,
      "theoretical": 1835,
      "37": 1836,
      "sci": 1837,
      "parti": 1838,
      "increase": 1839,
      "double": 1840,
      "including": 1841,
      "elect": 1842,
      "explicit": 1843,
      "ans": 1844,
      "mark": 1845,
      "increasing": 1846,
      "ato": 1847,
      "mediate": 1848,
      "image": 1849,
      "electro": 1850,
      "sn": 1851,
      "ants": 1852,
      "ections": 1853,
      "acting": 1854,
      "hold": 1855,
      "iral": 1856,
      "+\\": 1857,
      "evi": 1858,
      "cell": 1859,
      "06": 1860,
      "comparison": 1861,
      "sensi": 1862,
      "ia": 1863,
      "disper": 1864,
      "fluctu": 1865,
      "suffici": 1866,
      "ater": 1867,
      "force": 1868,
      "comput": 1869,
      "psilon": 1870,
      "studies": 1871,
      "ond": 1872,
      "scales": 1873,
      "stren": 1874,
      "nuclear": 1875,
      "bits": 1876,
      "dash": 1877,
      "ably": 1878,
      "ok": 1879,
      "additional": 1880,
      "lected": 1881,
      "contro": 1882,
      "leads": 1883,
      "depends": 1884,
      "materi": 1885,
      "mann": 1886,
      "phen": 1887,
      "}^": 1888,
      "invol": 1889,
      "dust": 1890,
      "place": 1891,
      "cies": 1892,
      "studied": 1893,
      "axis": 1894,
      "infinite": 1895,
      "Un": 1896,
      "abor": 1897,
      "applic": 1898,
      "interesting": 1899,
      "redshift": 1900,
      "short": 1901,
      "na": 1902,
      "calculation": 1903,
      "ising": 1904,
      "elements": 1905,
      "equivalent": 1906,
      "natur": 1907,
      "wise": 1908,
      "stra": 1909,
      "coh": 1910,
      "gravit": 1911,
      "increases": 1912,
      "tons": 1913,
      "48": 1914,
      "volu": 1915,
      "xmath88": 1916,
      "cu": 1917,
      "indeed": 1918,
      "name": 1919,
      "provide": 1920,
      "sf": 1921,
      "moreover": 1922,
      "enti": 1923,
      "sets": 1924,
      "reason": 1925,
      "via": 1926,
      "necess": 1927,
      "equilibri": 1928,
      "my": 1929,
      "ef": 1930,
      "higgs": 1931,
      "iter": 1932,
      "coefficients": 1933,
      "classical": 1934,
      "xmath86": 1935,
      "39": 1936,
      "2000": 1937,
      "xmath95": 1938,
      "approximate": 1939,
      "tional": 1940,
      "normali": 1941,
      "index": 1942,
      "radio": 1943,
      ")(": 1944,
      "integral": 1945,
      "49": 1946,
      "2002": 1947,
      "dri": 1948,
      "strength": 1949,
      "xmath90": 1950,
      "class": 1951,
      "ropy": 1952,
      "apj": 1953,
      "xmath72": 1954,
      "volume": 1955,
      "last": 1956,
      "connected": 1957,
      "ased": 1958,
      "pole": 1959,
      "impro": 1960,
      "2004": 1961,
      "xmath71": 1962,
      "contributions": 1963,
      "2003": 1964,
      "hyper": 1965,
      "gaussian": 1966,
      "nt": 1967,
      "tensor": 1968,
      "link": 1969,
      "vanish": 1970,
      "xmath97": 1971,
      "adi": 1972,
      "neigh": 1973,
      "metry": 1974,
      ")^": 1975,
      "acy": 1976,
      "formula": 1977,
      "structures": 1978,
      "horiz": 1979,
      "xmath89": 1980,
      "shock": 1981,
      "amples": 1982,
      "radial": 1983,
      "met": 1984,
      "xmath83": 1985,
      "tar": 1986,
      "inten": 1987,
      "arrow": 1988,
      "site": 1989,
      "written": 1990,
      "string": 1991,
      "2007": 1992,
      "modul": 1993,
      "xmath100": 1994,
      "ged": 1995,
      "differential": 1996,
      "cing": 1997,
      "year": 1998,
      "iso": 1999,
      "characteristic": 2000,
      "applied": 2001,
      "equilibrium": 2002,
      "invariant": 2003,
      "transp": 2004,
      "electrons": 2005,
      "simulation": 2006,
      "tics": 2007,
      "stract": 2008,
      "expect": 2009,
      "transverse": 2010,
      "ili": 2011,
      "glu": 2012,
      "mem": 2013,
      "omen": 2014,
      "46": 2015,
      "tices": 2016,
      "omorph": 2017,
      "reduced": 2018,
      "xmath1070": 2019,
      "whose": 2020,
      "objects": 2021,
      "masses": 2022,
      "processes": 2023,
      "oid": 2024,
      "prec": 2025,
      "galactic": 2026,
      "}(\\": 2027,
      "continuous": 2028,
      "xmath96": 2029,
      "electric": 2030,
      "network": 2031,
      "xmath85": 2032,
      "proposed": 2033,
      "agreement": 2034,
      ".,": 2035,
      "2006": 2036,
      "operators": 2037,
      "gc": 2038,
      "suppor": 2039,
      "gap": 2040,
      "mathit": 2041,
      "titled": 2042,
      "ress": 2043,
      "47": 2044,
      "2005": 2045,
      "interpre": 2046,
      "later": 2047,
      "ished": 2048,
      "sky": 2049,
      "smoo": 2050,
      "spher": 2051,
      "contains": 2052,
      "\\,": 2053,
      "eqs": 2054,
      "inner": 2055,
      "periodic": 2056,
      "{{{\\": 2057,
      "org": 2058,
      "likely": 2059,
      "detection": 2060,
      "Ab": 2061,
      "degree": 2062,
      "conven": 2063,
      "cosmo": 2064,
      "surve": 2065,
      "ka": 2066,
      "lett": 2067,
      "loss": 2068,
      "wri": 2069,
      "tilde": 2070,
      "fication": 2071,
      "ie": 2072,
      "turn": 2073,
      "cut": 2074,
      "boson": 2075,
      "regime": 2076,
      "ument": 2077,
      "dashed": 2078,
      "kine": 2079,
      "experiments": 2080,
      "horizon": 2081,
      "Tit": 2082,
      "events": 2083,
      "Sections": 2084,
      "gest": 2085,
      "extended": 2086,
      "Untitled": 2087,
      "Abstract": 2088,
      "Title": 2089,
      "match": 2090,
      "element": 2091,
      "hydro": 2092,
      "pose": 2093,
      "xmath81": 2094,
      "layer": 2095,
      "dynamical": 2096,
      "trivi": 2097,
      "1998": 2098,
      "manif": 2099,
      "best": 2100,
      "assumed": 2101,
      "induced": 2102,
      "burst": 2103,
      "algebra": 2104,
      "series": 2105,
      "xmath98": 2106,
      "respon": 2107,
      "accre": 2108,
      "vertex": 2109,
      "typical": 2110,
      "latter": 2111,
      "leading": 2112,
      "mixing": 2113,
      "phenomen": 2114,
      "diffu": 2115,
      "dent": 2116,
      "run": 2117,
      "relev": 2118,
      "square": 2119,
      "interval": 2120,
      "shell": 2121,
      "base": 2122,
      "dark": 2123,
      "sche": 2124,
      "hard": 2125,
      "arg": 2126,
      "fies": 2127,
      "always": 2128,
      "xmath99": 2129,
      "node": 2130,
      "performed": 2131,
      "197": 2132,
      "k_": 2133,
      "ail": 2134,
      "array": 2135,
      "begin": 2136,
      "discre": 2137,
      "methods": 2138,
      "eta": 2139,
      "describe": 2140,
      "sections": 2141,
      "ready": 2142,
      "lect": 2143,
      "atoms": 2144,
      "55": 2145,
      "faces": 2146,
      "~~": 2147,
      "restric": 2148,
      "changes": 2149,
      "blu": 2150,
      "area": 2151,
      "include": 2152,
      "techni": 2153,
      "dm": 2154,
      "xmath107": 2155,
      "wide": 2156,
      "vac": 2157,
      "xmath102": 2158,
      "uniform": 2159,
      "forms": 2160,
      "gene": 2161,
      "diagonal": 2162,
      "clearly": 2163,
      "become": 2164,
      "dra": 2165,
      "r_": 2166,
      "minim": 2167,
      "xmath82": 2168,
      "slo": 2169,
      "xmath103": 2170,
      "xmath105": 2171,
      "tom": 2172,
      "hel": 2173,
      "detected": 2174,
      "taking": 2175,
      "micro": 2176,
      "write": 2177,
      "rier": 2178,
      "situ": 2179,
      "mary": 2180,
      "product": 2181,
      "produced": 2182,
      "tence": 2183,
      "universe": 2184,
      "profile": 2185,
      "spatial": 2186,
      "bs": 2187,
      "ones": 2188,
      "demon": 2189,
      "enough": 2190,
      "xmath115": 2191,
      "bot": 2192,
      "xmath106": 2193,
      "jection": 2194,
      "required": 2195,
      "ible": 2196,
      "connec": 2197,
      "lock": 2198,
      "half": 2199,
      "directly": 2200,
      "add": 2201,
      "fluid": 2202,
      "limits": 2203,
      "resulting": 2204,
      "nature": 2205,
      "arbit": 2206,
      "variables": 2207,
      "branch": 2208,
      "generated": 2209,
      "avy": 2210,
      "appears": 2211,
      "hat": 2212,
      "white": 2213,
      "}}\\": 2214,
      "xmath93": 2215,
      "jor": 2216,
      "agn": 2217,
      "wavel": 2218,
      "instead": 2219,
      "smooth": 2220,
      "fs": 2221,
      "wavelength": 2222,
      "orient": 2223,
      "stitu": 2224,
      "maps": 2225,
      "split": 2226,
      "feature": 2227,
      "continuum": 2228,
      "obser": 2229,
      "assuming": 2230,
      "shape": 2231,
      "ird": 2232,
      "scen": 2233,
      "tron": 2234,
      "population": 2235,
      "medium": 2236,
      "rotation": 2237,
      "arbitr": 2238,
      "ay": 2239,
      "bright": 2240,
      "tor": 2241,
      "distributions": 2242,
      "minimum": 2243,
      "proced": 2244,
      "trivial": 2245,
      "already": 2246,
      "control": 2247,
      "2008": 2248,
      "1996": 2249,
      "1999": 2250,
      ".[": 2251,
      "tation": 2252,
      "optimal": 2253,
      "03": 2254,
      "nodes": 2255,
      "recently": 2256,
      "m_": 2257,
      "sis": 2258,
      "constraints": 2259,
      "tree": 2260,
      "explo": 2261,
      "construction": 2262,
      "xmath110": 2263,
      "2009": 2264,
      "win": 2265,
      "calculate": 2266,
      "existence": 2267,
      "satisfy": 2268,
      "diagram": 2269,
      "vor": 2270,
      "xmath101": 2271,
      "colum": 2272,
      "significantly": 2273,
      "extr": 2274,
      "host": 2275,
      "unique": 2276,
      "broad": 2277,
      "transfer": 2278,
      "might": 2279,
      "choice": 2280,
      "gether": 2281,
      "osen": 2282,
      "44": 2283,
      "xmath91": 2284,
      "molecular": 2285,
      "isot": 2286,
      "together": 2287,
      "strongly": 2288,
      "avail": 2289,
      "representation": 2290,
      "syn": 2291,
      "yields": 2292,
      "whe": 2293,
      "pping": 2294,
      "icul": 2295,
      "relevant": 2296,
      "role": 2297,
      "chem": 2298,
      "chosen": 2299,
      "neutrino": 2300,
      "thres": 2301,
      "perturbation": 2302,
      "massi": 2303,
      "cos": 2304,
      "xmath94": 2305,
      "variable": 2306,
      "asymp": 2307,
      "rates": 2308,
      "version": 2309,
      "understand": 2310,
      "produce": 2311,
      "cate": 2312,
      "ngc": 2313,
      "almost": 2314,
      "spectro": 2315,
      "eck": 2316,
      "remo": 2317,
      "measurement": 2318,
      "polarization": 2319,
      "kes": 2320,
      "xmath120": 2321,
      "determine": 2322,
      "65": 2323,
      "densities": 2324,
      "heavy": 2325,
      "quasi": 2326,
      "acceler": 2327,
      "late": 2328,
      "support": 2329,
      "iled": 2330,
      "mor": 2331,
      "pure": 2332,
      "tered": 2333,
      "fully": 2334,
      "compare": 2335,
      "waves": 2336,
      "transm": 2337,
      "dynamic": 2338,
      "massive": 2339,
      "32": 2340,
      "halo": 2341,
      "actu": 2342,
      "repor": 2343,
      "encies": 2344,
      "xmath104": 2345,
      "mn": 2346,
      "forward": 2347,
      "xmath128": 2348,
      "resonance": 2349,
      ",@": 2350,
      "edges": 2351,
      "bey": 2352,
      "valid": 2353,
      "illu": 2354,
      "scenari": 2355,
      "asympto": 2356,
      "ately": 2357,
      "udes": 2358,
      "plas": 2359,
      "difficul": 2360,
      "08": 2361,
      "exist": 2362,
      "xmath109": 2363,
      "a_": 2364,
      "ry": 2365,
      "research": 2366,
      "dix": 2367,
      "coup": 2368,
      "dispersion": 2369,
      "mention": 2370,
      ",^": 2371,
      "flat": 2372,
      "available": 2373,
      "quar": 2374,
      "devi": 2375,
      "princi": 2376,
      "xmath114": 2377,
      "^{-": 2378,
      "estimated": 2379,
      "require": 2380,
      "cool": 2381,
      "scopic": 2382,
      "necessary": 2383,
      "hil": 2384,
      "correct": 2385,
      "fam": 2386,
      "loy": 2387,
      "xmath92": 2388,
      "observation": 2389,
      "useful": 2390,
      "}{}": 2391,
      "title": 2392,
      "tivistic": 2393,
      "easi": 2394,
      "among": 2395,
      "amoun": 2396,
      "plac": 2397,
      "provided": 2398,
      "whether": 2399,
      "appen": 2400,
      "}$": 2401,
      "xmath108": 2402,
      "allows": 2403,
      "major": 2404,
      "blue": 2405,
      "ences": 2406,
      "km": 2407,
      "ens": 2408,
      "qual": 2409,
      "deriv": 2410,
      "input": 2411,
      "regular": 2412,
      "appendix": 2413,
      "ging": 2414,
      "global": 2415,
      "topo": 2416,
      "extre": 2417,
      "pur": 2418,
      "31": 2419,
      "ters": 2420,
      "extern": 2421,
      "details": 2422,
      "xmath122": 2423,
      "description": 2424,
      "furthermore": 2425,
      "wards": 2426,
      "relativistic": 2427,
      "composi": 2428,
      "rich": 2429,
      "xmath119": 2430,
      "lation": 2431,
      "xmath118": 2432,
      "holds": 2433,
      "&@": 2434,
      "bary": 2435,
      "sof": 2436,
      "bon": 2437,
      "lap": 2438,
      "xmath125": 2439,
      "bigg": 2440,
      "07": 2441,
      "altern": 2442,
      "fluctuations": 2443,
      "fermion": 2444,
      "09": 2445,
      "tz": 2446,
      "entangle": 2447,
      "singular": 2448,
      "tle": 2449,
      "cycle": 2450,
      "aba": 2451,
      "xmath113": 2452,
      "included": 2453,
      "introduced": 2454,
      "procedure": 2455,
      "mations": 2456,
      "arent": 2457,
      "xmath117": 2458,
      "gran": 2459,
      "theta": 2460,
      "exten": 2461,
      "rap": 2462,
      "abl": 2463,
      "lie": 2464,
      "relatively": 2465,
      "icity": 2466,
      "compact": 2467,
      "correspond": 2468,
      "coupled": 2469,
      "external": 2470,
      "}}{": 2471,
      "early": 2472,
      "supported": 2473,
      "ned": 2474,
      "xmath126": 2475,
      "configuration": 2476,
      "assumption": 2477,
      "material": 2478,
      "discuss": 2479,
      "chiral": 2480,
      "basic": 2481,
      "xmath116": 2482,
      "ize": 2483,
      ".([": 2484,
      "suc": 2485,
      "forming": 2486,
      "ules": 2487,
      "denotes": 2488,
      "publ": 2489,
      "xmath112": 2490,
      "photons": 2491,
      "orth": 2492,
      "images": 2493,
      "corrections": 2494,
      "intern": 2495,
      "metall": 2496,
      "mid": 2497,
      "iii": 2498,
      "vacu": 2499,
      "third": 2500,
      "grow": 2501,
      "natural": 2502,
      "bottom": 2503,
      "multiple": 2504,
      "uv": 2505,
      "original": 2506,
      "mechanism": 2507,
      "bol": 2508,
      "green": 2509,
      "better": 2510,
      "commun": 2511,
      "xmath136": 2512,
      "1997": 2513,
      "sum_": 2514,
      "sigma_": 2515,
      "true": 2516,
      "concentr": 2517,
      "proposition": 2518,
      "xmath129": 2519,
      "nucl": 2520,
      "entanglement": 2521,
      "2012": 2522,
      "2011": 2523,
      "collabor": 2524,
      "bands": 2525,
      "averag": 2526,
      "errors": 2527,
      ":\"": 2528,
      "rt": 2529,
      "2010": 2530,
      "numbers": 2531,
      "jac": 2532,
      "|\\": 2533,
      "entropy": 2534,
      "abili": 2535,
      "xmath134": 2536,
      "frequencies": 2537,
      "xmath123": 2538,
      "sw": 2539,
      "exclu": 2540,
      "fine": 2541,
      "factors": 2542,
      "propor": 2543,
      "bullet": 2544,
      "xmath121": 2545,
      "1995": 2546,
      "speed": 2547,
      "arbitrary": 2548,
      "display": 2549,
      "lep": 2550,
      "quite": 2551,
      "strated": 2552,
      "berg": 2553,
      "systematic": 2554,
      "accretion": 2555,
      "exhi": 2556,
      "nomi": 2557,
      "collap": 2558,
      "collisions": 2559,
      "kev": 2560,
      "ories": 2561,
      "reported": 2562,
      "99": 2563,
      "mari": 2564,
      "stri": 2565,
      "provides": 2566,
      "scheme": 2567,
      "sic": 2568,
      "quantities": 2569,
      "diffusion": 2570,
      "zing": 2571,
      "threshold": 2572,
      "pairs": 2573,
      "xmath127": 2574,
      "gravitational": 2575,
      "geneous": 2576,
      "vacuum": 2577,
      "dr": 2578,
      "liqu": 2579,
      "cial": 2580,
      "polynomi": 2581,
      "p_": 2582,
      "indivi": 2583,
      "scaled": 2584,
      "110": 2585,
      "refer": 2586,
      "hood": 2587,
      "adop": 2588,
      "evidence": 2589,
      "remains": 2590,
      "34": 2591,
      "66": 2592,
      "mental": 2593,
      "imple": 2594,
      "04": 2595,
      "tab": 2596,
      "mono": 2597,
      "aneous": 2598,
      "prove": 2599,
      "static": 2600,
      "suppres": 2601,
      "enh": 2602,
      "alle": 2603,
      "exchange": 2604,
      "xmath111": 2605,
      "transformation": 2606,
      "stre": 2607,
      "gram": 2608,
      "variance": 2609,
      "abund": 2610,
      "xmath124": 2611,
      "fut": 2612,
      "ene": 2613,
      "sus": 2614,
      "xmath133": 2615,
      "indicates": 2616,
      "gence": 2617,
      "ined": 2618,
      "code": 2619,
      "tailed": 2620,
      "easily": 2621,
      "liquid": 2622,
      "kin": 2623,
      "coordinates": 2624,
      "future": 2625,
      "je": 2626,
      "intermediate": 2627,
      "generate": 2628,
      "slight": 2629,
      "mathsf": 2630,
      "lea": 2631,
      "simply": 2632,
      "atomic": 2633,
      "contribu": 2634,
      "75": 2635,
      "ends": 2636,
      "groups": 2637,
      "joint": 2638,
      "establ": 2639,
      "rapid": 2640,
      "detailed": 2641,
      "namely": 2642,
      "transport": 2643,
      "envi": 2644,
      "ght": 2645,
      "contrast": 2646,
      "neighbor": 2647,
      "mathop": 2648,
      "constraint": 2649,
      "sd": 2650,
      "matr": 2651,
      "xmath138": 2652,
      "^\\": 2653,
      "done": 2654,
      "uncertainty": 2655,
      "ull": 2656,
      "vertices": 2657,
      "doi": 2658,
      "ov": 2659,
      "000": 2660,
      "ried": 2661,
      "represents": 2662,
      "neutral": 2663,
      "vary": 2664,
      "confir": 2665,
      "environ": 2666,
      "domain": 2667,
      "nonlinear": 2668,
      "mbol": 2669,
      "discussion": 2670,
      "adiaba": 2671,
      "2d": 2672,
      "takes": 2673,
      "[\\": 2674,
      "cup": 2675,
      "rac": 2676,
      "nucleon": 2677,
      "erent": 2678,
      "ratios": 2679,
      "special": 2680,
      "conserv": 2681,
      "advan": 2682,
      "height": 2683,
      "^{(": 2684,
      "auth": 2685,
      "computed": 2686,
      "matrices": 2687,
      "having": 2688,
      "cat": 2689,
      "qcd": 2690,
      "puls": 2691,
      "]\\": 2692,
      "ris": 2693,
      "supercondu": 2694,
      "parts": 2695,
      "transitions": 2696,
      "68": 2697,
      "similarly": 2698,
      "shifts": 2699,
      "precise": 2700,
      "01": 2701,
      "cas": 2702,
      "exactly": 2703,
      "xmath131": 2704,
      "situation": 2705,
      "intr": 2706,
      "never": 2707,
      "entire": 2708,
      "observe": 2709,
      "expressed": 2710,
      "survey": 2711,
      "02": 2712,
      "conden": 2713,
      "construct": 2714,
      "jun": 2715,
      "sm": 2716,
      "once": 2717,
      "efficiency": 2718,
      "occurs": 2719,
      "hadron": 2720,
      "rang": 2721,
      "solar": 2722,
      "69": 2723,
      "iles": 2724,
      "choose": 2725,
      "separation": 2726,
      "titu": 2727,
      "hot": 2728,
      "whereas": 2729,
      "xmath137": 2730,
      "employ": 2731,
      "composition": 2732,
      "user": 2733,
      "xmath135": 2734,
      "coefficient": 2735,
      "lis": 2736,
      "yst": 2737,
      "xmath130": 2738,
      "xmath145": 2739,
      "canon": 2740,
      "column": 2741,
      "plasma": 2742,
      "indicate": 2743,
      "proportional": 2744,
      "functional": 2745,
      "kernel": 2746,
      "beyond": 2747,
      "requires": 2748,
      ")}": 2749,
      "cour": 2750,
      "fami": 2751,
      "rid": 2752,
      "ud": 2753,
      "introduce": 2754,
      "compute": 2755,
      "check": 2756,
      "proton": 2757,
      "positions": 2758,
      "property": 2759,
      "mathbb": 2760,
      "clouds": 2761,
      "shall": 2762,
      "xmath147": 2763,
      "neutron": 2764,
      "ellip": 2765,
      "minimal": 2766,
      "partition": 2767,
      "xmath132": 2768,
      "integration": 2769,
      "minimi": 2770,
      "mentioned": 2771,
      "64": 2772,
      "pes": 2773,
      "xmath144": 2774,
      "binary": 2775,
      "post": 2776,
      "prac": 2777,
      "generalized": 2778,
      "57": 2779,
      "inside": 2780,
      "att": 2781,
      "target": 2782,
      "extreme": 2783,
      "diver": 2784,
      "adiabatic": 2785,
      "ference": 2786,
      "temperatures": 2787,
      "treat": 2788,
      "reve": 2789,
      "recall": 2790,
      "tries": 2791,
      "sites": 2792,
      "homogeneous": 2793,
      "design": 2794,
      "conclude": 2795,
      "collaboration": 2796,
      "collision": 2797,
      "intensity": 2798,
      "fac": 2799,
      "forman": 2800,
      "phases": 2801,
      "ling": 2802,
      "xmath148": 2803,
      "combination": 2804,
      "interacting": 2805,
      "isomorph": 2806,
      "ket": 2807,
      "counter": 2808,
      "outer": 2809,
      "cosmological": 2810,
      "slope": 2811,
      "\\,\\": 2812,
      "ras": 2813,
      "mev": 2814,
      "angles": 2815,
      "world": 2816,
      "bounded": 2817,
      "profiles": 2818,
      "straight": 2819,
      "ects": 2820,
      "heat": 2821,
      "expand": 2822,
      "differences": 2823,
      "relax": 2824,
      "usual": 2825,
      "funda": 2826,
      "variation": 2827,
      "statistical": 2828,
      "fre": 2829,
      "vare": 2830,
      "remark": 2831,
      "canonical": 2832,
      "obvious": 2833,
      "correlations": 2834,
      "cand": 2835,
      "evol": 2836,
      "1994": 2837,
      "reco": 2838,
      "years": 2839,
      "patter": 2840,
      "thin": 2841,
      "aries": 2842,
      "against": 2843,
      "ised": 2844,
      "often": 2845,
      "located": 2846,
      ",^,^": 2847,
      "quarks": 2848,
      "67": 2849,
      "mathcal": 2850,
      "dop": 2851,
      "identified": 2852,
      "uncertainties": 2853,
      "track": 2854,
      "xmath154": 2855,
      "types": 2856,
      "cdot": 2857,
      "chemical": 2858,
      "port": 2859,
      "metal": 2860,
      "2013": 2861,
      "detect": 2862,
      "cloud": 2863,
      "organ": 2864,
      "nm": 2865,
      "cali": 2866,
      "}}}{": 2867,
      "xmath142": 2868,
      "propagation": 2869,
      "moving": 2870,
      "substitu": 2871,
      "coordinate": 2872,
      "science": 2873,
      "hz": 2874,
      "ities": 2875,
      "appropri": 2876,
      "58": 2877,
      "f_": 2878,
      "pse": 2879,
      "issu": 2880,
      "odd": 2881,
      "xmath139": 2882,
      "amount": 2883,
      ")-": 2884,
      "rs": 2885,
      "limi": 2886,
      "depending": 2887,
      "consists": 2888,
      "coinci": 2889,
      "units": 2890,
      "possibility": 2891,
      "59": 2892,
      "vectors": 2893,
      "xmath149": 2894,
      "derive": 2895,
      "limited": 2896,
      "d_": 2897,
      "gment": 2898,
      "influ": 2899,
      "considering": 2900,
      "constructed": 2901,
      "sq": 2902,
      "too": 2903,
      "weight": 2904,
      "gian": 2905,
      "cryst": 2906,
      "dominated": 2907,
      "inal": 2908,
      "quantity": 2909,
      "decreases": 2910,
      "approximately": 2911,
      "ran": 2912,
      "wal": 2913,
      "performan": 2914,
      "xmath143": 2915,
      "pped": 2916,
      "gluon": 2917,
      "isms": 2918,
      "stability": 2919,
      "xmath141": 2920,
      "inverse": 2921,
      "embed": 2922,
      "scenario": 2923,
      "fu": 2924,
      "cited": 2925,
      "ller": 2926,
      "levels": 2927,
      "dominant": 2928,
      "predicted": 2929,
      "individual": 2930,
      ")@": 2931,
      "arc": 2932,
      "tage": 2933,
      "difficult": 2934,
      "dec": 2935,
      "excitation": 2936,
      "kpc": 2937,
      "vertical": 2938,
      "simpli": 2939,
      "cla": 2940,
      "hc": 2941,
      "vs": 2942,
      "longer": 2943,
      "bly": 2944,
      "preser": 2945,
      "notice": 2946,
      "xmath146": 2947,
      "primary": 2948,
      "graphs": 2949,
      "help": 2950,
      "cities": 2951,
      "xmath159": 2952,
      "nuclei": 2953,
      "object": 2954,
      "gravity": 2955,
      "accuracy": 2956,
      "sensitive": 2957,
      "varepsilon": 2958,
      "review": 2959,
      "ceed": 2960,
      "excess": 2961,
      "paralle": 2962,
      "xmath153": 2963,
      "53": 2964,
      "hd": 2965,
      "semi": 2966,
      "tingu": 2967,
      "satisfies": 2968,
      "essential": 2969,
      "xmath140": 2970,
      "laser": 2971,
      "entially": 2972,
      "tour": 2973,
      "lagran": 2974,
      "impur": 2975,
      "equality": 2976,
      "networks": 2977,
      "fundamental": 2978,
      "lli": 2979,
      "orientation": 2980,
      "//": 2981,
      "zi": 2982,
      "tives": 2983,
      "xmath150": 2984,
      "sufficiently": 2985,
      "ins": 2986,
      "ars": 2987,
      "ulari": 2988,
      "distribu": 2989,
      "collapse": 2990,
      "slightly": 2991,
      "rangle": 2992,
      "surfaces": 2993,
      "rule": 2994,
      "54": 2995,
      "key": 2996,
      ";\\": 2997,
      "cation": 2998,
      "generally": 2999,
      "prime": 3000,
      "tracted": 3001,
      "abilities": 3002,
      "common": 3003,
      "estimates": 3004,
      "udo": 3005,
      "optimi": 3006,
      "lig": 3007,
      "pically": 3008,
      "candid": 3009,
      "distingu": 3010,
      "renor": 3011,
      "problems": 3012,
      "fitting": 3013,
      "ls": 3014,
      "ani": 3015,
      "exam": 3016,
      "_n": 3017,
      "htt": 3018,
      "identify": 3019,
      "itself": 3020,
      "achi": 3021,
      "gradi": 3022,
      "xmath157": 3023,
      "atively": 3024,
      "try": 3025,
      "baryon": 3026,
      "zes": 3027,
      "bulk": 3028,
      "{-": 3029,
      "trapp": 3030,
      "pseudo": 3031,
      "pla": 3032,
      "taneous": 3033,
      "xmath151": 3034,
      "ferro": 3035,
      "predictions": 3036,
      "question": 3037,
      "categ": 3038,
      "://": 3039,
      "},\\": 3040,
      "say": 3041,
      "transmission": 3042,
      "placed": 3043,
      "^-": 3044,
      "fla": 3045,
      "xmath152": 3046,
      "expressions": 3047,
      "focus": 3048,
      "nucleus": 3049,
      "lagrangian": 3050,
      "mathrm": 3051,
      "until": 3052,
      "lesco": 3053,
      "commu": 3054,
      "geometry": 3055,
      "response": 3056,
      "reference": 3057,
      "velocities": 3058,
      "eigenvalues": 3059,
      "thick": 3060,
      "telesco": 3061,
      "cially": 3062,
      "xmath165": 3063,
      "performance": 3064,
      "stage": 3065,
      "active": 3066,
      "vered": 3067,
      "resol": 3068,
      "lier": 3069,
      "ages": 3070,
      "sequently": 3071,
      "metallicity": 3072,
      "wind": 3073,
      "conve": 3074,
      "appropriate": 3075,
      "len": 3076,
      "slow": 3077,
      "except": 3078,
      "proto": 3079,
      "xmath156": 3080,
      "asymptotic": 3081,
      "ster": 3082,
      "oscillations": 3083,
      "explicitly": 3084,
      "97": 3085,
      "mit": 3086,
      "own": 3087,
      "atory": 3088,
      "typically": 3089,
      "usually": 3090,
      "apply": 3091,
      "detector": 3092,
      "modified": 3093,
      "coherent": 3094,
      "http": 3095,
      "cha": 3096,
      "developed": 3097,
      "xmath158": 3098,
      "success": 3099,
      "achiev": 3100,
      "samples": 3101,
      "distin": 3102,
      "circular": 3103,
      "ads": 3104,
      "coming": 3105,
      "investigate": 3106,
      "dwar": 3107,
      "{(": 3108,
      "infr": 3109,
      "denoted": 3110,
      "sense": 3111,
      "plotted": 3112,
      "start": 3113,
      "gue": 3114,
      "rise": 3115,
      "thesis": 3116,
      "sem": 3117,
      "vir": 3118,
      "ski": 3119,
      "suppose": 3120,
      "sufficient": 3121,
      "finding": 3122,
      "depth": 3123,
      "starting": 3124,
      "computation": 3125,
      "jected": 3126,
      "words": 3127,
      "analytic": 3128,
      "hn": 3129,
      "ya": 3130,
      "max": 3131,
      "viol": 3132,
      "dow": 3133,
      "xmath167": 3134,
      "charged": 3135,
      "amplitudes": 3136,
      "instance": 3137,
      "mathbf": 3138,
      "nova": 3139,
      "figs": 3140,
      "suggests": 3141,
      "_j": 3142,
      "traject": 3143,
      "allowed": 3144,
      "decrease": 3145,
      "renormali": 3146,
      "eqn": 3147,
      "asymmetr": 3148,
      "kov": 3149,
      "universal": 3150,
      "away": 3151,
      "towards": 3152,
      "ropic": 3153,
      "tag": 3154,
      "adjac": 3155,
      "completely": 3156,
      "...": 3157,
      "family": 3158,
      "ety": 3159,
      "epsilon": 3160,
      "exponential": 3161,
      "whole": 3162,
      "freed": 3163,
      "parallel": 3164,
      "95": 3165,
      "ball": 3166,
      "yn": 3167,
      "consequence": 3168,
      "compres": 3169,
      "overall": 3170,
      "apparent": 3171,
      "reduci": 3172,
      "accurate": 3173,
      "layers": 3174,
      "yet": 3175,
      "eng": 3176,
      "selected": 3177,
      "ledge": 3178,
      "xmath177": 3179,
      "longit": 3180,
      "avoid": 3181,
      "proceed": 3182,
      "excited": 3183,
      "figures": 3184,
      "dimensions": 3185,
      "calibr": 3186,
      "ired": 3187,
      "})": 3188,
      "projection": 3189,
      "}\\,\\": 3190,
      "upon": 3191,
      "numerically": 3192,
      "resi": 3193,
      "87": 3194,
      "rays": 3195,
      "disc": 3196,
      "weigh": 3197,
      "meson": 3198,
      "analytical": 3199,
      "improve": 3200,
      "anni": 3201,
      "forces": 3202,
      "quas": 3203,
      "setting": 3204,
      "combined": 3205,
      "argument": 3206,
      "sect": 3207,
      "cei": 3208,
      "uses": 3209,
      "channels": 3210,
      "dirac": 3211,
      "xmath164": 3212,
      "sequences": 3213,
      "harmon": 3214,
      "hist": 3215,
      "makes": 3216,
      "manifold": 3217,
      "discrete": 3218,
      "principle": 3219,
      "dense": 3220,
      "lastic": 3221,
      "transform": 3222,
      "infrared": 3223,
      "ben": 3224,
      "var": 3225,
      "repe": 3226,
      "represented": 3227,
      "noted": 3228,
      "xmath163": 3229,
      "planet": 3230,
      "cru": 3231,
      "nearly": 3232,
      "cooling": 3233,
      "net": 3234,
      "technique": 3235,
      "sector": 3236,
      "xmath160": 3237,
      "highly": 3238,
      "semble": 3239,
      "c_": 3240,
      "internal": 3241,
      "gate": 3242,
      "s_": 3243,
      "ots": 3244,
      "espe": 3245,
      "polar": 3246,
      "inflation": 3247,
      "member": 3248,
      "stream": 3249,
      "instr": 3250,
      "output": 3251,
      "asp": 3252,
      "fill": 3253,
      "lowest": 3254,
      "auto": 3255,
      "needed": 3256,
      "course": 3257,
      "56": 3258,
      "fl": 3259,
      "sate": 3260,
      "sne": 3261,
      "ordered": 3262,
      "dev": 3263,
      "especially": 3264,
      "concer": 3265,
      "shar": 3266,
      "water": 3267,
      "magneti": 3268,
      "grees": 3269,
      "bble": 3270,
      "degrees": 3271,
      "contour": 3272,
      "thermo": 3273,
      "going": 3274,
      "lepton": 3275,
      "air": 3276,
      "ati": 3277,
      "fits": 3278,
      "arily": 3279,
      "1993": 3280,
      "category": 3281,
      "ken": 3282,
      "otherwise": 3283,
      "authors": 3284,
      "junction": 3285,
      "88": 3286,
      "uments": 3287,
      "77": 3288,
      "solve": 3289,
      "earlier": 3290,
      "explained": 3291,
      "pion": 3292,
      "implement": 3293,
      "reducible": 3294,
      "ont": 3295,
      "context": 3296,
      "chro": 3297,
      "curv": 3298,
      "suggested": 3299,
      "xmath170": 3300,
      "six": 3301,
      "qubit": 3302,
      "xmath166": 3303,
      "carried": 3304,
      "licity": 3305,
      "derivative": 3306,
      "opposi": 3307,
      "xmath155": 3308,
      "cp": 3309,
      "xmath180": 3310,
      "geodes": 3311,
      "neglig": 3312,
      "actually": 3313,
      "occup": 3314,
      "sons": 3315,
      "atmo": 3316,
      "xmath171": 3317,
      "empty": 3318,
      "hydrogen": 3319,
      "opposite": 3320,
      "block": 3321,
      "g_": 3322,
      "mach": 3323,
      "notation": 3324,
      "selection": 3325,
      "constants": 3326,
      "liter": 3327,
      "child": 3328,
      "youn": 3329,
      "trace": 3330,
      "tual": 3331,
      "@.@": 3332,
      "game": 3333,
      "emer": 3334,
      "multiplic": 3335,
      "approaches": 3336,
      "applications": 3337,
      "station": 3338,
      "olute": 3339,
      "xmath178": 3340,
      "Ch": 3341,
      "normalized": 3342,
      "conveni": 3343,
      "intrin": 3344,
      "ader": 3345,
      "examples": 3346,
      "distances": 3347,
      "brid": 3348,
      "xmath168": 3349,
      "applying": 3350,
      "drop": 3351,
      "freedom": 3352,
      "care": 3353,
      "acts": 3354,
      "axi": 3355,
      "ki": 3356,
      "ass": 3357,
      "summari": 3358,
      "solit": 3359,
      "43": 3360,
      "null": 3361,
      "describes": 3362,
      "skp": 3363,
      "comparable": 3364,
      "qualit": 3365,
      "42": 3366,
      "He": 3367,
      "ross": 3368,
      "spaces": 3369,
      "seems": 3370,
      "orbital": 3371,
      "abundance": 3372,
      "41": 3373,
      "bert": 3374,
      "bias": 3375,
      "absolute": 3376,
      "extra": 3377,
      "fall": 3378,
      "narrow": 3379,
      "belong": 3380,
      "spherical": 3381,
      "contact": 3382,
      "picture": 3383,
      "longitud": 3384,
      "fast": 3385,
      "foc": 3386,
      "2014": 3387,
      "steps": 3388,
      "turbul": 3389,
      "framework": 3390,
      "cost": 3391,
      "tative": 3392,
      "disco": 3393,
      "dots": 3394,
      "xmath169": 3395,
      "isotropic": 3396,
      "outside": 3397,
      "xmath162": 3398,
      "suggest": 3399,
      "fou": 3400,
      "reduction": 3401,
      "kinematic": 3402,
      "understanding": 3403,
      "pd": 3404,
      "tev": 3405,
      "program": 3406,
      "thank": 3407,
      "species": 3408,
      "dotted": 3409,
      "list": 3410,
      "ming": 3411,
      "making": 3412,
      "ises": 3413,
      "atten": 3414,
      "realistic": 3415,
      "cep": 3416,
      "disks": 3417,
      "previously": 3418,
      "sight": 3419,
      "spacetime": 3420,
      "absence": 3421,
      "sensitivity": 3422,
      "greater": 3423,
      ":\",": 3424,
      "attemp": 3425,
      "lomb": 3426,
      "five": 3427,
      "keep": 3428,
      "observational": 3429,
      "integrated": 3430,
      "statistics": 3431,
      "jets": 3432,
      "mber": 3433,
      "interface": 3434,
      "annihil": 3435,
      "theless": 3436,
      "reduce": 3437,
      "curvature": 3438,
      "52": 3439,
      "bif": 3440,
      "god": 3441,
      "criter": 3442,
      "remaining": 3443,
      "tunnel": 3444,
      "cosmic": 3445,
      "largest": 3446,
      "xmath161": 3447,
      "longitudinal": 3448,
      "maximal": 3449,
      "interpretation": 3450,
      "grid": 3451,
      "decays": 3452,
      "soft": 3453,
      "adjacent": 3454,
      "negligible": 3455,
      "mathord": 3456,
      "variability": 3457,
      "works": 3458,
      "63": 3459,
      "easy": 3460,
      "}[": 3461,
      "150": 3462,
      "pm": 3463,
      "flows": 3464,
      "quadra": 3465,
      "sqrt": 3466,
      "impurity": 3467,
      "convergence": 3468,
      "mnras": 3469,
      "hspace": 3470,
      "move": 3471,
      "unstable": 3472,
      "zeta": 3473,
      "recei": 3474,
      "sun": 3475,
      "ideal": 3476,
      "assign": 3477,
      "stein": 3478,
      "literature": 3479,
      "mathe": 3480,
      "ision": 3481,
      "ley": 3482,
      "formations": 3483,
      "cavity": 3484,
      "connection": 3485,
      "blo": 3486,
      "qui": 3487,
      "grant": 3488,
      "analog": 3489,
      "hip": 3490,
      "emit": 3491,
      "ann": 3492,
      "symbol": 3493,
      "pulse": 3494,
      "efficient": 3495,
      "splitting": 3496,
      "polynomial": 3497,
      "fourier": 3498,
      "sl": 3499,
      "location": 3500,
      "instability": 3501,
      "diagrams": 3502,
      "orthog": 3503,
      ")=": 3504,
      "}^{\\": 3505,
      "bosons": 3506,
      "crystal": 3507,
      "trapped": 3508,
      "51": 3509,
      "plus": 3510,
      "radii": 3511,
      "fail": 3512,
      "relaxation": 3513,
      "gets": 3514,
      "erences": 3515,
      "xmath172": 3516,
      "ionization": 3517,
      "hypo": 3518,
      "fermions": 3519,
      "visible": 3520,
      "normalization": 3521,
      "distinguish": 3522,
      "inos": 3523,
      "dipole": 3524,
      "fila": 3525,
      "limin": 3526,
      "regard": 3527,
      "~~~~": 3528,
      "&=": 3529,
      "ering": 3530,
      "orbits": 3531,
      "perform": 3532,
      "xmath175": 3533,
      "xel": 3534,
      "did": 3535,
      "subset": 3536,
      "scaledwidth": 3537,
      "3d": 3538,
      "}-": 3539,
      "don": 3540,
      "ky": 3541,
      "xmath176": 3542,
      "deriva": 3543,
      "orthogonal": 3544,
      "derivatives": 3545,
      "pen": 3546,
      "onto": 3547,
      "across": 3548,
      "xmath181": 3549,
      "formalism": 3550,
      "ee": 3551,
      "train": 3552,
      "throughout": 3553,
      "claim": 3554,
      ")}}}}": 3555,
      "sou": 3556,
      "increased": 3557,
      "logari": 3558,
      "characterized": 3559,
      "configurations": 3560,
      "ai": 3561,
      "eu": 3562,
      "vert": 3563,
      "life": 3564,
      "xmath173": 3565,
      "overlap": 3566,
      "potentials": 3567,
      "pattern": 3568,
      ".-": 3569,
      "},": 3570,
      "itch": 3571,
      "grb": 3572,
      "crossing": 3573,
      "identity": 3574,
      "resonant": 3575,
      "evaluated": 3576,
      "kinetic": 3577,
      "environment": 3578,
      "telescope": 3579,
      "b_": 3580,
      "xmath183": 3581,
      "measures": 3582,
      "integer": 3583,
      "includes": 3584,
      "reduces": 3585,
      "fav": 3586,
      "wall": 3587,
      "variations": 3588,
      "1992": 3589,
      "survi": 3590,
      "bath": 3591,
      "exponent": 3592,
      "xmath200": 3593,
      "xmath179": 3594,
      "holes": 3595,
      "identical": 3596,
      "behaviour": 3597,
      "rig": 3598,
      "v_": 3599,
      "semic": 3600,
      "loren": 3601,
      "little": 3602,
      "correlated": 3603,
      "techniques": 3604,
      "lack": 3605,
      "unity": 3606,
      "influence": 3607,
      "gradient": 3608,
      "ening": 3609,
      "trig": 3610,
      "implic": 3611,
      "xmath174": 3612,
      "day": 3613,
      "conclusion": 3614,
      "reveal": 3615,
      "dal": 3616,
      "}{{{\\": 3617,
      "indicated": 3618,
      "xmath195": 3619,
      "margin": 3620,
      "couplings": 3621,
      "cam": 3622,
      "samp": 3623,
      "filter": 3624,
      "lm": 3625,
      "containing": 3626,
      "electromagnetic": 3627,
      "deviation": 3628,
      "coulomb": 3629,
      "supernova": 3630,
      "particularly": 3631,
      "120": 3632,
      "lhc": 3633,
      "mas": 3634,
      "vec": 3635,
      "showed": 3636,
      "indices": 3637,
      "intrinsic": 3638,
      "85": 3639,
      "pan": 3640,
      "}+": 3641,
      "irreducible": 3642,
      "reflection": 3643,
      "incident": 3644,
      "morph": 3645,
      "xmath189": 3646,
      "xmath197": 3647,
      "xmath199": 3648,
      "simultaneous": 3649,
      "university": 3650,
      "distinct": 3651,
      "cum": 3652,
      "immediate": 3653,
      "brief": 3654,
      "underlying": 3655,
      "peaks": 3656,
      "mixed": 3657,
      "imaging": 3658,
      "61": 3659,
      "caused": 3660,
      "recor": 3661,
      "initially": 3662,
      "roughly": 3663,
      "investigated": 3664,
      "chains": 3665,
      "cts": 3666,
      "infer": 3667,
      "tian": 3668,
      "prog": 3669,
      "proved": 3670,
      "adic": 3671,
      "62": 3672,
      "72": 3673,
      "82": 3674,
      "tang": 3675,
      "confin": 3676,
      "versus": 3677,
      "distributed": 3678,
      "xmath184": 3679,
      "bing": 3680,
      "gn": 3681,
      "orders": 3682,
      "izing": 3683,
      "mented": 3684,
      "fluxes": 3685,
      "coherence": 3686,
      "ade": 3687,
      "averaged": 3688,
      "harmonic": 3689,
      "look": 3690,
      "stress": 3691,
      "project": 3692,
      "ify": 3693,
      "ship": 3694,
      "xmath198": 3695,
      "timescal": 3696,
      "resonances": 3697,
      "geometric": 3698,
      "gl": 3699,
      "kind": 3700,
      "xmath182": 3701,
      "unitary": 3702,
      ":\\": 3703,
      "artic": 3704,
      "deep": 3705,
      "300": 3706,
      "isation": 3707,
      "ending": 3708,
      "refs": 3709,
      "rg": 3710,
      "2015": 3711,
      "@,@": 3712,
      "xmath187": 3713,
      "xmath194": 3714,
      "molecules": 3715,
      "suit": 3716,
      "complic": 3717,
      "breaking": 3718,
      "ological": 3719,
      "arri": 3720,
      "tempor": 3721,
      "zone": 3722,
      "isol": 3723,
      "probe": 3724,
      "ders": 3725,
      "xmath185": 3726,
      "xmath196": 3727,
      "produces": 3728,
      "estimation": 3729,
      "pixel": 3730,
      "quadratic": 3731,
      "anced": 3732,
      "degenerate": 3733,
      "highest": 3734,
      "doibase": 3735,
      "nevertheless": 3736,
      "ush": 3737,
      "appa": 3738,
      "adap": 3739,
      "pairing": 3740,
      "great": 3741,
      "catal": 3742,
      "stationary": 3743,
      "radiative": 3744,
      "ij": 3745,
      "circle": 3746,
      "young": 3747,
      "ws": 3748,
      "zz": 3749,
      "head": 3750,
      "stood": 3751,
      "application": 3752,
      "acceleration": 3753,
      "exhibit": 3754,
      "treatment": 3755,
      "96": 3756,
      "][": 3757,
      "ild": 3758,
      "allen": 3759,
      "comparing": 3760,
      "contained": 3761,
      "strict": 3762,
      "bursts": 3763,
      "An": 3764,
      "nano": 3765,
      "deal": 3766,
      "meter": 3767,
      "xmath188": 3768,
      "vanishing": 3769,
      "langle": 3770,
      "cold": 3771,
      "ids": 3772,
      "xmath190": 3773,
      "orial": 3774,
      "demonstrated": 3775,
      "ural": 3776,
      "shor": 3777,
      "rever": 3778,
      "changed": 3779,
      "reasonable": 3780,
      "understood": 3781,
      "ctivity": 3782,
      "reli": 3783,
      "brane": 3784,
      "assumptions": 3785,
      "singularity": 3786,
      "78": 3787,
      "79": 3788,
      "_3": 3789,
      "delay": 3790,
      "consequently": 3791,
      "parton": 3792,
      "xmath202": 3793,
      "idea": 3794,
      "vanishes": 3795,
      "ferromagnetic": 3796,
      "tren": 3797,
      "chas": 3798,
      "projec": 3799,
      "posed": 3800,
      "xmath193": 3801,
      "xmath206": 3802,
      "simulated": 3803,
      "geodesic": 3804,
      "oll": 3805,
      "separated": 3806,
      "sharp": 3807,
      "bund": 3808,
      "yle": 3809,
      "subst": 3810,
      "constitu": 3811,
      "multip": 3812,
      "horizontal": 3813,
      "contribute": 3814,
      "established": 3815,
      "fect": 3816,
      "press": 3817,
      "instein": 3818,
      "98": 3819,
      "uch": 3820,
      "ensemble": 3821,
      "eds": 3822,
      "compati": 3823,
      "stead": 3824,
      "plays": 3825,
      "ram": 3826,
      "1991": 3827,
      "xmath204": 3828,
      "directions": 3829,
      "communic": 3830,
      "achieved": 3831,
      "damp": 3832,
      "trun": 3833,
      "affected": 3834,
      "finement": 3835,
      "permu": 3836,
      "acknow": 3837,
      "xmath186": 3838,
      "hier": 3839,
      "sively": 3840,
      "perturbative": 3841,
      "topological": 3842,
      "public": 3843,
      "growth": 3844,
      "yl": 3845,
      "concentration": 3846,
      "analogous": 3847,
      "cf": 3848,
      "gers": 3849,
      "pn": 3850,
      "yu": 3851,
      "varying": 3852,
      "1d": 3853,
      "underline": 3854,
      "electronic": 3855,
      "suppressed": 3856,
      "rc": 3857,
      "lots": 3858,
      "xmath191": 3859,
      "decreasing": 3860,
      "purpose": 3861,
      "),": 3862,
      "xmath208": 3863,
      "rotating": 3864,
      "changing": 3865,
      "alternative": 3866,
      "&&": 3867,
      "mme": 3868,
      "int_": 3869,
      "xmath207": 3870,
      "conclusions": 3871,
      "moder": 3872,
      "xmath211": 3873,
      "poin": 3874,
      "binding": 3875,
      "representations": 3876,
      "resolved": 3877,
      "iner": 3878,
      "beli": 3879,
      "motiv": 3880,
      "dissi": 3881,
      "kel": 3882,
      "former": 3883,
      "variant": 3884,
      "ath": 3885,
      "inequality": 3886,
      "timate": 3887,
      "root": 3888,
      "moments": 3889,
      "heating": 3890,
      "straightforward": 3891,
      "flo": 3892,
      "qquad": 3893,
      "discussions": 3894,
      "bifur": 3895,
      "macro": 3896,
      "ours": 3897,
      "interference": 3898,
      "subject": 3899,
      "xmath192": 3900,
      "mainly": 3901,
      "issue": 3902,
      "500": 3903,
      "gover": 3904,
      "national": 3905,
      "ork": 3906,
      "decomposition": 3907,
      "modu": 3908,
      "impact": 3909,
      "92": 3910,
      "rh": 3911,
      "ford": 3912,
      "added": 3913,
      "observable": 3914,
      "afm": 3915,
      "infty": 3916,
      "accept": 3917,
      "involving": 3918,
      "magnetization": 3919,
      "vin": 3920,
      "vic": 3921,
      "references": 3922,
      "goes": 3923,
      "perturbations": 3924,
      "ited": 3925,
      "essentially": 3926,
      "halos": 3927,
      "past": 3928,
      "knowledge": 3929,
      "tunneling": 3930,
      ")$": 3931,
      ")[": 3932,
      "einstein": 3933,
      "conformal": 3934,
      "noop": 3935,
      "turns": 3936,
      "solving": 3937,
      "steady": 3938,
      "epo": 3939,
      "wo": 3940,
      "reaction": 3941,
      "shi": 3942,
      "goal": 3943,
      "colli": 3944,
      "propagator": 3945,
      "users": 3946,
      "content": 3947,
      "elastic": 3948,
      "ped": 3949,
      "infin": 3950,
      "leq": 3951,
      "spread": 3952,
      "quen": 3953,
      "satur": 3954,
      "tin": 3955,
      "intersection": 3956,
      "xmath205": 3957,
      "neutrinos": 3958,
      "emphas": 3959,
      "precisely": 3960,
      "xmath210": 3961,
      "xmath213": 3962,
      "imagin": 3963,
      "relationship": 3964,
      "ctive": 3965,
      "mapping": 3966,
      "team": 3967,
      "ask": 3968,
      "extracted": 3969,
      "build": 3970,
      "vortex": 3971,
      "lorentz": 3972,
      "jus": 3973,
      "happ": 3974,
      "strates": 3975,
      "bust": 3976,
      "secondary": 3977,
      "contradic": 3978,
      "neighb": 3979,
      "convex": 3980,
      "came": 3981,
      "qso": 3982,
      "generation": 3983,
      "matically": 3984,
      "stochas": 3985,
      "brightness": 3986,
      "extremely": 3987,
      "]\\\\": 3988,
      "entang": 3989,
      "phon": 3990,
      "xmath203": 3991,
      "solved": 3992,
      "photometry": 3993,
      "q_": 3994,
      "coroll": 3995,
      "barrier": 3996,
      "expectation": 3997,
      "cumul": 3998,
      "71": 3999,
      "ku": 4000,
      "n_": 4001,
      "x_": 4002,
      "said": 4003,
      "meaning": 4004,
      "ordan": 4005,
      "pump": 4006,
      "film": 4007,
      "pite": 4008,
      "tool": 4009,
      "style": 4010,
      "xmath216": 4011,
      "ghz": 4012,
      "signals": 4013,
      "somewhat": 4014,
      "xmath201": 4015,
      "chi_1": 4016,
      "experimentally": 4017,
      "affect": 4018,
      "history": 4019,
      "activity": 4020,
      "uli": 4021,
      "pow": 4022,
      "importance": 4023,
      "materials": 4024,
      "arguments": 4025,
      "removed": 4026,
      "logarith": 4027,
      "73": 4028,
      "94": 4029,
      "St": 4030,
      "bloc": 4031,
      "cra": 4032,
      "ior": 4033,
      "colors": 4034,
      "xmath227": 4035,
      "prediction": 4036,
      "loops": 4037,
      "pass": 4038,
      "satisfying": 4039,
      "scri": 4040,
      "eigenvalue": 4041,
      "extension": 4042,
      "epoch": 4043,
      "che": 4044,
      "mill": 4045,
      "substrate": 4046,
      "1990": 4047,
      "spins": 4048,
      "naturally": 4049,
      "instrument": 4050,
      "hierarch": 4051,
      "83": 4052,
      "kappa": 4053,
      "dielectric": 4054,
      "worth": 4055,
      "cylin": 4056,
      "simplicity": 4057,
      "rules": 4058,
      "wit": 4059,
      "acity": 4060,
      "perfect": 4061,
      "determination": 4062,
      "satisfied": 4063,
      "atmosphere": 4064,
      "cores": 4065,
      "diame": 4066,
      "pois": 4067,
      "directed": 4068,
      "rie": 4069,
      "cdm": 4070,
      "evaluate": 4071,
      "actual": 4072,
      "suitable": 4073,
      ")^{": 4074,
      "rup": 4075,
      "ining": 4076,
      "semb": 4077,
      "xmath212": 4078,
      "001": 4079,
      "variety": 4080,
      "adopted": 4081,
      "infinity": 4082,
      "ever": 4083,
      "giving": 4084,
      "cols": 4085,
      "jhep": 4086,
      "astron": 4087,
      "atz": 4088,
      "depic": 4089,
      "osing": 4090,
      "probabilities": 4091,
      "carbon": 4092,
      "precision": 4093,
      "imaginary": 4094,
      "})\\": 4095,
      "showing": 4096,
      "integrals": 4097,
      "improved": 4098,
      "attr": 4099,
      "xmath215": 4100,
      "fig_": 4101,
      "xmath234": 4102,
      "periods": 4103,
      "characteristics": 4104,
      "xmath214": 4105,
      "une": 4106,
      "lihood": 4107,
      "centre": 4108,
      "driven": 4109,
      "establish": 4110,
      "renormalization": 4111,
      "2p": 4112,
      "arse": 4113,
      "currence": 4114,
      "}}}}}\\": 4115,
      "gamma_": 4116,
      "broken": 4117,
      "computational": 4118,
      "advantage": 4119,
      "annihilation": 4120,
      ")}\\": 4121,
      "aim": 4122,
      "covariance": 4123,
      "rested": 4124,
      "computing": 4125,
      "rapidly": 4126,
      "0pt": 4127,
      "lf": 4128,
      "tm": 4129,
      "arise": 4130,
      "conju": 4131,
      "ched": 4132,
      "fiber": 4133,
      "products": 4134,
      "likelihood": 4135,
      "needs": 4136,
      "algorith": 4137,
      "isoto": 4138,
      "attention": 4139,
      "stochastic": 4140,
      "clin": 4141,
      "matical": 4142,
      "roun": 4143,
      "transformations": 4144,
      "xmath225": 4145,
      "oidal": 4146,
      "restricted": 4147,
      "window": 4148,
      "date": 4149,
      "ek": 4150,
      "zh": 4151,
      "tru": 4152,
      "xmath220": 4153,
      "qubits": 4154,
      "front": 4155,
      "bars": 4156,
      "}^{(": 4157,
      "span": 4158,
      "corpor": 4159,
      "differenti": 4160,
      "xmath274": 4161,
      "psi_": 4162,
      "ordinary": 4163,
      "spectroscopic": 4164,
      "ule": 4165,
      "wing": 4166,
      "anisot": 4167,
      "unknown": 4168,
      "xmath223": 4169,
      "classes": 4170,
      "involved": 4171,
      "filament": 4172,
      "corollary": 4173,
      "89": 4174,
      "pal": 4175,
      "pac": 4176,
      "why": 4177,
      "compan": 4178,
      "fig1": 4179,
      "ordering": 4180,
      "responsible": 4181,
      "axial": 4182,
      "81": 4183,
      "84": 4184,
      "ual": 4185,
      "olds": 4186,
      "achie": 4187,
      "mination": 4188,
      "counts": 4189,
      "(-": 4190,
      "ana": 4191,
      "segment": 4192,
      "cone": 4193,
      "xmath217": 4194,
      "ured": 4195,
      "redshifts": 4196,
      "created": 4197,
      "momenta": 4198,
      "probably": 4199,
      "illustrated": 4200,
      "pin": 4201,
      "rf": 4202,
      "spiral": 4203,
      "cyc": 4204,
      "monte": 4205,
      "chi_p": 4206,
      "invariance": 4207,
      "pulsar": 4208,
      "employed": 4209,
      "It": 4210,
      "bold": 4211,
      "pack": 4212,
      "poor": 4213,
      "enhanced": 4214,
      "listed": 4215,
      "dx": 4216,
      "inser": 4217,
      "followed": 4218,
      "carlo": 4219,
      "equivalence": 4220,
      "mechanisms": 4221,
      "him": 4222,
      "t_": 4223,
      "creation": 4224,
      "turbed": 4225,
      "predict": 4226,
      "treated": 4227,
      "hypothesis": 4228,
      "]@": 4229,
      "heli": 4230,
      "generic": 4231,
      "localized": 4232,
      "excitations": 4233,
      "confined": 4234,
      "e_": 4235,
      "iv": 4236,
      "pat": 4237,
      "alb": 4238,
      "wil": 4239,
      "bounds": 4240,
      "oriented": 4241,
      "operation": 4242,
      "polarized": 4243,
      "93": 4244,
      "thing": 4245,
      "xmath219": 4246,
      "oli": 4247,
      "muon": 4248,
      "covering": 4249,
      "neighborhood": 4250,
      "hadronic": 4251,
      "compatible": 4252,
      "bell": 4253,
      "conf": 4254,
      "mesons": 4255,
      "capture": 4256,
      "evaluation": 4257,
      "lecting": 4258,
      "convenient": 4259,
      "dur": 4260,
      "robust": 4261,
      "despite": 4262,
      "selves": 4263,
      "phenomenon": 4264,
      "cting": 4265,
      "xmath260": 4266,
      "composed": 4267,
      "surveys": 4268,
      "cutoff": 4269,
      "wavelengths": 4270,
      "enhance": 4271,
      "conservation": 4272,
      "optimization": 4273,
      "poisson": 4274,
      "mbox": 4275,
      "ology": 4276,
      "uti": 4277,
      "sit": 4278,
      "scat": 4279,
      "specifically": 4280,
      "\\:": 4281,
      "}=": 4282,
      "arti": 4283,
      "xmath218": 4284,
      "xmath222": 4285,
      "candidates": 4286,
      "kh": 4287,
      "explan": 4288,
      "phenomena": 4289,
      "demonstrate": 4290,
      "switch": 4291,
      "confirmed": 4292,
      "avi": 4293,
      "otic": 4294,
      "challen": 4295,
      "diffuse": 4296,
      "word": 4297,
      "template": 4298,
      "formulation": 4299,
      "conventional": 4300,
      "plots": 4301,
      "replaced": 4302,
      "observables": 4303,
      "gain": 4304,
      "existing": 4305,
      "condensate": 4306,
      "=}}{": 4307,
      "load": 4308,
      "spring": 4309,
      "faint": 4310,
      "dwarf": 4311,
      "=}}{}": 4312,
      "dle": 4313,
      "ey": 4314,
      "ides": 4315,
      "mir": 4316,
      "tends": 4317,
      "aster": 4318,
      "inclusion": 4319,
      "scopy": 4320,
      "cycles": 4321,
      "arises": 4322,
      "toward": 4323,
      "quo": 4324,
      "raman": 4325,
      "continuity": 4326,
      "scienti": 4327,
      "interpreted": 4328,
      "attack": 4329,
      "complicated": 4330,
      "pun": 4331,
      "summary": 4332,
      "complement": 4333,
      "instant": 4334,
      "microscopic": 4335,
      "published": 4336,
      "sizes": 4337,
      "season": 4338,
      "conject": 4339,
      "spit": 4340,
      "plate": 4341,
      "\\\\[": 4342,
      "diameter": 4343,
      "76": 4344,
      "report": 4345,
      "sical": 4346,
      "proc": 4347,
      "social": 4348,
      ")+": 4349,
      "hl": 4350,
      "nas": 4351,
      "regulari": 4352,
      "lumin": 4353,
      "glas": 4354,
      "none": 4355,
      "scre": 4356,
      "ww": 4357,
      "itor": 4358,
      "protons": 4359,
      "runs": 4360,
      "ranges": 4361,
      "crucial": 4362,
      "logarithmic": 4363,
      "bcs": 4364,
      "sures": 4365,
      "lengths": 4366,
      "matching": 4367,
      "}}}{}{{{\\": 4368,
      "lang": 4369,
      "inv": 4370,
      "locally": 4371,
      "temporal": 4372,
      "modeling": 4373,
      "xmath221": 4374,
      "poles": 4375,
      "reads": 4376,
      "development": 4377,
      "morpho": 4378,
      "sampling": 4379,
      "ually": 4380,
      "reproduce": 4381,
      "pler": 4382,
      "xmath242": 4383,
      "extent": 4384,
      "embedded": 4385,
      "immediately": 4386,
      "/@": 4387,
      "mhz": 4388,
      "pb": 4389,
      "symp": 4390,
      "limiting": 4391,
      "neglected": 4392,
      "displaybreak": 4393,
      "algorithms": 4394,
      "album": 4395,
      "gold": 4396,
      "ches": 4397,
      "notag": 4398,
      "desired": 4399,
      "etc": 4400,
      "xmath248": 4401,
      "fitted": 4402,
      "1987": 4403,
      "investigation": 4404,
      "coverage": 4405,
      "modulation": 4406,
      "rank": 4407,
      "86": 4408,
      "bond": 4409,
      "confinement": 4410,
      "arest": 4411,
      "paths": 4412,
      "hilbert": 4413,
      "exhibits": 4414,
      "ious": 4415,
      "zy": 4416,
      "surroun": 4417,
      "brigh": 4418,
      "xmath209": 4419,
      "magnitudes": 4420,
      "bridge": 4421,
      "!\\": 4422,
      "rr": 4423,
      "loo": 4424,
      "differ": 4425,
      "statement": 4426,
      "velope": 4427,
      "circum": 4428,
      "strategy": 4429,
      "explore": 4430,
      "return": 4431,
      "envelope": 4432,
      "perturbed": 4433,
      "extin": 4434,
      "xmath232": 4435,
      "hermi": 4436,
      "implementation": 4437,
      "article": 4438,
      "isolated": 4439,
      "hen": 4440,
      "fidel": 4441,
      "fig2": 4442,
      "embedding": 4443,
      "achieve": 4444,
      "utili": 4445,
      "fidelity": 4446,
      "'\\": 4447,
      "bic": 4448,
      "theories": 4449,
      "xmath235": 4450,
      "possibly": 4451,
      "constrained": 4452,
      "1988": 4453,
      "born": 4454,
      "quality": 4455,
      "Ro": 4456,
      "han": 4457,
      "ines": 4458,
      "ali": 4459,
      "imply": 4460,
      "izations": 4461,
      "xmath224": 4462,
      "sequent": 4463,
      "prior": 4464,
      "oscillator": 4465,
      "consisting": 4466,
      "]-": 4467,
      "incorpor": 4468,
      "ada": 4469,
      "lineari": 4470,
      "xmath244": 4471,
      "stronger": 4472,
      "carry": 4473,
      "eigenstates": 4474,
      "weakly": 4475,
      "trajectory": 4476,
      "luminous": 4477,
      "asons": 4478,
      "corrected": 4479,
      "generating": 4480,
      "interested": 4481,
      "bru": 4482,
      "dedu": 4483,
      "currently": 4484,
      "branes": 4485,
      "extinction": 4486,
      "bid": 4487,
      "replace": 4488,
      "conta": 4489,
      "pop": 4490,
      "ssm": 4491,
      "agre": 4492,
      "days": 4493,
      "fications": 4494,
      "analyzed": 4495,
      "virtual": 4496,
      "$\\": 4497,
      "cli": 4498,
      "ards": 4499,
      "nearest": 4500,
      "links": 4501,
      "ople": 4502,
      "therein": 4503,
      "appearance": 4504,
      "photometric": 4505,
      "ularities": 4506,
      "examine": 4507,
      "weighted": 4508,
      "dv": 4509,
      "lan": 4510,
      "island": 4511,
      "lip": 4512,
      "structural": 4513,
      "xmath286": 4514,
      "myr": 4515,
      "adopt": 4516,
      "thermodynamic": 4517,
      "expo": 4518,
      "tency": 4519,
      "pps": 4520,
      "xmath231": 4521,
      "introduction": 4522,
      "glob": 4523,
      "synthe": 4524,
      "anisotropy": 4525,
      "ered": 4526,
      "heter": 4527,
      "functor": 4528,
      "feed": 4529,
      "singularities": 4530,
      "simultaneously": 4531,
      "timescale": 4532,
      "pointed": 4533,
      "74": 4534,
      "cks": 4535,
      "sound": 4536,
      "atorial": 4537,
      "manner": 4538,
      "shifted": 4539,
      "jump": 4540,
      "circles": 4541,
      "fermionic": 4542,
      "({{\\": 4543,
      "ji": 4544,
      "nn": 4545,
      "accomp": 4546,
      "lling": 4547,
      "parametri": 4548,
      "analo": 4549,
      "describing": 4550,
      "approximations": 4551,
      "uniformly": 4552,
      "monomi": 4553,
      "sfr": 4554,
      "reser": 4555,
      "apol": 4556,
      "vities": 4557,
      "populations": 4558,
      "involves": 4559,
      "hyperbol": 4560,
      "branching": 4561,
      "ae": 4562,
      "vent": 4563,
      "ico": 4564,
      "consideration": 4565,
      "xmath230": 4566,
      "dimensionless": 4567,
      "molecule": 4568,
      "memory": 4569,
      "Uni": 4570,
      "projected": 4571,
      "others": 4572,
      "xmath250": 4573,
      "1989": 4574,
      "filled": 4575,
      "necessarily": 4576,
      "polynomials": 4577,
      "phonon": 4578,
      "diffe": 4579,
      "interpol": 4580,
      "page": 4581,
      "binaries": 4582,
      "imf": 4583,
      "complexity": 4584,
      "candidate": 4585,
      "tangent": 4586,
      "tend": 4587,
      "subspace": 4588,
      "transl": 4589,
      "graphene": 4590,
      "tests": 4591,
      "foot": 4592,
      "spectroscopy": 4593,
      "doping": 4594,
      "flavor": 4595,
      "interfer": 4596,
      "subtr": 4597,
      "mostly": 4598,
      "norm": 4599,
      "separate": 4600,
      "cells": 4601,
      "discrepan": 4602,
      "asymmetry": 4603,
      "calibration": 4604,
      "turbulent": 4605,
      "motions": 4606,
      "prote": 4607,
      "xmath233": 4608,
      "reached": 4609,
      "synchro": 4610,
      "mathematical": 4611,
      "dag": 4612,
      "elimin": 4613,
      "cip": 4614,
      "uler": 4615,
      "measuring": 4616,
      "warm": 4617,
      "sdss": 4618,
      "inferred": 4619,
      "gments": 4620,
      "hb": 4621,
      "lac": 4622,
      "rb": 4623,
      "wang": 4624,
      "spac": 4625,
      "nei": 4626,
      "parity": 4627,
      "iron": 4628,
      "bins": 4629,
      "nearby": 4630,
      "spheric": 4631,
      "labor": 4632,
      "repul": 4633,
      "escap": 4634,
      "leg": 4635,
      "xmath245": 4636,
      "synchrotron": 4637,
      "tan": 4638,
      "fortun": 4639,
      "partially": 4640,
      "bubble": 4641,
      "setup": 4642,
      "xmath226": 4643,
      "studying": 4644,
      "induction": 4645,
      "evident": 4646,
      "purely": 4647,
      "1103": 4648,
      "ece": 4649,
      "rational": 4650,
      "inity": 4651,
      "access": 4652,
      "xmath241": 4653,
      "estimat": 4654,
      "analytically": 4655,
      "planck": 4656,
      "consistency": 4657,
      "address": 4658,
      "],": 4659,
      "}-\\": 4660,
      "stated": 4661,
      "disorder": 4662,
      "determines": 4663,
      "multiplicity": 4664,
      "dissip": 4665,
      "gan": 4666,
      "lt": 4667,
      "alone": 4668,
      "adding": 4669,
      "corner": 4670,
      "grams": 4671,
      "subsequent": 4672,
      "surpr": 4673,
      "xmath253": 4674,
      "missing": 4675,
      "middle": 4676,
      "asymmetric": 4677,
      "_s": 4678,
      "aper": 4679,
      "hf": 4680,
      "ligh": 4681,
      "tho": 4682,
      "ina": 4683,
      "arding": 4684,
      "attribu": 4685,
      "xmath247": 4686,
      "allowing": 4687,
      "conditional": 4688,
      "shear": 4689,
      "ansatz": 4690,
      "referred": 4691,
      "practical": 4692,
      "practice": 4693,
      "organized": 4694,
      "&=&": 4695,
      "blocks": 4696,
      "conv": 4697,
      "perp": 4698,
      "holo": 4699,
      "gyr": 4700,
      "xmath240": 4701,
      "xmath269": 4702,
      "determining": 4703,
      "games": 4704,
      "spir": 4705,
      "xmath228": 4706,
      "centered": 4707,
      "panels": 4708,
      "bundle": 4709,
      "bifurcation": 4710,
      "astronom": 4711,
      "),\\": 4712,
      "_k": 4713,
      "giant": 4714,
      "charges": 4715,
      "collo": 4716,
      "xmath237": 4717,
      "xmath238": 4718,
      "xmath262": 4719,
      "xmath252": 4720,
      "linearly": 4721,
      "analyses": 4722,
      "techno": 4723,
      "transmit": 4724,
      "Jordan": 4725,
      "fm": 4726,
      "ican": 4727,
      "acti": 4728,
      "disjoint": 4729,
      "xmath229": 4730,
      "xmath261": 4731,
      "mechanics": 4732,
      "oscillation": 4733,
      "excell": 4734,
      "intervals": 4735,
      "soliton": 4736,
      "briefly": 4737,
      "punct": 4738,
      "ith": 4739,
      "ied": 4740,
      "los": 4741,
      "interior": 4742,
      "kets": 4743,
      "icial": 4744,
      "classification": 4745,
      "astrophysical": 4746,
      "trajectories": 4747,
      "rare": 4748,
      "sr": 4749,
      "trap": 4750,
      "vers": 4751,
      "thern": 4752,
      "defining": 4753,
      "xmath243": 4754,
      "absorbed": 4755,
      "gories": 4756,
      "extrapol": 4757,
      "substituting": 4758,
      "members": 4759,
      "hyperbolic": 4760,
      "diffeomorph": 4761,
      "wf": 4762,
      "maximi": 4763,
      "computer": 4764,
      "planets": 4765,
      "isomorphism": 4766,
      "fock": 4767,
      "criterion": 4768,
      "ara": 4769,
      "nos": 4770,
      "verify": 4771,
      "ham": 4772,
      "ended": 4773,
      "people": 4774,
      "singlet": 4775,
      "partite": 4776,
      "ura": 4777,
      "grbs": 4778,
      "xmath246": 4779,
      "kawa": 4780,
      "categories": 4781,
      "strictly": 4782,
      "bc": 4783,
      "kk": 4784,
      "ope": 4785,
      "onset": 4786,
      "ante": 4787,
      "strange": 4788,
      "valence": 4789,
      "prescri": 4790,
      "datase": 4791,
      "analyze": 4792,
      "compression": 4793,
      "qualitative": 4794,
      "){\\": 4795,
      "2n": 4796,
      "rely": 4797,
      "mand": 4798,
      "dsy": 4799,
      "fragment": 4800,
      "quasars": 4801,
      "discovered": 4802,
      "]{": 4803,
      "gon": 4804,
      "ire": 4805,
      "l_": 4806,
      "degener": 4807,
      "cher": 4808,
      "valued": 4809,
      "boldsy": 4810,
      "powers": 4811,
      "boldsymbol": 4812,
      "tach": 4813,
      "reasons": 4814,
      "attrac": 4815,
      "pos": 4816,
      "cade": 4817,
      "starburst": 4818,
      "respective": 4819,
      "introducing": 4820,
      "rotational": 4821,
      "reaches": 4822,
      "lensing": 4823,
      "engine": 4824,
      "module": 4825,
      "Pol": 4826,
      "ona": 4827,
      "triangle": 4828,
      "north": 4829,
      "currents": 4830,
      "eler": 4831,
      "tensors": 4832,
      "topology": 4833,
      "dwarfs": 4834,
      "entangled": 4835,
      "bm": 4836,
      "edu": 4837,
      "igno": 4838,
      "minus": 4839,
      "xmath239": 4840,
      "xmath273": 4841,
      "realized": 4842,
      "empir": 4843,
      "histo": 4844,
      "deviations": 4845,
      "community": 4846,
      "moves": 4847,
      "ultra": 4848,
      "resour": 4849,
      "defines": 4850,
      "xmath265": 4851,
      "fair": 4852,
      "fluctuation": 4853,
      "explanation": 4854,
      "91": 4855,
      "azi": 4856,
      "cmb": 4857,
      "mt": 4858,
      "inver": 4859,
      "injection": 4860,
      "rope": 4861,
      "novel": 4862,
      "subsection": 4863,
      "definite": 4864,
      "xmath270": 4865,
      "quantitative": 4866,
      "vision": 4867,
      "extract": 4868,
      "derivation": 4869,
      "song": 4870,
      "chand": 4871,
      "hereafter": 4872,
      "indicating": 4873,
      "ification": 4874,
      "cosmology": 4875,
      "placing": 4876,
      "communication": 4877,
      "zations": 4878,
      "ading": 4879,
      "brac": 4880,
      "xmath236": 4881,
      "merger": 4882,
      "combining": 4883,
      "maxwell": 4884,
      "varphi": 4885,
      "damping": 4886,
      "permutation": 4887,
      "riemann": 4888,
      "fig3": 4889,
      "shocks": 4890,
      "teness": 4891,
      "optically": 4892,
      "symme": 4893,
      "xmath266": 4894,
      "xmath256": 4895,
      "skpp": 4896,
      "partons": 4897,
      "human": 4898,
      "protocol": 4899,
      "010": 4900,
      "lmc": 4901,
      "ny": 4902,
      "magneto": 4903,
      "count": 4904,
      "cccc": 4905,
      "delta_": 4906,
      "polymer": 4907,
      "hubble": 4908,
      "effor": 4909,
      "connecting": 4910,
      "planetary": 4911,
      "Re": 4912,
      "mers": 4913,
      "resp": 4914,
      "stor": 4915,
      "ung": 4916,
      "ples": 4917,
      "actor": 4918,
      "spheres": 4919,
      "flare": 4920,
      "\\(": 4921,
      "hed": 4922,
      "ero": 4923,
      "edit": 4924,
      "rial": 4925,
      "ambi": 4926,
      "create": 4927,
      "mu_": 4928,
      "obtains": 4929,
      "schwar": 4930,
      ")\\,": 4931,
      "writing": 4932,
      "nan": 4933,
      "erg": 4934,
      "itz": 4935,
      "dial": 4936,
      "compe": 4937,
      "effectively": 4938,
      "pulses": 4939,
      "attractive": 4940,
      "chen": 4941,
      "lif": 4942,
      "lest": 4943,
      "quee": 4944,
      "constrain": 4945,
      "independently": 4946,
      "formulas": 4947,
      "excellent": 4948,
      "gar": 4949,
      "deci": 4950,
      "smallest": 4951,
      "xmath249": 4952,
      "xmath267": 4953,
      "mera": 4954,
      "scenarios": 4955,
      "device": 4956,
      "aw": 4957,
      "mg": 4958,
      "nes": 4959,
      "squee": 4960,
      "institu": 4961,
      "inclin": 4962,
      "era": 4963,
      "ened": 4964,
      "ita": 4965,
      "gel": 4966,
      "ilt": 4967,
      "caus": 4968,
      "xmath268": 4969,
      "closely": 4970,
      "techn": 4971,
      "rho_": 4972,
      "accelerated": 4973,
      "hermitian": 4974,
      "sme": 4975,
      "uit": 4976,
      "sides": 4977,
      "tric": 4978,
      "fract": 4979,
      "monom": 4980,
      "specified": 4981,
      "providing": 4982,
      "thought": 4983,
      "fying": 4984,
      "qualitatively": 4985,
      "shorter": 4986,
      "fortunately": 4987,
      "\\{": 4988,
      "}.\\": 4989,
      "became": 4990,
      "dia": 4991,
      "percent": 4992,
      "izes": 4993,
      "tails": 4994,
      "squares": 4995,
      "surprising": 4996,
      "argu": 4997,
      "mpc": 4998,
      "minis": 4999,
      "xmath257": 5000,
      "xmath258": 5001,
      "xmath290": 5002,
      "processing": 5003,
      "nia": 5004,
      "regarding": 5005,
      "exponents": 5006,
      "manifolds": 5007,
      "^(": 5008,
      "hex": 5009,
      "hind": 5010,
      "xmath254": 5011,
      "simplest": 5012,
      "representing": 5013,
      "mye": 5014,
      "excluded": 5015,
      "obviously": 5016,
      "walk": 5017,
      "justi": 5018,
      "scattered": 5019,
      "ressed": 5020,
      "tuning": 5021,
      "voir": 5022,
      "divided": 5023,
      "averaging": 5024,
      "aspects": 5025,
      "vicinity": 5026,
      "bh": 5027,
      "ost": 5028,
      "moto": 5029,
      "areas": 5030,
      "varies": 5031,
      "xmath271": 5032,
      "foundation": 5033,
      "1984": 5034,
      "luminosities": 5035,
      "ieee": 5036,
      "elliptical": 5037,
      "south": 5038,
      "laboratory": 5039,
      "tight": 5040,
      "stack": 5041,
      "fidu": 5042,
      "}}{\\": 5043,
      "boundaries": 5044,
      "closer": 5045,
      "1986": 5046,
      "monoton": 5047,
      "received": 5048,
      "conjecture": 5049,
      "[-": 5050,
      "gm": 5051,
      "ute": 5052,
      "recur": 5053,
      "ank": 5054,
      "arising": 5055,
      "deformation": 5056,
      "destro": 5057,
      "muth": 5058,
      "xmath255": 5059,
      "localization": 5060,
      "offset": 5061,
      "conduct": 5062,
      "eventually": 5063,
      "weights": 5064,
      "summarized": 5065,
      "revealed": 5066,
      "|^": 5067,
      "icular": 5068,
      "ago": 5069,
      "similarity": 5070,
      "travel": 5071,
      "guar": 5072,
      "plets": 5073,
      "separately": 5074,
      "voltage": 5075,
      "fractional": 5076,
      "mechanical": 5077,
      "beams": 5078,
      "fiducial": 5079,
      "nl": 5080,
      "rms": 5081,
      "arrange": 5082,
      "cept": 5083,
      "haps": 5084,
      "definitions": 5085,
      "snr": 5086,
      "superconducting": 5087,
      "cme": 5088,
      "isen": 5089,
      "adjoint": 5090,
      "operations": 5091,
      "biased": 5092,
      "alignment": 5093,
      "besides": 5094,
      "discovery": 5095,
      "assigned": 5096,
      "trend": 5097,
      "duration": 5098,
      "dc": 5099,
      "art": 5100,
      "interstellar": 5101,
      "outflow": 5102,
      "integra": 5103,
      "xmath259": 5104,
      "papers": 5105,
      "beginning": 5106,
      "majority": 5107,
      "hetero": 5108,
      "030": 5109,
      "{{{{\\": 5110,
      "confi": 5111,
      "unlike": 5112,
      "prod_": 5113,
      "finds": 5114,
      "translation": 5115,
      "running": 5116,
      "cepti": 5117,
      "She": 5118,
      "apart": 5119,
      "bag": 5120,
      "city": 5121,
      "za": 5122,
      "lee": 5123,
      "acces": 5124,
      "endicular": 5125,
      "bose": 5126,
      "physically": 5127,
      "perpendicular": 5128,
      "090": 5129,
      "eos": 5130,
      "}+\\": 5131,
      "ouse": 5132,
      "approximated": 5133,
      "significance": 5134,
      "omega_": 5135,
      "reservoir": 5136,
      "clock": 5137,
      "tition": 5138,
      "perhaps": 5139,
      "correspondence": 5140,
      "producing": 5141,
      "working": 5142,
      "distor": 5143,
      "clic": 5144,
      "drawn": 5145,
      "illustrate": 5146,
      "helium": 5147,
      "guarante": 5148,
      "ln": 5149,
      "want": 5150,
      "yer": 5151,
      "you": 5152,
      "behind": 5153,
      "whm": 5154,
      "xmath251": 5155,
      "landau": 5156,
      "columns": 5157,
      "suscepti": 5158,
      "reliable": 5159,
      "400": 5160,
      "hst": 5161,
      "ira": 5162,
      "nil": 5163,
      "odo": 5164,
      "thered": 5165,
      "depart": 5166,
      "ury": 5167,
      "built": 5168,
      "}\\\\": 5169,
      "feyn": 5170,
      "drive": 5171,
      "concerning": 5172,
      "p2p": 5173,
      "ret": 5174,
      "ales": 5175,
      "iss": 5176,
      "roots": 5177,
      "enter": 5178,
      "trip": 5179,
      "clump": 5180,
      "fractions": 5181,
      "xmath272": 5182,
      "marked": 5183,
      "iteration": 5184,
      "restriction": 5185,
      "designed": 5186,
      "thickness": 5187,
      "marginally": 5188,
      "estimator": 5189,
      "(@": 5190,
      ")}{": 5191,
      "Ar": 5192,
      "lab": 5193,
      "yr": 5194,
      "fif": 5195,
      "share": 5196,
      "steep": 5197,
      "positron": 5198,
      "calculating": 5199,
      "apping": 5200,
      "xmath284": 5201,
      "xmath285": 5202,
      "tradition": 5203,
      "mixture": 5204,
      "~~~~~~~~": 5205,
      "eps": 5206,
      "stat": 5207,
      "rad": 5208,
      "lattices": 5209,
      "xmath289": 5210,
      "choices": 5211,
      "modification": 5212,
      "doublet": 5213,
      "cubic": 5214,
      "algebraic": 5215,
      "scientific": 5216,
      "schwarz": 5217,
      "Whe": 5218,
      "fab": 5219,
      "mits": 5220,
      "xmath276": 5221,
      "equivalently": 5222,
      "synthetic": 5223,
      "mj": 5224,
      "scan": 5225,
      "home": 5226,
      "}}}{\\": 5227,
      "bras": 5228,
      "saw": 5229,
      "media": 5230,
      "induces": 5231,
      "exception": 5232,
      "residual": 5233,
      "clar": 5234,
      "pns": 5235,
      "lects": 5236,
      "thanks": 5237,
      "summation": 5238,
      "collection": 5239,
      "bio": 5240,
      "302": 5241,
      "earth": 5242,
      "portion": 5243,
      "randomly": 5244,
      "adily": 5245,
      "expanding": 5246,
      "surrounding": 5247,
      "=\\": 5248,
      "replacing": 5249,
      "lear": 5250,
      "icm": 5251,
      "spot": 5252,
      "poss": 5253,
      "performing": 5254,
      "couple": 5255,
      "terminal": 5256,
      "released": 5257,
      "elliptic": 5258,
      "simplified": 5259,
      "agrees": 5260,
      ")^{\\": 5261,
      "bat": 5262,
      "gun": 5263,
      "notion": 5264,
      "equals": 5265,
      "groun": 5266,
      "counting": 5267,
      "xmath292": 5268,
      "newton": 5269,
      "preserving": 5270,
      "filling": 5271,
      "criteria": 5272,
      "acknowled": 5273,
      "dissipation": 5274,
      "Fin": 5275,
      "fal": 5276,
      "belie": 5277,
      "lost": 5278,
      "virial": 5279,
      "seem": 5280,
      "lassical": 5281,
      "applies": 5282,
      "wavefunction": 5283,
      "hill": 5284,
      "1985": 5285,
      "identification": 5286,
      "restrict": 5287,
      "hosts": 5288,
      "contours": 5289,
      "feedback": 5290,
      "destroy": 5291,
      "Wheeler": 5292,
      "]$": 5293,
      "i_": 5294,
      "ium": 5295,
      "pec": 5296,
      "inset": 5297,
      "tish": 5298,
      "tidal": 5299,
      "ality": 5300,
      "observing": 5301,
      "completeness": 5302,
      "visco": 5303,
      "spatially": 5304,
      "implemented": 5305,
      "entirely": 5306,
      "turbulence": 5307,
      "rigid": 5308,
      "aperture": 5309,
      "cn": 5310,
      "hall": 5311,
      "kno": 5312,
      "ske": 5313,
      "arity": 5314,
      "tration": 5315,
      "compton": 5316,
      "xmath264": 5317,
      "xmath280": 5318,
      "xmath283": 5319,
      "xmath297": 5320,
      "pies": 5321,
      "jective": 5322,
      "anomal": 5323,
      "modulus": 5324,
      "condens": 5325,
      "symbols": 5326,
      "enhancement": 5327,
      "langu": 5328,
      "azimuth": 5329,
      "Gal": 5330,
      "fwhm": 5331,
      "kle": 5332,
      "seven": 5333,
      "vil": 5334,
      "signature": 5335,
      "marks": 5336,
      "xmath279": 5337,
      "skip": 5338,
      "combinations": 5339,
      "extends": 5340,
      "homology": 5341,
      "propose": 5342,
      "slowly": 5343,
      "violation": 5344,
      "proceedings": 5345,
      "kinematics": 5346,
      "keeping": 5347,
      "spitzer": 5348,
      "discrepancy": 5349,
      "Au": 5350,
      "faster": 5351,
      "apor": 5352,
      "impo": 5353,
      "starts": 5354,
      "prep": 5355,
      "prepar": 5356,
      "xmath278": 5357,
      "semicon": 5358,
      "glass": 5359,
      "tachy": 5360,
      "anomalous": 5361,
      "113": 5362,
      "eper": 5363,
      "unless": 5364,
      "book": 5365,
      "detectors": 5366,
      "integrating": 5367,
      "phi_": 5368,
      "exponentially": 5369,
      "depicted": 5370,
      "115": 5371,
      "On": 5372,
      "bir": 5373,
      "euler": 5374,
      "jan": 5375,
      "reactions": 5376,
      "ching": 5377,
      "llite": 5378,
      "eq_": 5379,
      "dominates": 5380,
      "themselves": 5381,
      "moduli": 5382,
      ",{{\\": 5383,
      "060": 5384,
      "Bri": 5385,
      "aa": 5386,
      "bus": 5387,
      "dol": 5388,
      "rd": 5389,
      "send": 5390,
      "wd": 5391,
      "veri": 5392,
      "nu_": 5393,
      "xmath281": 5394,
      "clustering": 5395,
      "draw": 5396,
      "satellite": 5397,
      "semiclassical": 5398,
      "degeneracy": 5399,
      "New": 5400,
      "]{\\": 5401,
      "dig": 5402,
      "wol": 5403,
      "recover": 5404,
      "cance": 5405,
      "union": 5406,
      "xmath263": 5407,
      "xmath282": 5408,
      "generality": 5409,
      "successful": 5410,
      "aspect": 5411,
      "attempt": 5412,
      ")}}}}}{\\": 5413,
      "wilson": 5414,
      "({\\": 5415,
      "^*": 5416,
      "ah": 5417,
      "supersymmetric": 5418,
      "weaker": 5419,
      "gluons": 5420,
      "uniquely": 5421,
      "coincides": 5422,
      "myelin": 5423,
      ":@": 5424,
      "tl": 5425,
      "wski": 5426,
      "zen": 5427,
      "shower": 5428,
      "105": 5429,
      "primari": 5430,
      "widths": 5431,
      "sheet": 5432,
      "fourth": 5433,
      "stokes": 5434,
      "validity": 5435,
      "asymptotically": 5436,
      "issues": 5437,
      "coincide": 5438,
      "interferome": 5439,
      "gent": 5440,
      "ric": 5441,
      "{{": 5442,
      "reader": 5443,
      "enco": 5444,
      "sea": 5445,
      "conference": 5446,
      "templ": 5447,
      "xmath287": 5448,
      "bili": 5449,
      "widely": 5450,
      "international": 5451,
      "titude": 5452,
      "qsos": 5453,
      "eur": 5454,
      "hs": 5455,
      "mission": 5456,
      "push": 5457,
      "sg": 5458,
      "west": 5459,
      "enable": 5460,
      "attain": 5461,
      "bern": 5462,
      "minor": 5463,
      "comments": 5464,
      "prefer": 5465,
      "gathered": 5466,
      "modeled": 5467,
      "contract": 5468,
      "placement": 5469,
      "abundances": 5470,
      "leaves": 5471,
      "confirm": 5472,
      "environments": 5473,
      "hexag": 5474,
      "h_": 5475,
      "adv": 5476,
      "energe": 5477,
      "emes": 5478,
      "whenever": 5479,
      "balance": 5480,
      "phenomenological": 5481,
      "bloch": 5482,
      "companion": 5483,
      "believe": 5484,
      "020": 5485,
      "Al": 5486,
      "eight": 5487,
      "wds": 5488,
      "}=\"": 5489,
      "silic": 5490,
      "covariant": 5491,
      "ulation": 5492,
      "ultr": 5493,
      "pers": 5494,
      "noting": 5495,
      "options": 5496,
      "graded": 5497,
      "inear": 5498,
      "exceed": 5499,
      "driving": 5500,
      "implications": 5501,
      "neither": 5502,
      "technology": 5503,
      "fri": 5504,
      "ial": 5505,
      "tations": 5506,
      "impos": 5507,
      "maintain": 5508,
      "print": 5509,
      "schemes": 5510,
      "choosing": 5511,
      "bosonic": 5512,
      "remove": 5513,
      "requirement": 5514,
      "amounts": 5515,
      "baryons": 5516,
      ",^,^,^,^": 5517,
      "yama": 5518,
      "repeated": 5519,
      "motivated": 5520,
      "accessible": 5521,
      "feynman": 5522,
      "az": 5523,
      "uk": 5524,
      "yes": 5525,
      "coarse": 5526,
      "urch": 5527,
      "disordered": 5528,
      "ades": 5529,
      "cord": 5530,
      "cauch": 5531,
      "formally": 5532,
      "broadening": 5533,
      "checked": 5534,
      "empirical": 5535,
      "Is": 5536,
      "fv": 5537,
      "ier": 5538,
      "swi": 5539,
      "master": 5540,
      "reconstruction": 5541,
      "sivity": 5542,
      "lored": 5543,
      "para": 5544,
      "camp": 5545,
      "lective": 5546,
      "bration": 5547,
      "xmath277": 5548,
      "algebras": 5549,
      "springer": 5550,
      "II": 5551,
      "nlo": 5552,
      "rect": 5553,
      "tell": 5554,
      "ital": 5555,
      "xmath313": 5556,
      "rightarrow": 5557,
      "antiferromagnetic": 5558,
      "tested": 5559,
      "characterize": 5560,
      "appearing": 5561,
      "contrary": 5562,
      "neighboring": 5563,
      "superconductivity": 5564,
      "recogn": 5565,
      "occupied": 5566,
      "emitted": 5567,
      "record": 5568,
      "cauchy": 5569,
      "1s": 5570,
      "112": 5571,
      "rons": 5572,
      "tures": 5573,
      "erman": 5574,
      "pot": 5575,
      "generators": 5576,
      "charm": 5577,
      "largely": 5578,
      "exciton": 5579,
      "controlled": 5580,
      "divergence": 5581,
      "devices": 5582,
      "emitting": 5583,
      "favor": 5584,
      "globular": 5585,
      "confidence": 5586,
      "imposed": 5587,
      "British": 5588,
      "2_": 5589,
      "oh": 5590,
      "susy": 5591,
      "tayl": 5592,
      "idal": 5593,
      "transformed": 5594,
      "considerably": 5595,
      "propagating": 5596,
      "conductivity": 5597,
      "conversion": 5598,
      "terior": 5599,
      "questions": 5600,
      "computations": 5601,
      "training": 5602,
      "catalo": 5603,
      "possess": 5604,
      "Le": 5605,
      "dd": 5606,
      "rings": 5607,
      "sso": 5608,
      "tient": 5609,
      "ambig": 5610,
      "aching": 5611,
      "veston": 5612,
      "grate": 5613,
      "median": 5614,
      "powerful": 5615,
      "composite": 5616,
      "defect": 5617,
      "torus": 5618,
      "grounds": 5619,
      "Galveston": 5620,
      "&[": 5621,
      "As": 5622,
      "antial": 5623,
      "sts": 5624,
      "resist": 5625,
      "2016": 5626,
      "schr": 5627,
      "graphic": 5628,
      "pairwise": 5629,
      "1980": 5630,
      "1000": 5631,
      "technical": 5632,
      "ambigu": 5633,
      "bare": 5634,
      "hund": 5635,
      "san": 5636,
      "dinger": 5637,
      "135": 5638,
      "considerable": 5639,
      "xmath294": 5640,
      "accordingly": 5641,
      "extensive": 5642,
      "jacob": 5643,
      "commutative": 5644,
      "chaotic": 5645,
      "regarded": 5646,
      "viscosity": 5647,
      "sb": 5648,
      "td": 5649,
      "lev": 5650,
      "chron": 5651,
      "soc": 5652,
      "duals": 5653,
      "111": 5654,
      "considerations": 5655,
      "xmath291": 5656,
      "standing": 5657,
      "quadru": 5658,
      "strain": 5659,
      "elementary": 5660,
      "torque": 5661,
      "fusion": 5662,
      "contradiction": 5663,
      "nasa": 5664,
      "chandra": 5665,
      "templates": 5666,
      "040": 5667,
      "gp": 5668,
      "instru": 5669,
      "asas": 5670,
      "began": 5671,
      "ultimate": 5672,
      "nonzero": 5673,
      "scho": 5674,
      "additionally": 5675,
      "droplets": 5676,
      "interestingly": 5677,
      "exposure": 5678,
      "York": 5679,
      "hskip": 5680,
      "stone": 5681,
      "decomp": 5682,
      "mel": 5683,
      "nematic": 5684,
      "dos": 5685,
      "}\\,": 5686,
      "ampli": 5687,
      "oseph": 5688,
      "biggr": 5689,
      "separable": 5690,
      "bbard": 5691,
      "defects": 5692,
      "suppression": 5693,
      "mitted": 5694,
      "quasar": 5695,
      "semicondu": 5696,
      "a_1": 5697,
      "bun": 5698,
      "reci": 5699,
      "sil": 5700,
      "dies": 5701,
      "quick": 5702,
      "heavi": 5703,
      "xmath275": 5704,
      "xmath296": 5705,
      "regis": 5706,
      "accurately": 5707,
      "makebox": 5708,
      "displayed": 5709,
      "pulsars": 5710,
      "detectable": 5711,
      "machine": 5712,
      "summarize": 5713,
      "regularization": 5714,
      "taylor": 5715,
      "dic": 5716,
      "smc": 5717,
      "mac": 5718,
      "decoherence": 5719,
      "beled": 5720,
      "triangular": 5721,
      "comb": 5722,
      "xmath298": 5723,
      "continued": 5724,
      "express": 5725,
      "else": 5726,
      "neglect": 5727,
      "}^\\": 5728,
      "substantial": 5729,
      "hundred": 5730,
      "050": 5731,
      "kal": 5732,
      "parent": 5733,
      "wish": 5734,
      "zo": 5735,
      "alice": 5736,
      "ormal": 5737,
      "sep": 5738,
      "unlikely": 5739,
      "lectic": 5740,
      "sometimes": 5741,
      "hydrodynamic": 5742,
      "conserved": 5743,
      "reveals": 5744,
      "evolve": 5745,
      "patterns": 5746,
      "prescription": 5747,
      "triplet": 5748,
      "&[@": 5749,
      "aj": 5750,
      "readily": 5751,
      "sivo": 5752,
      "unfortunately": 5753,
      "ights": 5754,
      "thereby": 5755,
      "physrev": 5756,
      "representative": 5757,
      "predicts": 5758,
      "assumes": 5759,
      "searches": 5760,
      "colorbox": 5761,
      "hubbard": 5762,
      "observer": 5763,
      "assess": 5764,
      ")}}}})}}}}}{\\": 5765,
      "survival": 5766,
      "truncation": 5767,
      "macroscopic": 5768,
      "script": 5769,
      "\\:+\\": 5770,
      "argued": 5771,
      "fifth": 5772,
      "070": 5773,
      "db": 5774,
      "gw": 5775,
      "schild": 5776,
      "tables": 5777,
      "}|": 5778,
      "till": 5779,
      "dimer": 5780,
      "nov": 5781,
      "ams": 5782,
      "mith": 5783,
      "presents": 5784,
      "xmath304": 5785,
      "dependen": 5786,
      "findings": 5787,
      "linearized": 5788,
      "Town": 5789,
      "cence": 5790,
      "round": 5791,
      "sees": 5792,
      "poses": 5793,
      "compound": 5794,
      "anten": 5795,
      "shield": 5796,
      "136": 5797,
      "xmath288": 5798,
      "xmath299": 5799,
      "hybrid": 5800,
      "squared": 5801,
      "grows": 5802,
      "improvement": 5803,
      "hierarchy": 5804,
      "verified": 5805,
      "dna": 5806,
      "hr": 5807,
      "ui": 5808,
      "meet": 5809,
      "labeled": 5810,
      "160": 5811,
      "auxi": 5812,
      "converges": 5813,
      "exceeds": 5814,
      "correctly": 5815,
      "artif": 5816,
      "symplectic": 5817,
      "conductance": 5818,
      "primarily": 5819,
      "cdots": 5820,
      "ito": 5821,
      "md": 5822,
      "nal": 5823,
      "inhomogeneous": 5824,
      "rescal": 5825,
      "dually": 5826,
      "observatory": 5827,
      "subsequently": 5828,
      "locations": 5829,
      "xmath295": 5830,
      "realization": 5831,
      "ccc": 5832,
      "bulge": 5833,
      "modifications": 5834,
      "gods": 5835,
      "happens": 5836,
      "bilities": 5837,
      "auxili": 5838,
      "dg": 5839,
      "slit": 5840,
      "xmm": 5841,
      "accumul": 5842,
      "chor": 5843,
      "promin": 5844,
      "corona": 5845,
      "outgoing": 5846,
      "eved": 5847,
      "signs": 5848,
      "monad": 5849,
      "named": 5850,
      "crosso": 5851,
      "release": 5852,
      "commonly": 5853,
      "orientations": 5854,
      "morphic": 5855,
      "trunc": 5856,
      "isotopy": 5857,
      "packet": 5858,
      "mirr": 5859,
      "auxiliary": 5860,
      "En": 5861,
      "ergod": 5862,
      "ese": 5863,
      "roman": 5864,
      "resis": 5865,
      "stration": 5866,
      "1983": 5867,
      "played": 5868,
      "missible": 5869,
      "situations": 5870,
      "branches": 5871,
      "preserves": 5872,
      "progress": 5873,
      "arrive": 5874,
      "escape": 5875,
      "schrdinger": 5876,
      "east": 5877,
      "fle": 5878,
      "lb": 5879,
      "sor": 5880,
      "progen": 5881,
      "ney": 5882,
      "haw": 5883,
      "phe": 5884,
      "tually": 5885,
      "xmath301": 5886,
      "hartree": 5887,
      "winds": 5888,
      "arcsec": 5889,
      "flav": 5890,
      "droplet": 5891,
      "diffeomorphism": 5892,
      "integrable": 5893,
      "quadrupole": 5894,
      "crossover": 5895,
      ")/": 5896,
      "kl": 5897,
      "topic": 5898,
      "colored": 5899,
      "triangles": 5900,
      "tware": 5901,
      "twice": 5902,
      "anoma": 5903,
      "software": 5904,
      "leave": 5905,
      "rapidity": 5906,
      "conjug": 5907,
      "sitter": 5908,
      "Com": 5909,
      "ech": 5910,
      "nj": 5911,
      "took": 5912,
      "unde": 5913,
      "differs": 5914,
      "ously": 5915,
      "prelimin": 5916,
      "feasi": 5917,
      "reflected": 5918,
      "initi": 5919,
      "potentially": 5920,
      "handed": 5921,
      "trees": 5922,
      "mordial": 5923,
      "neighbour": 5924,
      "holomorphic": 5925,
      "ambient": 5926,
      "preparation": 5927,
      "Jo": 5928,
      "bob": 5929,
      "eb": 5930,
      "gni": 5931,
      "jam": 5932,
      "online": 5933,
      "susp": 5934,
      "exterior": 5935,
      "occurrence": 5936,
      "primordial": 5937,
      "gust": 5938,
      "comparisons": 5939,
      "strengths": 5940,
      "targets": 5941,
      "continuously": 5942,
      "ranging": 5943,
      "building": 5944,
      "craft": 5945,
      "United": 5946,
      "language": 5947,
      "Amer": 5948,
      "cast": 5949,
      "joseph": 5950,
      "task": 5951,
      "covered": 5952,
      "mov": 5953,
      "cil": 5954,
      "exer": 5955,
      "ague": 5956,
      "generates": 5957,
      "omit": 5958,
      "mony": 5959,
      "unities": 5960,
      "xmath322": 5961,
      "partial_": 5962,
      "operatorname": 5963,
      "yielding": 5964,
      "advanced": 5965,
      "remarkable": 5966,
      "substanti": 5967,
      "acceptance": 5968,
      "symmetries": 5969,
      "inclination": 5970,
      ").\\": 5971,
      "Ho": 5972,
      "ama": 5973,
      "ym": 5974,
      "rewrite": 5975,
      "codes": 5976,
      "chord": 5977,
      "ounced": 5978,
      "board": 5979,
      "mutual": 5980,
      "generalization": 5981,
      "xmath303": 5982,
      "connect": 5983,
      "absorber": 5984,
      "involve": 5985,
      "modules": 5986,
      "recorded": 5987,
      "morphology": 5988,
      "popular": 5989,
      "swift": 5990,
      "school": 5991,
      "600": 5992,
      "This": 5993,
      "^+": 5994,
      "mv": 5995,
      "nh": 5996,
      "obey": 5997,
      "pmatrix": 5998,
      "inversion": 5999,
      "coales": 6000,
      "concept": 6001,
      "olic": 6002,
      "compens": 6003,
      "heated": 6004,
      "nontrivial": 6005,
      "^{-\\": 6006,
      "speak": 6007,
      "puts": 6008,
      "suggesting": 6009,
      "repulsive": 6010,
      "_r": 6011,
      "fro": 6012,
      "knot": 6013,
      "tb": 6014,
      "rep": 6015,
      "stages": 6016,
      "agents": 6017,
      "lating": 6018,
      "association": 6019,
      "passing": 6020,
      "legend": 6021,
      "dt": 6022,
      "kon": 6023,
      "nar": 6024,
      "von": 6025,
      "chap": 6026,
      "rau": 6027,
      "xmath312": 6028,
      "xmath330": 6029,
      "lam": 6030,
      "fric": 6031,
      "101": 6032,
      "obtaining": 6033,
      "substitution": 6034,
      "acknowledge": 6035,
      "attributed": 6036,
      "fairly": 6037,
      "eman": 6038,
      "rin": 6039,
      "yan": 6040,
      "thor": 6041,
      "recombination": 6042,
      "}}}\\": 6043,
      "opacity": 6044,
      "graphy": 6045,
      "xmath293": 6046,
      "theoretically": 6047,
      "capacity": 6048,
      "tuned": 6049,
      "principal": 6050,
      "}}}{{\\": 6051,
      "helpful": 6052,
      "contamination": 6053,
      "institute": 6054,
      "Th": 6055,
      "s1": 6056,
      "inger": 6057,
      "wered": 6058,
      "entering": 6059,
      "moti": 6060,
      "raise": 6061,
      "haus": 6062,
      "lax": 6063,
      "ifempty": 6064,
      "xmath321": 6065,
      "245": 6066,
      "frames": 6067,
      "viewed": 6068,
      "applicable": 6069,
      "succes": 6070,
      "tracks": 6071,
      "million": 6072,
      ".(": 6073,
      "080": 6074,
      "flip": 6075,
      "jour": 6076,
      "rist": 6077,
      "ale": 6078,
      "isother": 6079,
      "argue": 6080,
      "simal": 6081,
      "fig4": 6082,
      "}}]": 6083,
      "mind": 6084,
      "upd": 6085,
      "properly": 6086,
      "dynamically": 6087,
      "factorization": 6088,
      "certainly": 6089,
      "originally": 6090,
      "complexes": 6091,
      "shapes": 6092,
      "ellipso": 6093,
      "lifetime": 6094,
      "implicit": 6095,
      "cambridge": 6096,
      "hierarchical": 6097,
      "ban": 6098,
      "kar": 6099,
      "lc": 6100,
      "uary": 6101,
      "mating": 6102,
      "retain": 6103,
      "beck": 6104,
      "logies": 6105,
      "tages": 6106,
      "stark": 6107,
      "}{{\\": 6108,
      "ionized": 6109,
      "inelastic": 6110,
      "brown": 6111,
      "crystals": 6112,
      "marginal": 6113,
      "pixels": 6114,
      "catalog": 6115,
      "josephson": 6116,
      "substantially": 6117,
      "*.": 6118,
      "osi": 6119,
      "{(\\": 6120,
      "url": 6121,
      "helicity": 6122,
      "mond": 6123,
      "xmath302": 6124,
      "stands": 6125,
      "bandwidth": 6126,
      "eigenvectors": 6127,
      "quadr": 6128,
      "cuts": 6129,
      "kelstein": 6130,
      "convolution": 6131,
      "klein": 6132,
      "\",": 6133,
      "<-": 6134,
      "abeli": 6135,
      "ejec": 6136,
      "hid": 6137,
      "incoming": 6138,
      "retic": 6139,
      "enced": 6140,
      "ists": 6141,
      "acqu": 6142,
      "deli": 6143,
      "hop": 6144,
      "ression": 6145,
      "header": 6146,
      "pah": 6147,
      "distant": 6148,
      "xmath305": 6149,
      "xmath307": 6150,
      "orbitals": 6151,
      "losses": 6152,
      "contributes": 6153,
      "evolved": 6154,
      "belonging": 6155,
      "collider": 6156,
      "zhang": 6157,
      "traditional": 6158,
      "abelian": 6159,
      "240": 6160,
      "4pc": 6161,
      "ptions": 6162,
      "offer": 6163,
      "arm": 6164,
      "deu": 6165,
      "iting": 6166,
      "started": 6167,
      "arrows": 6168,
      "convention": 6169,
      "alternating": 6170,
      "attach": 6171,
      "think": 6172,
      "emphasize": 6173,
      "dataset": 6174,
      "susceptibility": 6175,
      "250": 6176,
      "350": 6177,
      "htm": 6178,
      "nr": 6179,
      "ode": 6180,
      "wan": 6181,
      "leak": 6182,
      "select": 6183,
      "bered": 6184,
      "cooper": 6185,
      "bov": 6186,
      "subsec": 6187,
      "preced": 6188,
      "regimes": 6189,
      "month": 6190,
      "pointing": 6191,
      "gocy": 6192,
      "superposition": 6193,
      "backward": 6194,
      "phagocy": 6195,
      "laws": 6196,
      "concentrated": 6197,
      "minimize": 6198,
      "conjugate": 6199,
      "blow": 6200,
      "ets": 6201,
      "ml": 6202,
      "np": 6203,
      "spect": 6204,
      "generator": 6205,
      "turning": 6206,
      "secu": 6207,
      "xmath323": 6208,
      "lambda_": 6209,
      "answer": 6210,
      "lateral": 6211,
      "manifest": 6212,
      "bonds": 6213,
      "isomorphic": 6214,
      "yukawa": 6215,
      "cylindr": 6216,
      "fragmentation": 6217,
      "prominent": 6218,
      ")|": 6219,
      ",-": 6220,
      "kol": 6221,
      "{|\\": 6222,
      "ata": 6223,
      "segments": 6224,
      "xmath310": 6225,
      "triple": 6226,
      "coronal": 6227,
      "intersect": 6228,
      "monoidal": 6229,
      "reducing": 6230,
      "alternatively": 6231,
      "supernovae": 6232,
      "Polish": 6233,
      "isenberg": 6234,
      "\"^-": 6235,
      "fter": 6236,
      "pts": 6237,
      "qd": 6238,
      "wes": 6239,
      "unfol": 6240,
      "person": 6241,
      "xmath319": 6242,
      "lag": 6243,
      "variational": 6244,
      "spontaneous": 6245,
      "gru": 6246,
      "centro": 6247,
      "supersymmetry": 6248,
      "superfluid": 6249,
      "xmath329": 6250,
      "blackbody": 6251,
      "slopes": 6252,
      "purposes": 6253,
      "atmospheric": 6254,
      "rcb": 6255,
      "saturation": 6256,
      "brighter": 6257,
      "tachyon": 6258,
      "-{\\": 6259,
      "io": 6260,
      "kerr": 6261,
      "rum": 6262,
      "sand": 6263,
      "york": 6264,
      "}.": 6265,
      "tober": 6266,
      "dilu": 6267,
      "xmath311": 6268,
      "iring": 6269,
      "kept": 6270,
      "signatures": 6271,
      "notes": 6272,
      "chip": 6273,
      "guide": 6274,
      "investigations": 6275,
      "intensities": 6276,
      "regularity": 6277,
      "cascade": 6278,
      "examined": 6279,
      "failure": 6280,
      "moderate": 6281,
      "wood": 6282,
      "instantaneous": 6283,
      "schwarzschild": 6284,
      "preliminary": 6285,
      "a_2": 6286,
      "oxy": 6287,
      "rp": 6288,
      "sest": 6289,
      "tere": 6290,
      "teen": 6291,
      "stabili": 6292,
      "web": 6293,
      "proxi": 6294,
      "quet": 6295,
      "ult": 6296,
      "xmath318": 6297,
      "004": 6298,
      "}}}{}": 6299,
      "redden": 6300,
      "equatorial": 6301,
      "causes": 6302,
      "massless": 6303,
      "itect": 6304,
      "icities": 6305,
      "safe": 6306,
      "logically": 6307,
      "piece": 6308,
      "pick": 6309,
      "crosses": 6310,
      "appeared": 6311,
      "widetilde": 6312,
      "difficulty": 6313,
      "kernels": 6314,
      "tools": 6315,
      "])": 6316,
      "bt": 6317,
      "dre": 6318,
      "econ": 6319,
      "oi": 6320,
      "sent": 6321,
      "|=": 6322,
      "reset": 6323,
      "sey": 6324,
      "deco": 6325,
      "cephe": 6326,
      "xmath315": 6327,
      "adjust": 6328,
      "het": 6329,
      "shot": 6330,
      "pions": 6331,
      "astrophys": 6332,
      "author": 6333,
      "optimized": 6334,
      "adequ": 6335,
      "looking": 6336,
      "quickly": 6337,
      "After": 6338,
      "]^": 6339,
      "hur": 6340,
      "s2": 6341,
      "dece": 6342,
      "forth": 6343,
      "consecu": 6344,
      "aren": 6345,
      "heun": 6346,
      "heisenberg": 6347,
      "aged": 6348,
      "grand": 6349,
      "arded": 6350,
      "fel": 6351,
      "solv": 6352,
      "realizations": 6353,
      "xmath324": 6354,
      "alpha_1": 6355,
      "equalities": 6356,
      "hadrons": 6357,
      "classified": 6358,
      "particip": 6359,
      "doped": 6360,
      "gradients": 6361,
      "successfully": 6362,
      "Finkelstein": 6363,
      "knots": 6364,
      "Townsend": 6365,
      "hidden": 6366,
      "German": 6367,
      "May": 6368,
      "lens": 6369,
      "insul": 6370,
      "enters": 6371,
      "consequences": 6372,
      "sps": 6373,
      "gered": 6374,
      "lined": 6375,
      "graf": 6376,
      "grains": 6377,
      "monitor": 6378,
      "deterministic": 6379,
      "bigr": 6380,
      "architect": 6381,
      "shaded": 6382,
      "accounting": 6383,
      "torsion": 6384,
      "systematically": 6385,
      "renormalized": 6386,
      "}[{\\": 6387,
      "rigor": 6388,
      "oxygen": 6389,
      "):": 6390,
      "fading": 6391,
      "yang": 6392,
      "reconstructed": 6393,
      "iser": 6394,
      "ats": 6395,
      "comoving": 6396,
      "xmath320": 6397,
      "agns": 6398,
      "equally": 6399,
      "intui": 6400,
      "collective": 6401,
      "xmath345": 6402,
      "visual": 6403,
      "converge": 6404,
      "greatly": 6405,
      "projective": 6406,
      "sembles": 6407,
      "mirror": 6408,
      "isothermal": 6409,
      "])-": 6410,
      "cous": 6411,
      "dp": 6412,
      "flight": 6413,
      "lept": 6414,
      "xmath317": 6415,
      "005": 6416,
      "subtracted": 6417,
      "transver": 6418,
      "foreground": 6419,
      "price": 6420,
      "xmath342": 6421,
      "astrophysics": 6422,
      "aircraft": 6423,
      "multiplication": 6424,
      "acknowledges": 6425,
      "impossible": 6426,
      "Egy": 6427,
      "fried": 6428,
      "nak": 6429,
      "aring": 6430,
      "sex": 6431,
      "seve": 6432,
      "wire": 6433,
      "xmath314": 6434,
      "xmath316": 6435,
      "displays": 6436,
      "ldots": 6437,
      "gie": 6438,
      "kepler": 6439,
      "venumber": 6440,
      "wavenumber": 6441,
      "varied": 6442,
      "transforms": 6443,
      "dominate": 6444,
      "=\"^": 6445,
      "salt": 6446,
      "eta_": 6447,
      "explored": 6448,
      "recoil": 6449,
      "ferromagne": 6450,
      "attempts": 6451,
      "subtraction": 6452,
      "spacing": 6453,
      "resources": 6454,
      "At": 6455,
      "forcing": 6456,
      "ida": 6457,
      "letter": 6458,
      "xmath334": 6459,
      "affine": 6460,
      "affects": 6461,
      "deduce": 6462,
      "histogram": 6463,
      "peculi": 6464,
      "resistance": 6465,
      "bis": 6466,
      "lad": 6467,
      "rat": 6468,
      "z_": 6469,
      "{}": 6470,
      "mathversion": 6471,
      "devo": 6472,
      "xmath300": 6473,
      "sole": 6474,
      "admissible": 6475,
      "002": 6476,
      "doc": 6477,
      "datab": 6478,
      "xmath308": 6479,
      "continue": 6480,
      "society": 6481,
      "}}}}}}}}}\\": 6482,
      "negativity": 6483,
      "minimization": 6484,
      "counterpart": 6485,
      "doppler": 6486,
      "believed": 6487,
      "monomial": 6488,
      "icole": 6489,
      "}}]}}}{\\": 6490,
      "leptons": 6491,
      "Nicole": 6492,
      "wedge": 6493,
      "congru": 6494,
      "lov": 6495,
      "displacement": 6496,
      "fig5": 6497,
      "vibr": 6498,
      "subsets": 6499,
      "xmath327": 6500,
      "numerous": 6501,
      "xmath347": 6502,
      "}}}}}": 6503,
      "shells": 6504,
      "removal": 6505,
      "expanded": 6506,
      "morphism": 6507,
      "neighbors": 6508,
      "arrangement": 6509,
      "truncated": 6510,
      "-{": 6511,
      "Bo": 6512,
      "aer": 6513,
      "ive": 6514,
      "mssm": 6515,
      "qn": 6516,
      "sadd": 6517,
      "insight": 6518,
      "ros": 6519,
      "outh": 6520,
      "nebul": 6521,
      "oney": 6522,
      "corn": 6523,
      "plates": 6524,
      "opport": 6525,
      "impose": 6526,
      "bring": 6527,
      "logic": 6528,
      "xmath306": 6529,
      "xmath309": 6530,
      "crossings": 6531,
      "diagnos": 6532,
      "minima": 6533,
      "circuit": 6534,
      "illustrates": 6535,
      "leaving": 6536,
      "condensed": 6537,
      "occupation": 6538,
      "quotient": 6539,
      "artificial": 6540,
      "suspen": 6541,
      "cylindrical": 6542,
      "Se": 6543,
      "ao": 6544,
      "glow": 6545,
      "idi": 6546,
      "vd": 6547,
      "enrich": 6548,
      "robo": 6549,
      "cham": 6550,
      "sph": 6551,
      "ecu": 6552,
      "soon": 6553,
      "vian": 6554,
      "fran": 6555,
      "clean": 6556,
      "128": 6557,
      "absent": 6558,
      "xmath392": 6559,
      "1982": 6560,
      "\\,,\\": 6561,
      "morse": 6562,
      "adsor": 6563,
      "])-([": 6564,
      "4u": 6565,
      "War": 6566,
      "dden": 6567,
      "fed": 6568,
      "mller": 6569,
      "won": 6570,
      "tember": 6571,
      "deformed": 6572,
      "sums": 6573,
      "lift": 6574,
      "admits": 6575,
      "ilinear": 6576,
      "held": 6577,
      "bolo": 6578,
      "gave": 6579,
      "imir": 6580,
      "carri": 6581,
      "archae": 6582,
      "rotations": 6583,
      "planes": 6584,
      "accep": 6585,
      "mismatch": 6586,
      "linked": 6587,
      "addressed": 6588,
      "casimir": 6589,
      "junctions": 6590,
      "governed": 6591,
      "ejecta": 6592,
      ";,\\": 6593,
      "Con": 6594,
      "smith": 6595,
      "xr": 6596,
      "zu": 6597,
      "redi": 6598,
      "remn": 6599,
      "ancy": 6600,
      "anisotropic": 6601,
      "ingredi": 6602,
      "xmath340": 6603,
      "reflects": 6604,
      "determinant": 6605,
      "rotate": 6606,
      "instabilities": 6607,
      "axes": 6608,
      "duality": 6609,
      "diffusive": 6610,
      "laplac": 6611,
      "granular": 6612,
      "strip": 6613,
      "claimed": 6614,
      "adaptive": 6615,
      "ropean": 6616,
      "interferometer": 6617,
      "450": 6618,
      "Sar": 6619,
      "\\|": 6620,
      "mno": 6621,
      "inspec": 6622,
      "alfv": 6623,
      "wein": 6624,
      "wimp": 6625,
      "pauli": 6626,
      "cript": 6627,
      "testing": 6628,
      "player": 6629,
      "superconductors": 6630,
      "distinguished": 6631,
      "adapted": 6632,
      "spirals": 6633,
      "competition": 6634,
      "monomer": 6635,
      "consecutive": 6636,
      "laplacian": 6637,
      "lou": 6638,
      "night": 6639,
      "ensi": 6640,
      "entries": 6641,
      "offic": 6642,
      "ignor": 6643,
      "finan": 6644,
      "option": 6645,
      "davi": 6646,
      "markov": 6647,
      "crack": 6648,
      "xmath332": 6649,
      "merge": 6650,
      "infall": 6651,
      "john": 6652,
      "mming": 6653,
      "exclude": 6654,
      "achievable": 6655,
      "career": 6656,
      "modern": 6657,
      "differentiable": 6658,
      "analogy": 6659,
      "alfvn": 6660,
      "Ge": 6661,
      "mf": 6662,
      "m_1": 6663,
      "nine": 6664,
      "rewritten": 6665,
      "reproduced": 6666,
      "concep": 6667,
      "promis": 6668,
      "nomin": 6669,
      "hopping": 6670,
      "restimate": 6671,
      "phasing": 6672,
      "evapor": 6673,
      "tism": 6674,
      "priv": 6675,
      "connections": 6676,
      "spherically": 6677,
      "arbitrarily": 6678,
      "stripping": 6679,
      "chaos": 6680,
      "automatic": 6681,
      "!\\!\\": 6682,
      "ultras": 6683,
      "\":\"": 6684,
      "990": 6685,
      "u_": 6686,
      "y_": 6687,
      "yo": 6688,
      "tier": 6689,
      "det": 6690,
      "converse": 6691,
      "lla": 6692,
      "outflows": 6693,
      "subgroup": 6694,
      "akov": 6695,
      "feii": 6696,
      "possibilities": 6697,
      "induce": 6698,
      "kowski": 6699,
      "converted": 6700,
      "ideas": 6701,
      "connectivity": 6702,
      "evolves": 6703,
      "impurities": 6704,
      "southern": 6705,
      "camera": 6706,
      "monomials": 6707,
      "ville": 6708,
      "anomaly": 6709,
      "saddle": 6710,
      "Sarnia": 6711,
      "Col": 6712,
      "_p": 6713,
      "caching": 6714,
      "fb": 6715,
      "hit": 6716,
      "hbox": 6717,
      "utes": 6718,
      "xx": 6719,
      "archi": 6720,
      "dem": 6721,
      "raph": 6722,
      "interact": 6723,
      "1016": 6724,
      "timelike": 6725,
      "integers": 6726,
      "colour": 6727,
      "140": 6728,
      "experience": 6729,
      "180": 6730,
      "xmath328": 6731,
      "afterglow": 6732,
      "carte": 6733,
      "nsf": 6734,
      "everywhere": 6735,
      "electroweak": 6736,
      "geneity": 6737,
      "eucli": 6738,
      "brightest": 6739,
      "parametrization": 6740,
      "squeezed": 6741,
      "fractal": 6742,
      "wolf": 6743,
      "\\:+\\,": 6744,
      "rauzy": 6745,
      "2h": 6746,
      "5cm": 6747,
      "No": 6748,
      "So": 6749,
      "],\\": 6750,
      "mity": 6751,
      "mapped": 6752,
      "unchanged": 6753,
      "strings": 6754,
      "numbered": 6755,
      "overl": 6756,
      "relativity": 6757,
      "xmath331": 6758,
      "shadow": 6759,
      "domains": 6760,
      "superconductor": 6761,
      "progres": 6762,
      "govern": 6763,
      "scripts": 6764,
      "interpolation": 6765,
      "grateful": 6766,
      "econom": 6767,
      "cartesian": 6768,
      "ike": 6769,
      "ping": 6770,
      "ues": 6771,
      "ensures": 6772,
      "alg": 6773,
      "alth": 6774,
      "sibility": 6775,
      "acade": 6776,
      "iton": 6777,
      "divis": 6778,
      "obs": 6779,
      "bog": 6780,
      "agent": 6781,
      "serious": 6782,
      "tension": 6783,
      "cave": 6784,
      "preci": 6785,
      "metrical": 6786,
      "newtonian": 6787,
      "xmath376": 6788,
      "}}}}}}}}": 6789,
      "}}}},{{\\": 6790,
      "extending": 6791,
      "suffices": 6792,
      "proposal": 6793,
      "hypersurface": 6794,
      "interpret": 6795,
      "biggl": 6796,
      "}}}{}{\\": 6797,
      "simplify": 6798,
      "avoided": 6799,
      "complementary": 6800,
      "feasible": 6801,
      "transversal": 6802,
      "nir": 6803,
      "replic": 6804,
      "atlas": 6805,
      "acous": 6806,
      "concre": 6807,
      "spots": 6808,
      "resti": 6809,
      "vide": 6810,
      "peter": 6811,
      "worm": 6812,
      "neuro": 6813,
      "xmath325": 6814,
      "xmath356": 6815,
      "alpha_": 6816,
      "1981": 6817,
      "fainter": 6818,
      "braid": 6819,
      "textstyle": 6820,
      "infinitesimal": 6821,
      "trigon": 6822,
      "quenched": 6823,
      "proximity": 6824,
      "dor": 6825,
      "kra": 6826,
      "mr": 6827,
      "npd": 6828,
      "pene": 6829,
      "rael": 6830,
      "apan": 6831,
      "102": 6832,
      "aki": 6833,
      "1506": 6834,
      "reflect": 6835,
      "simpler": 6836,
      "greg": 6837,
      "xmath335": 6838,
      "xmath380": 6839,
      "drops": 6840,
      "shaped": 6841,
      "geometrical": 6842,
      "gravitation": 6843,
      "reasonably": 6844,
      "gaps": 6845,
      "apparently": 6846,
      "falls": 6847,
      "trigger": 6848,
      "timescales": 6849,
      "switching": 6850,
      "www": 6851,
      "]-[": 6852,
      "thomas": 6853,
      "effort": 6854,
      "%%": 6855,
      "For": 6856,
      "gri": 6857,
      "gases": 6858,
      "astern": 6859,
      "roll": 6860,
      "story": 6861,
      "addi": 6862,
      "latitude": 6863,
      "diffrac": 6864,
      "cession": 6865,
      "pref": 6866,
      "127": 6867,
      "factory": 6868,
      "completes": 6869,
      "immer": 6870,
      "xmath336": 6871,
      "approaching": 6872,
      "propagate": 6873,
      "isospin": 6874,
      "telescopes": 6875,
      "machines": 6876,
      "children": 6877,
      "witness": 6878,
      "attraction": 6879,
      "azimuthal": 6880,
      "hm": 6881,
      "ition": 6882,
      "conds": 6883,
      "tatively": 6884,
      "bow": 6885,
      "odrom": 6886,
      "marko": 6887,
      "xmath333": 6888,
      "alpha_2": 6889,
      "xmath346": 6890,
      "264": 6891,
      "opening": 6892,
      "modular": 6893,
      "conduction": 6894,
      "detections": 6895,
      "orthon": 6896,
      "liquids": 6897,
      "counterparts": 6898,
      "baryonic": 6899,
      "trapping": 6900,
      "careful": 6901,
      "rhic": 6902,
      "attractor": 6903,
      "\\:-\\": 6904,
      "plateau": 6905,
      "ultrasensi": 6906,
      "))": 6907,
      "2k": 6908,
      "220": 6909,
      "De": 6910,
      "khz": 6911,
      "ymmetr": 6912,
      "inh": 6913,
      "rec": 6914,
      "leaf": 6915,
      "dean": 6916,
      "obsc": 6917,
      "valuable": 6918,
      "milli": 6919,
      "update": 6920,
      "130": 6921,
      "pron": 6922,
      "operad": 6923,
      "bipartite": 6924,
      "pi_": 6925,
      "xmath372": 6926,
      "bayes": 6927,
      "coloring": 6928,
      "strategies": 6929,
      "iterative": 6930,
      "ranged": 6931,
      "cylinder": 6932,
      "dagger": 6933,
      "speaking": 6934,
      "2i": 6935,
      "Co": 6936,
      "qh": 6937,
      "ands": 6938,
      "anders": 6939,
      "dephasing": 6940,
      "wires": 6941,
      "dijet": 6942,
      "promp": 6943,
      "perspec": 6944,
      "laun": 6945,
      "vio": 6946,
      "ilit": 6947,
      "implying": 6948,
      "gray": 6949,
      "requiring": 6950,
      "century": 6951,
      "closest": 6952,
      "strongest": 6953,
      "efficiently": 6954,
      "xmath341": 6955,
      "xmath343": 6956,
      "quantitatively": 6957,
      "labels": 6958,
      "viscous": 6959,
      "planar": 6960,
      "ogle": 6961,
      "modify": 6962,
      "majorana": 6963,
      "convenience": 6964,
      "belongs": 6965,
      "attenu": 6966,
      "\\\\[.": 6967,
      "ignored": 6968,
      "John": 6969,
      "database": 6970,
      "orthonormal": 6971,
      "Fey": 6972,
      "aid": 6973,
      "fp": 6974,
      "fan": 6975,
      "hours": 6976,
      "lace": 6977,
      "mhd": 6978,
      "pon": 6979,
      "yal": 6980,
      "indirect": 6981,
      "invo": 6982,
      "room": 6983,
      "edding": 6984,
      "spite": 6985,
      "hope": 6986,
      "parab": 6987,
      "dissoci": 6988,
      "stral": 6989,
      "aka": 6990,
      "xmath326": 6991,
      "xmath337": 6992,
      "xmath349": 6993,
      "otto": 6994,
      "scope": 6995,
      "expansions": 6996,
      "breaks": 6997,
      "principles": 6998,
      "metallic": 6999,
      "solitons": 7000,
      "screening": 7001,
      "itaev": 7002,
      "ergodic": 7003,
      "journal": 7004,
      "markovian": 7005,
      "dk": 7006,
      "fres": 7007,
      "nag": 7008,
      "nds": 7009,
      "forbid": 7010,
      "execu": 7011,
      "abrb": 7012,
      "xmath370": 7013,
      "fire": 7014,
      "disrup": 7015,
      "bodies": 7016,
      "statements": 7017,
      "125": 7018,
      "nucleons": 7019,
      "priori": 7020,
      "stimul": 7021,
      "characters": 7022,
      "players": 7023,
      "chi_4": 7024,
      "supports": 7025,
      "baseline": 7026,
      "transferred": 7027,
      "metals": 7028,
      "calibrated": 7029,
      "hypothe": 7030,
      "weinberg": 7031,
      "acoustic": 7032,
      "=@": 7033,
      "]^-": 7034,
      "fg": 7035,
      "omi": 7036,
      "smb": 7037,
      "vation": 7038,
      "mask": 7039,
      "alter": 7040,
      "sized": 7041,
      "pore": 7042,
      "liu": 7043,
      "103": 7044,
      "impul": 7045,
      "presentation": 7046,
      "completed": 7047,
      "pull": 7048,
      "quantify": 7049,
      "behaviors": 7050,
      "introduces": 7051,
      "combinatorial": 7052,
      "formulated": 7053,
      "ccd": 7054,
      "accounts": 7055,
      "kern": 7056,
      "reaching": 7057,
      "regardless": 7058,
      "mjy": 7059,
      "coalescence": 7060,
      "reddening": 7061,
      "peculiar": 7062,
      "1ex": 7063,
      "425": 7064,
      "bad": 7065,
      "bla": 7066,
      "fes": 7067,
      "ral": 7068,
      "reproduces": 7069,
      "raised": 7070,
      "eccentr": 7071,
      "fibration": 7072,
      "lips": 7073,
      "003": 7074,
      "irac": 7075,
      "twis": 7076,
      "opt": 7077,
      "fold": 7078,
      "prevent": 7079,
      "neumann": 7080,
      "indication": 7081,
      "oscillating": 7082,
      "covers": 7083,
      "boltz": 7084,
      "leptonic": 7085,
      "filaments": 7086,
      "penal": 7087,
      "damped": 7088,
      "deduced": 7089,
      "astronomy": 7090,
      "diffractive": 7091,
      "bending": 7092,
      "util": 7093,
      "wu": 7094,
      "xb": 7095,
      "anne": 7096,
      "}}^{": 7097,
      "serve": 7098,
      "mani": 7099,
      "grade": 7100,
      "gradually": 7101,
      "submanifold": 7102,
      "parametric": 7103,
      "relate": 7104,
      "zeeman": 7105,
      "operated": 7106,
      "goals": 7107,
      "antiquark": 7108,
      "frequently": 7109,
      "fixing": 7110,
      "}}}}\\": 7111,
      "decaying": 7112,
      "doubly": 7113,
      "practically": 7114,
      "evolving": 7115,
      "compressible": 7116,
      "States": 7117,
      "learning": 7118,
      "321": 7119,
      "All": 7120,
      "kms": 7121,
      "m_2": 7122,
      "really": 7123,
      "tot": 7124,
      "acqui": 7125,
      "deman": 7126,
      "irrelevant": 7127,
      "comment": 7128,
      "137": 7129,
      "collected": 7130,
      "matsu": 7131,
      "xmath351": 7132,
      "xmath353": 7133,
      "rows": 7134,
      "normally": 7135,
      "communities": 7136,
      "microwave": 7137,
      "averages": 7138,
      "families": 7139,
      "identifying": 7140,
      "focused": 7141,
      "sampled": 7142,
      "motifs": 7143,
      "suspension": 7144,
      "chamber": 7145,
      "financial": 7146,
      "euclidean": 7147,
      "pronounced": 7148,
      "980": 7149,
      "tting": 7150,
      "relay": 7151,
      "mobility": 7152,
      "pointer": 7153,
      "file": 7154,
      "discri": 7155,
      "notations": 7156,
      "amer": 7157,
      "sson": 7158,
      "arian": 7159,
      "104": 7160,
      "deple": 7161,
      "123": 7162,
      "partly": 7163,
      "transient": 7164,
      "backgrounds": 7165,
      "xmath339": 7166,
      "reading": 7167,
      "peaked": 7168,
      "evaluating": 7169,
      "drift": 7170,
      "phenomenology": 7171,
      "1979": 7172,
      "discreti": 7173,
      "extraction": 7174,
      "requirements": 7175,
      "nmssm": 7176,
      "walks": 7177,
      "decades": 7178,
      "plau": 7179,
      "Christ": 7180,
      "challenging": 7181,
      "instruction": 7182,
      "\\:-\\,": 7183,
      "boltzmann": 7184,
      "Wor": 7185,
      "].\\": 7186,
      "dw": 7187,
      "dfrac": 7188,
      "eli": 7189,
      "fgl": 7190,
      "iff": 7191,
      "ims": 7192,
      "ox": 7193,
      "otimes": 7194,
      "owing": 7195,
      "swe": 7196,
      "mati": 7197,
      "timing": 7198,
      "rock": 7199,
      "forced": 7200,
      "mos": 7201,
      "liou": 7202,
      "bubb": 7203,
      "berger": 7204,
      "overline": 7205,
      "aug": 7206,
      "denomin": 7207,
      "stiff": 7208,
      "xmath354": 7209,
      "carrier": 7210,
      "periodicity": 7211,
      "extensively": 7212,
      "leaders": 7213,
      "advantages": 7214,
      "employing": 7215,
      "facts": 7216,
      "reviews": 7217,
      "involution": 7218,
      "cancel": 7219,
      "bubbles": 7220,
      "/(": 7221,
      "bou": 7222,
      "bps": 7223,
      "mig": 7224,
      "mun": 7225,
      "alma": 7226,
      "sectors": 7227,
      "rian": 7228,
      "tening": 7229,
      "107": 7230,
      "sage": 7231,
      "mesh": 7232,
      "centers": 7233,
      "limitations": 7234,
      "multipole": 7235,
      "crs": 7236,
      "denoting": 7237,
      "behaves": 7238,
      "evolutionary": 7239,
      "229": 7240,
      "tilt": 7241,
      "concluded": 7242,
      "films": 7243,
      "turned": 7244,
      "matched": 7245,
      "kinds": 7246,
      "inserting": 7247,
      "education": 7248,
      "American": 7249,
      "concrete": 7250,
      "w_": 7251,
      "reverse": 7252,
      "encoun": 7253,
      "death": 7254,
      "sudden": 7255,
      "}}^": 7256,
      "berts": 7257,
      "music": 7258,
      "equivariant": 7259,
      "newly": 7260,
      "cern": 7261,
      "alphabet": 7262,
      "neglecting": 7263,
      "swap": 7264,
      "recovered": 7265,
      "geodesics": 7266,
      "package": 7267,
      "ymmetric": 7268,
      "ave": 7269,
      "ked": 7270,
      "nab": 7271,
      "nps": 7272,
      "stic": 7273,
      "wr": 7274,
      "ert": 7275,
      "decor": 7276,
      "exit": 7277,
      "geq": 7278,
      "xmath4roman": 7279,
      "boo": 7280,
      "psf": 7281,
      "bling": 7282,
      "xmath348": 7283,
      "puzz": 7284,
      "accounted": 7285,
      "propagators": 7286,
      "conservative": 7287,
      "bundles": 7288,
      "ships": 7289,
      "looks": 7290,
      "contamin": 7291,
      "adequate": 7292,
      "Can": 7293,
      "b1": 7294,
      "cations": 7295,
      "cft": 7296,
      "gpa": 7297,
      "rus": 7298,
      "wat": 7299,
      "inhomo": 7300,
      "tile": 7301,
      "edia": 7302,
      "coexistence": 7303,
      "proven": 7304,
      "olar": 7305,
      "live": 7306,
      "doing": 7307,
      "iras": 7308,
      "ager": 7309,
      "minutes": 7310,
      "fron": 7311,
      "uniquen": 7312,
      "damage": 7313,
      "operating": 7314,
      "zeros": 7315,
      "estimating": 7316,
      "milky": 7317,
      "originates": 7318,
      "capable": 7319,
      "burning": 7320,
      "stored": 7321,
      "laplace": 7322,
      "pseudoscalar": 7323,
      "automatically": 7324,
      "150136": 7325,
      "],[": 7326,
      "hawking": 7327,
      "reticulation": 7328,
      "accepted": 7329,
      "uniqueness": 7330,
      "-(": 7331,
      "325": 7332,
      "gor": 7333,
      "nic": 7334,
      "enables": 7335,
      "unperturbed": 7336,
      "proves": 7337,
      "hom": 7338,
      "xmath350": 7339,
      "resulted": 7340,
      "subgraph": 7341,
      "metrics": 7342,
      "measura": 7343,
      "summed": 7344,
      "brush": 7345,
      "shifting": 7346,
      "waveforms": 7347,
      "xmath338": 7348,
      "merging": 7349,
      "characterization": 7350,
      "statistically": 7351,
      "sciences": 7352,
      "infinitely": 7353,
      "intense": 7354,
      "demonstrates": 7355,
      "stripped": 7356,
      "remarkably": 7357,
      "epsilon_": 7358,
      "ekf": 7359,
      "false": 7360,
      "015": 7361,
      "525": 7362,
      "Nove": 7363,
      "bd": 7364,
      "dents": 7365,
      "j_": 7366,
      "kam": 7367,
      "};\\": 7368,
      "relies": 7369,
      "lex": 7370,
      "cht": 7371,
      "versions": 7372,
      "soph": 7373,
      "bott": 7374,
      "grading": 7375,
      "news": 7376,
      "specify": 7377,
      "xmath355": 7378,
      "mergers": 7379,
      "quantization": 7380,
      "modelling": 7381,
      "contraction": 7382,
      "hamiltonians": 7383,
      "anov": 7384,
      "explains": 7385,
      "graviton": 7386,
      "1977": 7387,
      "coincidence": 7388,
      "permutations": 7389,
      "modulo": 7390,
      "captured": 7391,
      "status": 7392,
      "devoted": 7393,
      "nebula": 7394,
      "obscured": 7395,
      "November": 7396,
      "nand": 7397,
      "rx": 7398,
      "sket": 7399,
      "tori": 7400,
      "male": 7401,
      "moved": 7402,
      "spo": 7403,
      "resto": 7404,
      "libr": 7405,
      "ourselves": 7406,
      "irs": 7407,
      "ames": 7408,
      "pative": 7409,
      "mesa": 7410,
      "refers": 7411,
      "simulate": 7412,
      "methodo": 7413,
      "ock": 7414,
      "equiv": 7415,
      "transit": 7416,
      "throughput": 7417,
      "analyzing": 7418,
      "statistic": 7419,
      "matches": 7420,
      "synchron": 7421,
      "removing": 7422,
      "caten": 7423,
      "reversal": 7424,
      "acceptable": 7425,
      "epochs": 7426,
      "extrapolation": 7427,
      "efforts": 7428,
      "preferred": 7429,
      "kondo": 7430,
      "Egyp": 7431,
      "&\\": 7432,
      "119": 7433,
      "cise": 7434,
      "hon": 7435,
      "kim": 7436,
      "kip": 7437,
      "x_0": 7438,
      "zable": 7439,
      "{$\\": 7440,
      "inequalities": 7441,
      "tele": 7442,
      "rote": 7443,
      "seconds": 7444,
      "dirich": 7445,
      "ticity": 7446,
      "plun": 7447,
      "optics": 7448,
      "108": 7449,
      "submitted": 7450,
      "item": 7451,
      "scin": 7452,
      "holding": 7453,
      "bigl": 7454,
      "continuation": 7455,
      "xmath359": 7456,
      "xmath344": 7457,
      "supply": 7458,
      "putting": 7459,
      "gauss": 7460,
      "growing": 7461,
      "stret": 7462,
      "bench": 7463,
      "distinguishable": 7464,
      "brackets": 7465,
      "raisebox": 7466,
      "promising": 7467,
      "video": 7468,
      "dirichlet": 7469,
      "cis": 7470,
      "eh": 7471,
      "ez": 7472,
      "gino": 7473,
      "ston": 7474,
      "itors": 7475,
      "notic": 7476,
      "fier": 7477,
      "irregular": 7478,
      "places": 7479,
      "109": 7480,
      "outcome": 7481,
      "lecs": 7482,
      "seeing": 7483,
      "sake": 7484,
      "terminals": 7485,
      "worksho": 7486,
      "xmath366": 7487,
      "xmath383": 7488,
      "supple": 7489,
      "occurring": 7490,
      "conducted": 7491,
      "filters": 7492,
      "ridge": 7493,
      "anied": 7494,
      "violating": 7495,
      "Church": 7496,
      "cumulative": 7497,
      "accompanied": 7498,
      "prepared": 7499,
      "solely": 7500,
      "NB": 7501,
      "North": 7502,
      "^^": 7503,
      "gg": 7504,
      "h1": 7505,
      "hyste": 7506,
      "mess": 7507,
      "vice": 7508,
      "thed": 7509,
      "tel": 7510,
      "triton": 7511,
      "chec": 7512,
      "nets": 7513,
      "nept": 7514,
      "uri": 7515,
      "ssbe": 7516,
      "endpoints": 7517,
      "variate": 7518,
      "precession": 7519,
      "reless": 7520,
      "contacts": 7521,
      "spinor": 7522,
      "countries": 7523,
      "nucleation": 7524,
      "They": 7525,
      "consistently": 7526,
      "cdf": 7527,
      "photosphere": 7528,
      "dispersions": 7529,
      "procedures": 7530,
      "extensions": 7531,
      "chirality": 7532,
      "dominantly": 7533,
      "bruary": 7534,
      "accompl": 7535,
      "eliminate": 7536,
      "storage": 7537,
      "department": 7538,
      "legendrian": 7539,
      "(.": 7540,
      "Jan": 7541,
      "kic": 7542,
      "pent": 7543,
      "slower": 7544,
      "wen": 7545,
      "alactic": 7546,
      "rout": 7547,
      "chose": 7548,
      "cemp": 7549,
      "ection": 7550,
      "phan": 7551,
      "appreci": 7552,
      "adjus": 7553,
      "fig6": 7554,
      "116": 7555,
      "igner": 7556,
      "303": 7557,
      "xmath360": 7558,
      "regression": 7559,
      "tilted": 7560,
      "ruled": 7561,
      "unitarity": 7562,
      "scalars": 7563,
      "electrostatic": 7564,
      "accreted": 7565,
      "preserve": 7566,
      "repeat": 7567,
      "magnetized": 7568,
      "articles": 7569,
      "challenge": 7570,
      "astronomical": 7571,
      "monotonically": 7572,
      "distortion": 7573,
      "catalogue": 7574,
      "friction": 7575,
      "fellow": 7576,
      "measurable": 7577,
      "Na": 7578,
      "_a": 7579,
      "echo": 7580,
      "lsp": 7581,
      "p_1": 7582,
      "wigner": 7583,
      "enko": 7584,
      "bec": 7585,
      "lyman": 7586,
      "exotic": 7587,
      "umin": 7588,
      "tward": 7589,
      "agb": 7590,
      "berlin": 7591,
      "presu": 7592,
      "firstly": 7593,
      "undergo": 7594,
      "equipped": 7595,
      "xmath365": 7596,
      "homoto": 7597,
      "1976": 7598,
      "accelerating": 7599,
      "neutralino": 7600,
      "constructing": 7601,
      "resolve": 7602,
      "convection": 7603,
      "solitary": 7604,
      "crystalline": 7605,
      "constitute": 7606,
      "bracket": 7607,
      "dollar": 7608,
      "overlapping": 7609,
      "Christmas": 7610,
      "liouville": 7611,
      "scintill": 7612,
      "adjusted": 7613,
      "\\}\\": 7614,
      "]=": 7615,
      "hfill": 7616,
      "dex": 7617,
      "functors": 7618,
      "service": 7619,
      "grs": 7620,
      "sine": 7621,
      "dedic": 7622,
      "refere": 7623,
      "martin": 7624,
      "isher": 7625,
      "country": 7626,
      "hips": 7627,
      "offers": 7628,
      "combine": 7629,
      "}({\\": 7630,
      "ashion": 7631,
      "episo": 7632,
      "1975": 7633,
      "agn1": 7634,
      "a_j": 7635,
      "decision": 7636,
      "concerned": 7637,
      "trends": 7638,
      "attacks": 7639,
      "carrying": 7640,
      "retarded": 7641,
      "successive": 7642,
      "updated": 7643,
      "ladder": 7644,
      ").,": 7645,
      "Air": 7646,
      "fashion": 7647,
      "ubov": 7648,
      "vl": 7649,
      "inconsistent": 7650,
      "assemb": 7651,
      "leigh": 7652,
      "seller": 7653,
      "becoming": 7654,
      "iger": 7655,
      "wireless": 7656,
      "discontinuity": 7657,
      "}}(": 7658,
      "anger": 7659,
      "imposing": 7660,
      "foli": 7661,
      "cyclic": 7662,
      "ionisation": 7663,
      "144": 7664,
      "imer": 7665,
      "correspondingly": 7666,
      "holland": 7667,
      "bigra": 7668,
      "genus": 7669,
      "xmath352": 7670,
      "xmath363": 7671,
      "xmath364": 7672,
      "226": 7673,
      "eigenfunctions": 7674,
      "elli": 7675,
      "partitions": 7676,
      "snap": 7677,
      "excluding": 7678,
      "varepsilon_": 7679,
      "european": 7680,
      "lorentzian": 7681,
      "circumstellar": 7682,
      "lightest": 7683,
      "colloid": 7684,
      "inverted": 7685,
      "congruence": 7686,
      "forbidden": 7687,
      "plunging": 7688,
      "neptune": 7689,
      "cv": 7690,
      "kp": 7691,
      "pere": 7692,
      "intra": 7693,
      "remarks": 7694,
      "arms": 7695,
      "toda": 7696,
      "today": 7697,
      "icy": 7698,
      "decomposed": 7699,
      "meters": 7700,
      "concaten": 7701,
      "rabi": 7702,
      "ffic": 7703,
      "lamination": 7704,
      "agalactic": 7705,
      "cavities": 7706,
      "spacetimes": 7707,
      "processed": 7708,
      "xmath361": 7709,
      "xmath362": 7710,
      "infected": 7711,
      "electrode": 7712,
      "1974": 7713,
      "begins": 7714,
      "extragalactic": 7715,
      "spectrometer": 7716,
      "lists": 7717,
      "antenna": 7718,
      "violet": 7719,
      "230": 7720,
      "c1": 7721,
      "hin": 7722,
      "jen": 7723,
      "kas": 7724,
      "kitaev": 7725,
      "nf": 7726,
      "nw": 7727,
      "incomplete": 7728,
      "eri": 7729,
      "wikip": 7730,
      "div": 7731,
      "procal": 7732,
      "corr": 7733,
      "twist": 7734,
      "outlined": 7735,
      "creating": 7736,
      "grain": 7737,
      "signed": 7738,
      "monodrom": 7739,
      "antimony": 7740,
      "xmath373": 7741,
      "xmath377": 7742,
      "xmath381": 7743,
      "xmath384": 7744,
      "remainder": 7745,
      "huge": 7746,
      "concentrate": 7747,
      "contributing": 7748,
      "rises": 7749,
      "minimizer": 7750,
      "facilit": 7751,
      "harmonics": 7752,
      "automa": 7753,
      "pdf": 7754,
      "&&&&": 7755,
      "conflic": 7756,
      "justified": 7757,
      "~~~~~~~~~~~~~~~~": 7758,
      "destroyed": 7759,
      "])([": 7760,
      "robots": 7761,
      "ultrasensitivity": 7762,
      "parabolic": 7763,
      "anneal": 7764,
      "540": 7765,
      "<,": 7766,
      "Pe": 7767,
      "brough": 7768,
      "dh": 7769,
      "ix": 7770,
      "sac": 7771,
      "{+": 7772,
      "ense": 7773,
      "arcs": 7774,
      "edited": 7775,
      "deities": 7776,
      "usa": 7777,
      "illo": 7778,
      "}}(\\": 7779,
      "desira": 7780,
      "veness": 7781,
      "leton": 7782,
      "scr": 7783,
      "biases": 7784,
      "pipe": 7785,
      "xmath379": 7786,
      "brill": 7787,
      "invariants": 7788,
      "ellis": 7789,
      "passive": 7790,
      "formulae": 7791,
      "1973": 7792,
      "dmr": 7793,
      "smoothly": 7794,
      "mapsto": 7795,
      "minimizing": 7796,
      "simplifies": 7797,
      "projections": 7798,
      "multiplying": 7799,
      "dissipative": 7800,
      "pumping": 7801,
      "instrumental": 7802,
      "resource": 7803,
      "energetic": 7804,
      "jacobi": 7805,
      "reciprocal": 7806,
      "chords": 7807,
      "flexi": 7808,
      "attached": 7809,
      "monitoring": 7810,
      "sophistic": 7811,
      "workshop": 7812,
      "wikipedia": 7813,
      "GA": 7814,
      "[{\\": 7815,
      "fren": 7816,
      "m31": 7817,
      "uc": 7818,
      "wrote": 7819,
      "ery": 7820,
      "ofdm": 7821,
      "arn": 7822,
      "ander": 7823,
      "deeper": 7824,
      "itter": 7825,
      "copy": 7826,
      "dise": 7827,
      "destru": 7828,
      "pay": 7829,
      "feel": 7830,
      "contents": 7831,
      "114": 7832,
      "unified": 7833,
      "save": 7834,
      "gov": 7835,
      "xmath371": 7836,
      "xmath388": 7837,
      "handle": 7838,
      "fault": 7839,
      "brain": 7840,
      "london": 7841,
      "controller": 7842,
      "innermost": 7843,
      "hydrostatic": 7844,
      "explosion": 7845,
      "vortices": 7846,
      "suppress": 7847,
      "chromo": 7848,
      "chromatic": 7849,
      "attempted": 7850,
      "dealing": 7851,
      "shortest": 7852,
      "companions": 7853,
      "ignore": 7854,
      "ignoring": 7855,
      "perspective": 7856,
      "monodromy": 7857,
      "Char": 7858,
      "Dece": 7859,
      "Oc": 7860,
      "There": 7861,
      "dar": 7862,
      "kt": 7863,
      "mri": 7864,
      "qc": 7865,
      "slam": 7866,
      "xu": 7867,
      "rou": 7868,
      "oulli": 7869,
      "mete": 7870,
      "xmath410": 7871,
      "objective": 7872,
      "approx": 7873,
      "151": 7874,
      "170": 7875,
      "xmath374": 7876,
      ")\\,\\": 7877,
      "originate": 7878,
      "remained": 7879,
      "photoproduction": 7880,
      "passage": 7881,
      "increasingly": 7882,
      "axisymmetric": 7883,
      "ilities": 7884,
      "fluids": 7885,
      "triggered": 7886,
      "puncture": 7887,
      "heterogeneous": 7888,
      "bernoulli": 7889,
      "ultimately": 7890,
      "elsewhere": 7891,
      "wanted": 7892,
      "neuroimage": 7893,
      "twisted": 7894,
      "plausible": 7895,
      "desirable": 7896,
      "James": 7897,
      "ML": 7898,
      "Pro": 7899,
      "card": 7900,
      "kan": 7901,
      "mk": 7902,
      "mur": 7903,
      "moun": 7904,
      "qp": 7905,
      "sli": 7906,
      "tas": 7907,
      "xbs": 7908,
      "insp": 7909,
      "oni": 7910,
      "asser": 7911,
      "sell": 7912,
      "ouin": 7913,
      "oulos": 7914,
      "division": 7915,
      "uncorrelated": 7916,
      "xmath400": 7917,
      "cancell": 7918,
      "manus": 7919,
      "serves": 7920,
      "substrates": 7921,
      "tubes": 7922,
      "rayleigh": 7923,
      "gret": 7924,
      "characterizing": 7925,
      "xmath367": 7926,
      "xmath368": 7927,
      "associate": 7928,
      "xmath496": 7929,
      "normalised": 7930,
      "metast": 7931,
      "ryd": 7932,
      "kink": 7933,
      "facilities": 7934,
      "slice": 7935,
      "oliubov": 7936,
      "Univer": 7937,
      "monomers": 7938,
      "progenitor": 7939,
      "gnition": 7940,
      "rigorous": 7941,
      "evaporation": 7942,
      "government": 7943,
      "bogoliubov": 7944,
      "brought": 7945,
      "December": 7946,
      "October": 7947,
      "\":@": 7948,
      "*(": 7949,
      "Apri": 7950,
      "bate": 7951,
      "finger": 7952,
      "ib": 7953,
      "xleaders": 7954,
      "istry": 7955,
      "leu": 7956,
      "diquark": 7957,
      "unusual": 7958,
      "sov": 7959,
      "valent": 7960,
      "}}}": 7961,
      "xmath840": 7962,
      "desc": 7963,
      "diffr": 7964,
      "shared": 7965,
      "mips": 7966,
      "158": 7967,
      "ishing": 7968,
      "sects": 7969,
      "indicator": 7970,
      "couples": 7971,
      "trade": 7972,
      "maxima": 7973,
      "importantly": 7974,
      "fragments": 7975,
      "geome": 7976,
      "traced": 7977,
      "supporting": 7978,
      "]\\;,\\": 7979,
      "facial": 7980,
      "thermodynamics": 7981,
      "motivation": 7982,
      "fibers": 7983,
      "spanning": 7984,
      "patch": 7985,
      "vibrational": 7986,
      "inspection": 7987,
      "private": 7988,
      "kern0pt": 7989,
      "presuma": 7990,
      "April": 7991,
      "/\\": 7992,
      "Pal": 7993,
      "Tru": 7994,
      "award": 7995,
      "dn": 7996,
      "jr": 7997,
      "pical": 7998,
      "sends": 7999,
      "iness": 8000,
      "refin": 8001,
      "telep": 8002,
      "road": 8003,
      "wider": 8004,
      "dian": 8005,
      "probed": 8006,
      "nothing": 8007,
      "sog": 8008,
      "lagr": 8009,
      "lind": 8010,
      "dom": 8011,
      "modelled": 8012,
      "interplay": 8013,
      "correlat": 8014,
      "curved": 8015,
      "xmath397": 8016,
      "occurred": 8017,
      "iterations": 8018,
      "smoothing": 8019,
      "substitute": 8020,
      "morphisms": 8021,
      "Ross": 8022,
      "repulsion": 8023,
      "August": 8024,
      "encoded": 8025,
      "silicate": 8026,
      "bolometric": 8027,
      "inherent": 8028,
      "prompt": 8029,
      "Nathan": 8030,
      "referee": 8031,
      "sophisticated": 8032,
      "presumably": 8033,
      "Eu": 8034,
      "Sep": 8035,
      "dft": 8036,
      "feld": 8037,
      "kd": 8038,
      "kill": 8039,
      "vss": 8040,
      "albed": 8041,
      "oftwo": 8042,
      "acci": 8043,
      "traces": 8044,
      "cohomology": 8045,
      "igm": 8046,
      "chel": 8047,
      "unresolved": 8048,
      "sparse": 8049,
      "promo": 8050,
      "haze": 8051,
      "urus": 8052,
      "compre": 8053,
      "148": 8054,
      "worked": 8055,
      "council": 8056,
      "sched": 8057,
      "xmath369": 8058,
      "xmath382": 8059,
      "xmath394": 8060,
      "relevance": 8061,
      "1978": 8062,
      "famili": 8063,
      "exclusion": 8064,
      "logarithm": 8065,
      "quoted": 8066,
      "translational": 8067,
      "datasets": 8068,
      "surprisingly": 8069,
      "bunch": 8070,
      "conversely": 8071,
      "World": 8072,
      "methodology": 8073,
      "brillouin": 8074,
      "manuscript": 8075,
      "Ju": 8076,
      "June": 8077,
      "Me": 8078,
      "dcc": 8079,
      "gase": 8080,
      "japan": 8081,
      "n_1": 8082,
      "x_1": 8083,
      "zones": 8084,
      "})^": 8085,
      "stro": 8086,
      "ica": 8087,
      "accord": 8088,
      "copies": 8089,
      "loys": 8090,
      "programs": 8091,
      "exca": 8092,
      "int_0": 8093,
      "reeb": 8094,
      "grants": 8095,
      "bases": 8096,
      "director": 8097,
      "coura": 8098,
      "405": 8099,
      "alpha_j": 8100,
      "satisfactory": 8101,
      "336": 8102,
      "oscillatory": 8103,
      "passes": 8104,
      "shocked": 8105,
      "compares": 8106,
      "striking": 8107,
      "distinction": 8108,
      "instruments": 8109,
      "filamentary": 8110,
      "ultraviolet": 8111,
      "nyi": 8112,
      "gmcs": 8113,
      "quadrature": 8114,
      "nabla": 8115,
      "homotopy": 8116,
      "1a": 8117,
      "800": 8118,
      "To": 8119,
      "b2": 8120,
      "gt": 8121,
      "oing": 8122,
      "qr": 8123,
      "s_2": 8124,
      "tbl": 8125,
      "incoherent": 8126,
      "reat": 8127,
      "issn": 8128,
      "wel": 8129,
      "diam": 8130,
      "unable": 8131,
      "spar": 8132,
      "xmath413": 8133,
      "discontinuous": 8134,
      "pear": 8135,
      "holon": 8136,
      "stay": 8137,
      "eigenvector": 8138,
      "1002": 8139,
      "boxes": 8140,
      "gluing": 8141,
      "schematic": 8142,
      "exploit": 8143,
      "spectrograph": 8144,
      "speeds": 8145,
      "diverge": 8146,
      "diverges": 8147,
      "influenced": 8148,
      "distributive": 8149,
      "blobs": 8150,
      "confining": 8151,
      "constituent": 8152,
      "happen": 8153,
      "perfectly": 8154,
      "condensation": 8155,
      "preceding": 8156,
      "utility": 8157,
      "September": 8158,
      "510": 8159,
      "Car": 8160,
      "During": 8161,
      "Fe": 8162,
      "Tha": 8163,
      "dof": 8164,
      "e2": 8165,
      "eft": 8166,
      "ibid": 8167,
      "qgp": 8168,
      "ado": 8169,
      "orion": 8170,
      "considers": 8171,
      "secondly": 8172,
      "deriving": 8173,
      "175": 8174,
      "xmath357": 8175,
      "xmath378": 8176,
      "cker": 8177,
      "xmath389": 8178,
      "xmath393": 8179,
      "decade": 8180,
      "visi": 8181,
      "omorphic": 8182,
      "1972": 8183,
      "recognition": 8184,
      "tracking": 8185,
      "fuzz": 8186,
      "inflationary": 8187,
      "emerge": 8188,
      "multiplied": 8189,
      "bruij": 8190,
      "colloids": 8191,
      "maximize": 8192,
      "decided": 8193,
      "clumps": 8194,
      "semiconductor": 8195,
      "centroid": 8196,
      "severe": 8197,
      "loud": 8198,
      "manipul": 8199,
      "322": 8200,
      "Shi": 8201,
      "_m": 8202,
      "bene": 8203,
      "cq": 8204,
      "gb": 8205,
      "kick": 8206,
      "pwn": 8207,
      "eso": 8208,
      "attracted": 8209,
      "touch": 8210,
      "roup": 8211,
      "icz": 8212,
      "ittle": 8213,
      "igu": 8214,
      "expl": 8215,
      "percol": 8216,
      "disturb": 8217,
      "007": 8218,
      "borel": 8219,
      "tenden": 8220,
      "}\\|": 8221,
      "upstream": 8222,
      "grass": 8223,
      "117": 8224,
      "theorems": 8225,
      "reality": 8226,
      "waveform": 8227,
      "xmath358": 8228,
      "xmath390": 8229,
      "smoothed": 8230,
      "synthesis": 8231,
      "convective": 8232,
      "computationally": 8233,
      "rhs": 8234,
      "meaningful": 8235,
      "chern": 8236,
      "compounds": 8237,
      "flavour": 8238,
      "exercise": 8239,
      "deceler": 8240,
      "feder": 8241,
      "rydberg": 8242,
      "University": 8243,
      "comprehen": 8244,
      "gaseous": 8245,
      ")}{\\": 8246,
      "_b": 8247,
      "_x": 8248,
      "egret": 8249,
      "ghost": 8250,
      "kir": 8251,
      "l1": 8252,
      "inion": 8253,
      "insensitive": 8254,
      "revis": 8255,
      "ancill": 8256,
      "teich": 8257,
      "weyl": 8258,
      "chance": 8259,
      "ultrac": 8260,
      "compacti": 8261,
      "opinion": 8262,
      "129": 8263,
      "spacelike": 8264,
      "clon": 8265,
      "continues": 8266,
      "xmath375": 8267,
      "traffic": 8268,
      "faith": 8269,
      "formulate": 8270,
      "dominance": 8271,
      "joining": 8272,
      "dusty": 8273,
      "midt": 8274,
      "adopting": 8275,
      "confirms": 8276,
      "residuals": 8277,
      "colliding": 8278,
      "globally": 8279,
      "smeared": 8280,
      "condensates": 8281,
      "recognized": 8282,
      "heavily": 8283,
      "architecture": 8284,
      "adsorption": 8285,
      "discrimin": 8286,
      "dedicated": 8287,
      "bruijn": 8288,
      ")^{-": 8289,
      "225": 8290,
      "AML": 8291,
      "bach": 8292,
      "ik": 8293,
      "m30": 8294,
      "qpos": 8295,
      "tf": 8296,
      "assemble": 8297,
      "tower": 8298,
      "debr": 8299,
      "deformations": 8300,
      "vet": 8301,
      "mob": 8302,
      "versa": 8303,
      "llan": 8304,
      "hao": 8305,
      "appl": 8306,
      "outline": 8307,
      "mutually": 8308,
      "commen": 8309,
      "commer": 8310,
      "seepage": 8311,
      "ortation": 8312,
      "121": 8313,
      "aux": 8314,
      "finitely": 8315,
      "graphics": 8316,
      "}}}}}{": 8317,
      "freely": 8318,
      "lemmas": 8319,
      "polyakov": 8320,
      "excitons": 8321,
      "shocking": 8322,
      "isotop": 8323,
      "decline": 8324,
      "commutation": 8325,
      "publication": 8326,
      "skppp": 8327,
      "clarify": 8328,
      "dict": 8329,
      "phagocytes": 8330,
      "shadowing": 8331,
      "restimated": 8332,
      "penetr": 8333,
      "fresh": 8334,
      "geometries": 8335,
      "014": 8336,
      "ather": 8337,
      "ejected": 8338,
      "fisher": 8339,
      "gut": 8340,
      "hp": 8341,
      "t1": 8342,
      "x_i": 8343,
      "mathinner": 8344,
      "alk": 8345,
      "secur": 8346,
      "aco": 8347,
      "dele": 8348,
      "veech": 8349,
      "sue": 8350,
      "ulate": 8351,
      "xmath424": 8352,
      "106": 8353,
      "126": 8354,
      "basically": 8355,
      "xmath432": 8356,
      "xmath409": 8357,
      "stop": 8358,
      "differentials": 8359,
      "restrictions": 8360,
      "difficulties": 8361,
      "plasmas": 8362,
      "detecting": 8363,
      "depths": 8364,
      "histor": 8365,
      "quiet": 8366,
      "nominal": 8367,
      "_ptr": 8368,
      "}}}}}}}}}{{{\\": 8369,
      "additive": 8370,
      "attenuation": 8371,
      "decorated": 8372,
      "metastable": 8373,
      "}}}}}{}{{\\": 8374,
      "His": 8375,
      "South": 8376,
      "hes": 8377,
      "lma": 8378,
      "nash": 8379,
      "oz": 8380,
      "pq": 8381,
      "qmc": 8382,
      "rising": 8383,
      "vlt": 8384,
      "aton": 8385,
      "atri": 8386,
      "noma": 8387,
      "umes": 8388,
      "hospit": 8389,
      "191": 8390,
      "intersects": 8391,
      "shrin": 8392,
      "fru": 8393,
      "upward": 8394,
      "muons": 8395,
      "implied": 8396,
      "overlay": 8397,
      "gross": 8398,
      "summing": 8399,
      "psr": 8400,
      "ought": 8401,
      "tube": 8402,
      "ordon": 8403,
      "xmath398": 8404,
      "xmath403": 8405,
      "supposed": 8406,
      "tracing": 8407,
      "India": 8408,
      "easier": 8409,
      "proportion": 8410,
      "utilizing": 8411,
      "replacement": 8412,
      "rectangular": 8413,
      "heavier": 8414,
      "rescaled": 8415,
      "However": 8416,
      "months": 8417,
      "seyfer": 8418,
      "friedmann": 8419,
      "replica": 8420,
      "NBA": 8421,
      "Shiva": 8422,
      "'(\\": 8423,
      "340": 8424,
      "nice": 8425,
      "oxi": 8426,
      "slot": 8427,
      "~\\": 8428,
      "mak": 8429,
      "recurrence": 8430,
      "eness": 8431,
      "ensive": 8432,
      "behave": 8433,
      "ulus": 8434,
      "powered": 8435,
      "performs": 8436,
      "xmath415": 8437,
      "disappears": 8438,
      "dens": 8439,
      "heimer": 8440,
      "outburst": 8441,
      "letters": 8442,
      "command": 8443,
      "}{(": 8444,
      "names": 8445,
      "multitensor": 8446,
      "avoi": 8447,
      "poli": 8448,
      "compart": 8449,
      "xmath401": 8450,
      "broader": 8451,
      "electrodynamics": 8452,
      "hypersurfaces": 8453,
      "acyclic": 8454,
      "modulated": 8455,
      "limits_": 8456,
      "illustration": 8457,
      "individuals": 8458,
      "pulsation": 8459,
      "lisa": 8460,
      "Chris": 8461,
      "focusing": 8462,
      "mathematic": 8463,
      "filtering": 8464,
      "inertial": 8465,
      "floquet": 8466,
      "boldmath": 8467,
      "incorporate": 8468,
      "reservoirs": 8469,
      "birth": 8470,
      "western": 8471,
      "rotatebox": 8472,
      "preferen": 8473,
      "bayesian": 8474,
      "familiar": 8475,
      "avoiding": 8476,
      ")]": 8477,
      "1fgl": 8478,
      ">\"": 8479,
      ">,": 8480,
      "Mu": 8481,
      "a2": 8482,
      "house": 8483,
      "mus": 8484,
      "pks": 8485,
      "vc": 8486,
      "went": 8487,
      "{-\\": 8488,
      "thi": 8489,
      "refinement": 8490,
      "atron": 8491,
      "oul": 8492,
      "coali": 8493,
      "mol": 8494,
      "projects": 8495,
      "llll": 8496,
      "abil": 8497,
      "sobo": 8498,
      "xmath417": 8499,
      "xmath450": 8500,
      "xmath423": 8501,
      "006": 8502,
      "008": 8503,
      "boost": 8504,
      "reev": 8505,
      "steeper": 8506,
      "relic": 8507,
      "relates": 8508,
      "prin": 8509,
      "northern": 8510,
      "longest": 8511,
      "xmath405": 8512,
      "directional": 8513,
      "tropical": 8514,
      "polariz": 8515,
      "transportation": 8516,
      "arrival": 8517,
      "rupt": 8518,
      "spanned": 8519,
      "returned": 8520,
      "exposures": 8521,
      "engineering": 8522,
      "\"^-{": 8523,
      "opportunity": 8524,
      "diagnostics": 8525,
      "remnant": 8526,
      "gregation": 8527,
      "totally": 8528,
      "inspired": 8529,
      "ultracold": 8530,
      "Be": 8531,
      "\\;": 8532,
      "apo": 8533,
      "fano": 8534,
      "jillo": 8535,
      "kor": 8536,
      "nav": 8537,
      "ored": 8538,
      "qs": 8539,
      "rl": 8540,
      "asion": 8541,
      "sio": 8542,
      "detuning": 8543,
      "outs": 8544,
      "outward": 8545,
      "losa": 8546,
      "china": 8547,
      "dip": 8548,
      "dium": 8549,
      "spor": 8550,
      "tsch": 8551,
      "xmath416": 8552,
      "dest": 8553,
      "fruit": 8554,
      "cau": 8555,
      "graining": 8556,
      "subscript": 8557,
      "seds": 8558,
      "grating": 8559,
      "ionizing": 8560,
      "mart": 8561,
      "goe": 8562,
      "inclusive": 8563,
      "policy": 8564,
      "cris": 8565,
      "xmath391": 8566,
      "eigenstate": 8567,
      "divide": 8568,
      "apjs": 8569,
      "dramatically": 8570,
      "chemistry": 8571,
      "compositions": 8572,
      "expands": 8573,
      "recovery": 8574,
      "fails": 8575,
      "rgb": 8576,
      "saturated": 8577,
      "poorly": 8578,
      "parametrized": 8579,
      "hbach": 8580,
      "njl": 8581,
      "unfolding": 8582,
      "feshbach": 8583,
      "hysteresis": 8584,
      "assembly": 8585,
      "albedo": 8586,
      "sobolev": 8587,
      "$]": 8588,
      "'}": 8589,
      "360": 8590,
      "King": 8591,
      "]]": 8592,
      "cab": 8593,
      "cms": 8594,
      "dj": 8595,
      "jy": 8596,
      "nit": 8597,
      "pf": 8598,
      "r_1": 8599,
      "sals": 8600,
      "t2": 8601,
      "your": 8602,
      "tol": 8603,
      "exo": 8604,
      "uling": 8605,
      "ulated": 8606,
      "older": 8607,
      "verlag": 8608,
      "hoc": 8609,
      "lived": 8610,
      "causing": 8611,
      "predominantly": 8612,
      "122": 8613,
      "chart": 8614,
      "magnetism": 8615,
      "154": 8616,
      "march": 8617,
      "analysed": 8618,
      "genous": 8619,
      "xmath385": 8620,
      "xmath386": 8621,
      "xmath408": 8622,
      "802": 8623,
      "score": 8624,
      "magellan": 8625,
      "388": 8626,
      "latest": 8627,
      "reports": 8628,
      "kins": 8629,
      "compressed": 8630,
      "quiver": 8631,
      "annulus": 8632,
      "overlaps": 8633,
      "walls": 8634,
      "reliability": 8635,
      "analogue": 8636,
      "histograms": 8637,
      "flares": 8638,
      "edit_ptr": 8639,
      "causal": 8640,
      "fabian": 8641,
      "skew": 8642,
      "physrevlett": 8643,
      "omitted": 8644,
      "absorbers": 8645,
      "cepheids": 8646,
      "solvable": 8647,
      "anderson": 8648,
      "smbh": 8649,
      "January": 8650,
      "Trujillo": 8651,
      "fuzzy": 8652,
      "percolation": 8653,
      "1_": 8654,
      "Cha": 8655,
      "City": 8656,
      "National": 8657,
      "dam": 8658,
      "fly": 8659,
      "hour": 8660,
      "mw": 8661,
      "mdi": 8662,
      "m82": 8663,
      "oms": 8664,
      "oting": 8665,
      "sz": 8666,
      "x_2": 8667,
      "zin": 8668,
      "rein": 8669,
      "entry": 8670,
      "toy": 8671,
      "robot": 8672,
      "permit": 8673,
      "xmath419": 8674,
      "ils": 8675,
      "agraph": 8676,
      "frw": 8677,
      "grad": 8678,
      "letting": 8679,
      "subtle": 8680,
      "preprint": 8681,
      "bigon": 8682,
      "meridi": 8683,
      "originating": 8684,
      "jud": 8685,
      "modest": 8686,
      "decreased": 8687,
      "dispersive": 8688,
      "spheroid": 8689,
      "trivially": 8690,
      "helm": 8691,
      "falling": 8692,
      "emphasized": 8693,
      "instrumentation": 8694,
      "clockwise": 8695,
      "denominator": 8696,
      "migr": 8697,
      "+(": 8698,
      "023": 8699,
      "Blu": 8700,
      "]}": 8701,
      "bp": 8702,
      "dres": 8703,
      "gates": 8704,
      "gordon": 8705,
      "pitch": 8706,
      "tul": 8707,
      "vors": 8708,
      "vast": 8709,
      "wers": 8710,
      "xis": 8711,
      "injected": 8712,
      "oring": 8713,
      "ession": 8714,
      "lege": 8715,
      "champ": 8716,
      "raw": 8717,
      "fimov": 8718,
      "derson": 8719,
      "xmath414": 8720,
      "mimic": 8721,
      "1212": 8722,
      "^{[": 8723,
      "165": 8724,
      "closure": 8725,
      "schmidt": 8726,
      "xmath387": 8727,
      "hamilton": 8728,
      "neces": 8729,
      "developing": 8730,
      "}^{-": 8731,
      "limits_i": 8732,
      "extremal": 8733,
      "concentrations": 8734,
      "diversity": 8735,
      "relaxed": 8736,
      "commut": 8737,
      "improvements": 8738,
      "concerns": 8739,
      "tevatron": 8740,
      "bifurcations": 8741,
      "isotopic": 8742,
      "packings": 8743,
      "squeezing": 8744,
      "skeleton": 8745,
      "attained": 8746,
      "stiffness": 8747,
      "teleportation": 8748,
      ")]\\": 8749,
      "011": 8750,
      "@]": 8751,
      "Ex": 8752,
      "US": 8753,
      "ahar": 8754,
      "cb": 8755,
      "efimov": 8756,
      "lp": 8757,
      "obe": 8758,
      "rts": 8759,
      "vdots": 8760,
      "xample": 8761,
      "andreev": 8762,
      "atum": 8763,
      "town": 8764,
      "roberts": 8765,
      "coded": 8766,
      "proving": 8767,
      "nodal": 8768,
      "eces": 8769,
      "abrupt": 8770,
      "nett": 8771,
      "parad": 8772,
      "liers": 8773,
      "giants": 8774,
      "arities": 8775,
      "minute": 8776,
      "manage": 8777,
      "gradual": 8778,
      "starbursts": 8779,
      "presently": 8780,
      "118": 8781,
      "davis": 8782,
      "183": 8783,
      "zeroth": 8784,
      "separations": 8785,
      "xmath406": 8786,
      "xmath451": 8787,
      "volumes": 8788,
      "288": 8789,
      "convert": 8790,
      "thermally": 8791,
      "suggestions": 8792,
      "proofs": 8793,
      "dramatic": 8794,
      "exclusive": 8795,
      "sdma": 8796,
      "commute": 8797,
      "stern": 8798,
      "universality": 8799,
      "maximally": 8800,
      "survivors": 8801,
      "utilize": 8802,
      "inverti": 8803,
      "guarantee": 8804,
      "favorable": 8805,
      "shields": 8806,
      "academic": 8807,
      "divisor": 8808,
      "library": 8809,
      "hollander": 8810,
      "debris": 8811,
      "security": 8812,
      "AA": 8813,
      "Coun": 8814,
      "West": 8815,
      "a1": 8816,
      "cw": 8817,
      "hab": 8818,
      "ius": 8819,
      "kf": 8820,
      "n2": 8821,
      "rgs": 8822,
      "rash": 8823,
      "oro": 8824,
      "seed": 8825,
      "accom": 8826,
      "default": 8827,
      "chris": 8828,
      "dimin": 8829,
      "hael": 8830,
      "living": 8831,
      "tried": 8832,
      "193": 8833,
      "}}}(": 8834,
      "mimo": 8835,
      "opposed": 8836,
      "creates": 8837,
      "subsystem": 8838,
      "submanifolds": 8839,
      "parameterized": 8840,
      "emis": 8841,
      "}{|": 8842,
      "laton": 8843,
      "says": 8844,
      "reflecting": 8845,
      "countere": 8846,
      "pieces": 8847,
      "realize": 8848,
      "primi": 8849,
      "wavefunctions": 8850,
      "identities": 8851,
      "labelled": 8852,
      "baum": 8853,
      "joined": 8854,
      "relationships": 8855,
      "developments": 8856,
      "expectations": 8857,
      "diffusivity": 8858,
      "vacancy": 8859,
      "systematics": 8860,
      "facility": 8861,
      "nmr": 8862,
      "preserved": 8863,
      "proceeds": 8864,
      "emerges": 8865,
      "emergence": 8866,
      "costs": 8867,
      "sunspot": 8868,
      "tangential": 8869,
      "})\\,": 8870,
      "inserted": 8871,
      "transmitted": 8872,
      "persist": 8873,
      "=\"^,^,^,^,^": 8874,
      "2hdm": 8875,
      "cancellation": 8876,
      "lagrange": 8877,
      "teichmller": 8878,
      "seyfert": 8879,
      "magellanic": 8880,
      "Ac": 8881,
      "NH": 8882,
      "_5": 8883,
      "das": 8884,
      "eg": 8885,
      "kram": 8886,
      "pile": 8887,
      "pages": 8888,
      "swarm": 8889,
      "tse": 8890,
      "yso": 8891,
      "{[": 8892,
      "reconnection": 8893,
      "encoura": 8894,
      "league": 8895,
      "vection": 8896,
      "dio": 8897,
      "radon": 8898,
      "xmath3o": 8899,
      "viable": 8900,
      "shallow": 8901,
      "fring": 8902,
      "waals": 8903,
      "imper": 8904,
      "overcome": 8905,
      "highligh": 8906,
      "}{{{": 8907,
      "fulfilled": 8908,
      "bited": 8909,
      "integrate": 8910,
      "}}}}{{\\": 8911,
      "gues": 8912,
      "rmf": 8913,
      "283": 8914,
      "hump": 8915,
      "electroproduction": 8916,
      "naive": 8917,
      "strahl": 8918,
      "hyperfine": 8919,
      "accreting": 8920,
      "reversible": 8921,
      "witten": 8922,
      "Roman": 8923,
      "jumps": 8924,
      "protection": 8925,
      "punctures": 8926,
      "punctured": 8927,
      "departure": 8928,
      "semiconductors": 8929,
      "acquired": 8930,
      "insulator": 8931,
      "eccentricity": 8932,
      "routine": 8933,
      "bigraded": 8934,
      "comprehensive": 8935,
      "cloning": 8936,
      "primitive": 8937,
      "530": 8938,
      "Fur": 8939,
      "Jew": 8940,
      "cbr": 8941,
      "jones": 8942,
      "nd": 8943,
      "ometric": 8944,
      "oplus": 8945,
      "scor": 8946,
      "things": 8947,
      "reactor": 8948,
      "resembles": 8949,
      "siii": 8950,
      "activ": 8951,
      "itary": 8952,
      "suited": 8953,
      "quies": 8954,
      "persis": 8955,
      "soi": 8956,
      "xmath420": 8957,
      "xmath412": 8958,
      "discover": 8959,
      "health": 8960,
      "1970": 8961,
      "msf": 8962,
      "shu": 8963,
      "managed": 8964,
      "mura": 8965,
      "likewise": 8966,
      "got": 8967,
      "characterizes": 8968,
      "centric": 8969,
      "xmath395": 8970,
      "xmath396": 8971,
      "xmath402": 8972,
      "xmath407": 8973,
      "xmath465": 8974,
      "xmath447": 8975,
      "ccf": 8976,
      "concludes": 8977,
      "solids": 8978,
      "metallicities": 8979,
      "partitioning": 8980,
      "walker": 8981,
      "concern": 8982,
      "occupy": 8983,
      "absolutely": 8984,
      "blob": 8985,
      "screen": 8986,
      "invasion": 8987,
      "surrounded": 8988,
      "incorporated": 8989,
      "percentage": 8990,
      "hexagonal": 8991,
      "mvf": 8992,
      "dissociation": 8993,
      "conflict": 8994,
      "dhda": 8995,
      "diffraction": 8996,
      "strahlung": 8997,
      "2a": 8998,
      "bv": 8999,
      "e1": 9000,
      "epi": 9001,
      "eastern": 9002,
      "qpo": 9003,
      "}:\"": 9004,
      "thous": 9005,
      "orbif": 9006,
      "roles": 9007,
      "ache": 9008,
      "acies": 9009,
      "deposition": 9010,
      "hell": 9011,
      "endpoint": 9012,
      "opf": 9013,
      "nonrelativistic": 9014,
      "variances": 9015,
      "operads": 9016,
      "bigger": 9017,
      "elle": 9018,
      "freeze": 9019,
      "lices": 9020,
      "convergent": 9021,
      "cube": 9022,
      "diagonalization": 9023,
      "toroidal": 9024,
      "monopole": 9025,
      "risk": 9026,
      "isomorphisms": 9027,
      "organization": 9028,
      "ballistic": 9029,
      "Anderson": 9030,
      "communications": 9031,
      "powder": 9032,
      "})\\,\\": 9033,
      "patches": 9034,
      "activities": 9035,
      "guarantees": 9036,
      "Israel": 9037,
      "ellipsoid": 9038,
      "leakage": 9039,
      "millimeter": 9040,
      "mobile": 9041,
      "'}(": 9042,
      "270": 9043,
      "537": 9044,
      "Ma": 9045,
      "_4": 9046,
      "bw": 9047,
      "fon": 9048,
      "gos": 9049,
      "jack": 9050,
      "m2": 9051,
      "paren": 9052,
      "r2": 9053,
      "inflow": 9054,
      "inputs": 9055,
      "asc": 9056,
      "assis": 9057,
      "leman": 9058,
      "toler": 9059,
      "selecting": 9060,
      "acs": 9061,
      "acted": 9062,
      "fornia": 9063,
      "wee": 9064,
      "week": 9065,
      "convin": 9066,
      "concurrence": 9067,
      "love": 9068,
      "church": 9069,
      "dimers": 9070,
      "unclear": 9071,
      "bye": 9072,
      "trial": 9073,
      "pressures": 9074,
      "eq1": 9075,
      "frank": 9076,
      "grained": 9077,
      "cleo": 9078,
      "overestimate": 9079,
      "spinors": 9080,
      "147": 9081,
      "biological": 9082,
      "185": 9083,
      "189": 9084,
      "holtz": 9085,
      "integrand": 9086,
      "grey": 9087,
      "404": 9088,
      "dropped": 9089,
      "planned": 9090,
      "investigating": 9091,
      "centrality": 9092,
      "explaining": 9093,
      "dividing": 9094,
      "dras": 9095,
      "organic": 9096,
      "coincident": 9097,
      "pinning": 9098,
      "pinned": 9099,
      "nnlo": 9100,
      "subtracting": 9101,
      "gonz": 9102,
      "symmetri": 9103,
      "lifting": 9104,
      "}}}}}/": 9105,
      "ingredient": 9106,
      "Egyptian": 9107,
      "meteor": 9108,
      "refined": 9109,
      "atrix": 9110,
      "045": 9111,
      "439": 9112,
      "Sap": 9113,
      "Wh": 9114,
      "blast": 9115,
      "dently": 9116,
      "fis": 9117,
      "hbar": 9118,
      "ja": 9119,
      "jnl": 9120,
      "nvss": 9121,
      "pis": 9122,
      "rw": 9123,
      "yi": 9124,
      "incompressible": 9125,
      "ardi": 9126,
      "lebes": 9127,
      "unphysical": 9128,
      "xmath422": 9129,
      "disentang": 9130,
      "eneral": 9131,
      "stry": 9132,
      "thermali": 9133,
      "bump": 9134,
      "buyer": 9135,
      "dome": 9136,
      "190": 9137,
      "shots": 9138,
      "pel": 9139,
      "intersections": 9140,
      "ongoing": 9141,
      "willi": 9142,
      "osable": 9143,
      "electrical": 9144,
      ",\\\\": 9145,
      "\\\\\\": 9146,
      "ishi": 9147,
      "determinations": 9148,
      "gences": 9149,
      "merged": 9150,
      "neutrons": 9151,
      "separatrix": 9152,
      "xmath404": 9153,
      "harris": 9154,
      "suppl": 9155,
      "photospheric": 9156,
      "suffer": 9157,
      "polarizations": 9158,
      "snrs": 9159,
      "gapless": 9160,
      "widehat": 9161,
      "quasiparticle": 9162,
      "asymptotics": 9163,
      "june": 9164,
      "simplification": 9165,
      "repetition": 9166,
      "younger": 9167,
      "aware": 9168,
      "ellipticals": 9169,
      "ambiguous": 9170,
      "progenitors": 9171,
      "deuter": 9172,
      "dilute": 9173,
      "puzzle": 9174,
      "automaton": 9175,
      "commensur": 9176,
      "coalition": 9177,
      "}{{{,\\": 9178,
      "lebesgue": 9179,
      ")(\\": 9180,
      "Ear": 9181,
      "Lo": 9182,
      "Lond": 9183,
      "Mo": 9184,
      "Mark": 9185,
      "March": 9186,
      "_fig": 9187,
      "bone": 9188,
      "f2": 9189,
      "flas": 9190,
      "plu": 9191,
      "sas": 9192,
      "sft": 9193,
      "zak": 9194,
      "recon": 9195,
      "anon": 9196,
      "allax": 9197,
      "oured": 9198,
      "enty": 9199,
[...]
